#version: 0.2 - Trained by `huggingface/tokenizers`
Ġ Ġ
ĠĠ ĠĠ
ĠĠ Ġ
ĠĠĠĠ ĠĠĠ
s e
i n
r e
o n
e r
o r
a t
Ġ t
> <
s t
) <
Ġ =
d e
: <
Ġ a
se l
sel f
ĠĠĠĠ ĠĠĠĠĠĠĠ
Ġ i
m e
l e
a l
a r
h e
i on
" "
Ġ re
Ġ c
Ġ f
u r
- -
Ġ p
) :<
Ġ self
t e
Ġ n
p e
r o
a n
m p
c t
de f
Ġ o
in g
Ġ s
Ġ e
Ġ in
g e
Ġt he
a me
i t
a s
n t
c e
ĠĠĠĠ ĠĠĠĠ
ur n
t urn
Ġ #
Ġ b
Ġ d
u e
Ġ def
u t
l o
Ġ w
_ _
Ġre turn
"" "
n d
Ġi f
. <
r a
Ġ '
l i
c o
Ġ m
, <
Ġ "
or t
at e
st r
p t
f i
Ġ (
o t
Ġi s
-- --
Ġ """
on e
se r
k e
y pe
u l
Ġt o
i l
v e
a d
d i
n ame
Ġf or
mp ort
i s
er s
ĠĠĠĠ ĠĠĠĠĠĠĠĠĠĠĠ
t h
v al
N one
c h
u n
ge t
ro m
as s
. _
u p
Ġ T
r i
at h
c k
o l
Ġe x
c l
Ġo f
a b
Ġa s
e s
ul t
Ġ""" <
] <
Ġ _
me nt
e x
se t
q u
r or
Ġn ot
t er
pt ion
Ġ [
s s
e l
Ġt h
i d
Ġi mport
Ġ 1
Ġa nd
o d
at a
Ġ None
Ġ -
e ct
( )<
val ue
' ,
e d
al l
at ion
# #
a se
m a
ser t
i le
Ġ h
an d
f rom
( "
it h
) )<
t r
g s
cl ass
Ġc on
ers ion
p ath
c on
Ġc o
" ,
t ype
R e
Ġd i
Ġ S
Ġb e
r ror
Ġ u
E rror
p ar
te d
u m
or m
Ġ v
ab le
Ġ or
l a
---- ----
Ġ I
Ġ C
Ġ 0
i z
b j
Ġ P
c he
ct ion
Ġ +
Ġ *
t o
pe c
re s
i me
ĠĠĠĠĠĠĠĠ ĠĠĠĠĠĠĠĠ
Ġ str
( '
l in
Ġ `
a ge
Ġ :
v er
i p
i se
Ġre s
Ġ lo
e st
Ġ 2
( )
in t
ke y
Ġ __
e n
Ġt ype
p y
Ġ F
Ġ de
a ck
a p
r ue
f o
i g
Ġ A
fi le
ra y
Ġn ame
p er
p re
b u
Ġw ith
li st
Ġ st
o de
Ġ r
p ro
__ (
f orm
t a
ur l
Ġ value
i mport
ar gs
l y
i st
Ġa r
q ue
de x
Ġf ile
i ve
Ġ %
Ġa n
Ġ= =
al se
ra ise
a m
" )<
Ġ D
0 0
Ġp ar
( <
Ġas sert
Ġ g
n s
li b
x t
iz e
i c
di r
Ġa l
e t
o u
) ,
Ġn p
el d
Ġf rom
o w
bj ect
Ġ me
Ġe l
Ġth at
or d
Ġ get
s p
Ġel se
""" <
Ġp ro
Ġ le
qu al
> #
o s
mp le
Ġ- >
u b
co de
' )<
in st
qu i
r y
v i
Ġt est
h t
u re
an ce
) .
## ##
] ,
e w
Ġ se
se d
Ġ {
] )<
m m
at ch
> >
a ult
Ġ raise
in d
i b
" <
Ġ )<
v ersion
i es
Ġ on
te xt
Ġ 3
Ġ O
. .
o ut
a g
Ġ y
p ut
in it
ex t
d ate
i te
c a
o ol
= =
ption s
t y
Ġ set
o ur
( [
ar ray
ut il
Ġth is
Ġ E
Ġ Re
m s
Ġ M
u le
Ġb y
il d
y s
Ġm a
ĠĠĠĠĠĠĠĠ ĠĠĠĠĠĠĠĠĠĠĠ
Ġres ult
t ri
k w
' <
d ata
re ct
th od
Ġi t
que st
Ġ x
Ġo s
g g
at tr
th er
re d
f f
Ġ L
th on
m o
o c
Ġ @
h o
Ġ N
p r
in fo
` `
a ce
co l
Ġp ath
I n
Ġ <
t ime
ĠT he
) ,<
od ule
he ad
Ġa re
an ge
. __
our ce
at or
ar t
i fi
o k
Ġ` `
i eld
lo w
e qual
ar y
o re
Ġv ersion
Ġ U
ke n
h a
Ġd ata
lin e
ĠT rue
Ġw e
Ġc l
Ġ list
i al
re nt
as sert
pec ted
ce pt
te s
Ġp re
o m
Ġ key
er ror
Ġe n
mm and
ĠF alse
-------- --------
il l
le ment
fi g
Ġc h
Ġ l
lo c
Ġp y
co mp
te st
Ġ un
T rue
a c
r ame
pe n
o in
ut ion
or y
pe nd
s c
Ġc an
util s
Ġs up
Ġ* *
ar n
Ġ W
i f
/ /
Ġin st
Ġo bject
s ing
Ġ B
u st
kw args
de d
= "
E R
Ġf un
Ġc ol
Ġo ther
a ct
ate d
Ġstr ing
p o
val id
j oin
Ġ V
ce ss
inst ance
Ġh as
str ing
Ġw he
re ad
d ing
Ġt ry
qui re
ter n
i m
a ve
Ġw h
e c
0 1
h is
Ġo ut
in dex
' ,<
Ġle n
Ġ at
Ġ G
} <
e nt
: `
p on
str ib
m b
n ect
" ,<
C on
p s
[ "
' :
in e
Ġex pected
( ):<
an g
i x
strib ution
i r
l at
I N
ul d
Ġu se
" :
ss ion
Ġd o
f un
t s
it y
ap pend
par se
fi x
Ġdef ault
ack age
di st
Ġlo c
F alse
Ġ H
form at
he ck
u s
R E
par am
Ġex cept
up le
Ġis instance
O N
ption al
n p
[ '
it er
Ġw ill
Ġdi st
Ġco mp
ra p
ode l
al ue
Ġs pec
mo ve
E x
p la
ou nd
ĠT his
le n
Ġb u
ro up
A T
ce ption
u nt
pon se
ad d
Ġ >>
quire ment
o ptions
te nt
an s
ĠI f
Ġs o
y thon
lo ad
Ġ url
ig n
s ize
s o
Ġ>> >
m at
. """<
Ġa d
n ce
p p
tri bu
d er
l l
#### ####
Ġ 4
u ment
Ġal l
w ord
Ġn ew
n er
Ġs ys
Ġn o
ĠRe turn
Ġt ime
ma ge
arn ing
per ty
re e
as k
ĠI n
Ġ .
= '
m in
b er
b y
nect ion
lin k
ĠĠĠĠ Ġ
p ort
ab el
de nt
ss age
ri pt
le ase
ri te
it ion
li c
O R
Ġp ass
co ding
Ġcl ass
Ġme thod
b o
a x
b ase
" ]
l it
Ġ k
Ġm atch
u mp
Ġc a
Ġin t
Ġfun ction
m l
le d
ta in
res ult
== ==
6 4
ar d
p a
Ġ ..
t ra
Ġ R
lo at
o bject
ho uld
d type
Ġre quest
re q
' ]
fi eld
f e
cl u
Ġa x
Ġar ray
' t
P ar
ar k
Ġd type
re ate
f t
Ġp r
ot h
Ġin dex
ow n
M E
all y
Ġ >
r on
mp l
ad ata
T ype
Ġ[ ]<
c ur
fun c
me thod
' s
pro perty
Ġ 5
or k
w ith
di ct
Ġn e
t ing
def ault
ut h
Ġ ro
Ġc heck
Ġpr int
Ġ he
Ġn um
n o
a mple
ve nt
Ġ head
rect ory
Ġu ser
n um
Ġu sed
alue Error
Ġs hould
d a
Ġto ken
pla ce
tr ing
Ġs ub
m odule
sp ace
li f
re am
Ġd f
f or
Ġc ur
S T
Ġp ip
o bj
Ġp o
bu ild
ha pe
ca che
ve l
w a
Ġb ase
u ct
m d
[ :
Ġar g
n c
Ġ z
Ġvalue s
ap p
Ġ up
" )
te g
u ser
S t
g ht
ive n
s ub
Ġpar se
Ġ error
f ace
Ġan y
Ġb ool
ar s
Ġm odule
u se
i ch
an t
ar g
P ro
' )
n ot
ĠĠĠĠ ĠĠ
a il
st art
ar get
er y
ĠP ar
ĠP ython
3 2
Ġt m
1 2
ĠE x
Ġsup er
Ġd ate
Ġ line
L E
t adata
ang o
j ango
: //
lat form
li ke
A R
C h
h as
ns ion
vi ron
D i
Ġc all
or ted
in al
t ers
Ġe lif
o p
tr y
ul l
Ġfor mat
N ame
b ack
pre ssion
clu de
p os
inst all
Ġ j
gg er
sp lit
st ate
Ġ( <
* *
Ġ la
( ))<
s pec
tribu te
K e
ma p
T ag
ac ke
con fig
ri ght
che ck
Ġ one
Ġg iven
( (
Ġh ave
re lease
st e
f rame
C o
Ġf ield
S E
Ġwh ich
D E
ar ch
type s
g th
e nd
lo ck
Ġ( '
1 0
Ġi ter
Re turn
g roup
Ġs c
al led
re quest
Ġi te
Ġe nd
ump y
and l
Ġ+ =
co mmand
value s
ma x
Ġco de
Ġon ly
Ġspec ifi
ĠO ptional
ge ner
Ġfile s
S tring
Ġ !
u te
ms g
teg er
i de
Ġst art
t p
S I
Ġt ext
Ġa b
Ġad d
par ser
Ke y
co unt
mp ty
Ġ! =
i code
lo b
ation s
ĠĠĠĠĠĠĠĠĠĠĠĠĠĠĠĠ ĠĠĠĠĠĠĠĠ
Ġwhe n
Ġ ser
oth er
ar i
Ġh t
tern al
Ġout put
r un
] ,<
re ss
Ġp ackage
E lement
Ġo ptions
T T
A L
lo se
col or
ver t
] )
R es
s g
Ġ[ '
S et
~ ~
ction s
Ġch ar
file name
j ect
Ġbu ild
Ġb ut
st at
lin es
ra w
e e
ite m
' ]<
ma in
co m
er r
C H
Ġ ):<
w rite
q l
p i
k ip
se s
te nsion
ĠC o
x y
che me
---------------- ----------------
nd er
ig ht
Ġm ust
Ġt uple
Ġ( )
g n
() .
name s
Ġco mmand
ce s
Ġma x
sc ript
Ġarg ument
l abel
Ġa pp
o pt
D e
Ġcon tain
E N
ir st
py thon
and om
d oc
- <
Ġy ield
Ġdo es
qu ery
co py
F rame
ic al
g ame
Ġ" <
Ġs u
a st
Ġcur rent
di date
lo g
er t
con text
e p
m odel
orm al
um n
Ġt e
ĠC on
Ġd is
L ist
mpl ate
ag er
o te
( _
TT P
u al
Ġm sg
Ġlo g
a ch
ur face
re g
Ġa c
ch ar
ĠĠĠĠĠĠĠĠ ĠĠĠĠĠĠĠĠĠĠĠĠĠĠĠ
con d
n e
Ġ 6
ke d
Ex ception
Ġu sing
c s
Ġn ode
Ġar gs
acke nd
Ġs y
Ġca che
n ew
Ġo per
C K
Ġr ange
S S
ite ms
Ġp os
c ate
F ile
id th
andl er
cl s
pe d
ĠV alueError
at tern
ro w
t able
) )
Ġs h
m ark
ib le
Ġp a
od y
s u
E qual
In dex
on g
iz ed
ke t
m an
file s
p lo
Ġdi rectory
d f
Ġs ource
ind ow
bu g
m atch
Ġre ad
V ersion
Ġres ponse
Ġe lement
] .
" .
ool s
ĠU n
t ps
f ind
Ġex tra
p ackage
r ans
ame ters
er ies
R L
Ġme ssage
re f
Ġh o
r c
T o
il er
ĠReturn s
me ssage
qui res
Ġi d
pe ct
st ra
Ġ --------
raise s
s y
Ġcon fig
Ġp er
to ken
es s
in ed
Par se
se nt
Ġm at
lib r
up date
pre fix
Ġex p
Ġo bj
Ġin put
ou s
and le
c all
Ġinst all
comp ile
Ġs ize
Ġ /
le an
s h
L o
Ġal low
Ġr un
Ġm odel
Ġo ver
Ġdi stribution
str uct
> @
Ġst ate
Ġf irst
gg ing
li m
s on
Ġs p
Ġdi ct
ĠD i
la y
ĠD e
() ,
me n
Ġd jango
in ternal
ata Frame
Ġ |
ste m
Ġinst ance
Ġc ase
a k
B ase
ult i
o pen
p ing
ifi er
Ġma ke
ge x
Ġnum ber
######## ########
s ource
c an
i e
g or
pro cess
Ġen coding
Ġcon nection
um ns
Ġ{ <
Ġ valid
" :<
Ġre q
n y
Ġcon text
Ġe nt
Ġpy game
: :<
Ġ1 0
ex pr
assert Equal
viron ment
Y P
t in
if y
T E
e gg
' ):<
mple ment
Ġ --
Ġf ind
o o
Ġite m
s hape
te mp
T I
p ack
pre c
ht ml
Ġin ter
Ġ[ <
mb da
Ġ attr
ut ure
Ġ \
Ġax is
oc ket
Ġdist utils
Ġo pen
ut f
sel ect
9 9
` <
que nce
ĠĠĠĠĠĠĠĠ Ġ
Ġex pression
le vel
Ġf loat
sc ri
Ġ[ "
c lose
a re
lob al
Ġfile name
Ġget attr
Ġcl s
ro u
ff er
out put
Ġw arning
dir s
==== ====
Ġre quirement
e ad
a uth
m ask
ĠĠĠĠĠĠĠĠ ĠĠ
ho st
IN G
at ive
un k
ce n
. ,
Ġma y
li ent
v id
" ]<
A r
Ġm in
Ġcon tent
c md
t ree
Ġ{ }<
int s
a y
s with
` .<
l p
Ġdate time
n an
) .<
re nce
' .
Ġin to
w e
Ġf ound
head ers
it s
} )<
Ġname s
k g
ta g
ĠS ee
0 2
p orted
men ted
-- <
Ġm o
Ġ' .
Ġor ig
[ -
la gs
o ption
Ch ar
Ġ( "
re place
pr int
co re
le ct
ext ra
" ):<
Ġn umpy
f loat
fi l
A N
Ġw ork
f ter
Ġre move
i ck
Ġm ode
d b
ok up
Ġa v
di sp
Ġy ou
me tadata
U n
Ġne ed
E n
fo re
M L
Ġco py
key s
by tes
plo t
T est
vi de
Ġse e
t ro
con tent
Ġs ame
Ġdi r
' :<
url lib
r ange
g ra
in ter
e lement
di stribution
Ġor der
m ode
p h
Ġex ist
tribu tes
1 6
Ġpar t
d o
c ord
: :
Ġin teger
Ġm an
ĠD ataFrame
w ork
low er
Ġso me
it le
Ġ gener
ĠF or
ting s
a ke
w he
> """<
n el
ist er
g ment
Ġhead er
b e
F I
mple mented
ĠL ist
Ġ link
Ġsup port
2 01
de l
st ream
Ġc reate
Ġ ----
Ġhead ers
Ġst at
Ġ val
P I
o ff
Ġv ari
Ġm ask
che s
di rect
Ġo pt
U N
ĠN ot
Ġby tes
Ġ' %
on t
d d
Ġwh ile
) :
Ġi mage
Ġre g
b in
i v
cur s
gn ore
c re
en code
Ġt arget
tr ans
Ġ kwargs
Ġa ct
_ (
Ġl abel
head er
Ġt ra
loc al
ĠS eries
U T
ok ie
F ield
Ġpar ser
l d
ke ns
Ġd oc
in put
t arget
act ers
Ġv er
bo x
st all
Ġme tadata
as ses
ĠĠĠĠĠĠĠĠĠĠĠĠĠĠĠĠ ĠĠĠĠĠĠĠĠĠĠĠĠĠĠĠĠ
ĠT ype
Ġc or
re quirement
Ġlo ad
res ource
Ġo ption
ap i
Ġp latform
ff e
s ys
u res
ĉ ĉ
Ġlo gger
ve nd
l ass
Ġre t
ĠT est
res ponse
Ġcol or
c i
il ter
( *
Ġpre fix
Ġm ore
ex ec
U L
Ġthe n
form ation
l t
Ġlo gging
z ip
I D
str ip
ser ies
Ġin fo
len gth
w ard
y le
Ġt rans
p ass
00 0
Ġfun c
re pr
Ġa p
Ġp d
ur ation
SS L
ction ary
Ġt ag
a fe
Ġw as
W arning
re turn
Ġ 8
Ġn on
ĠU RL
ro ot
ol ve
v is
Ġe vent
rap h
5 5
s um
cen se
nt er
tro l
ol s
Ġreturn s
date time
). __
ca le
libr ary
ult ip
w in
Ġ ""
er o
Ġb ack
Ġw rap
Ġ X
Ġreturn ed
Di ct
u pt
C O
ut able
ol d
a mp
> _
ax is
te n
Ġt y
de bug
Ġwhe re
Ġi gnore
ht tp
ma ke
Ġpy test
id x
de red
Ġe ach
vend or
b ar
i od
w rap
s ign
ĠEx ample
Ġwarning s
ri d
w arn
ac y
L O
release s
and as
] :<
Ġof f
en coding
Ġ ]<
c le
ord er
Ġobject s
Ġhas attr
A B
ail able
I O
iter al
h s
Ġspecifi ed
r andom
own load
Ġ 7
R I
( ?
SI ON
at ab
Ġar ch
g ine
fe rence
po p
ĠH TTP
atab ase
n ode
i o
># <
Ġ> =
t tribute
O r
on ly
V alueError
C ol
ĠPar se
CH E
" ),<
Ġargument s
Ġdi rect
ns ure
I mplemented
s i
con nection
Ġhas h
YP E
Q L
F F
del ta
T he
ol y
fo o
( {
has h
mm on
re ak
> )<
te nd
i mage
field s
n a
Ġal so
a ise
scri ption
en er
ol low
w ise
c or
Ġex ec
ĠD ist
Ġ }<
\ \
vi ew
D I
param s
v ar
Ġro ot
ĠW e
g acy
pre sent
5 6
p latform
Ġi mplement
i ew
s pect
Ġcomp at
ĠNot Implemented
Ġerror s
Ġin it
ta il
vid er
.. .
Ġ< =
C T
Ġst ream
g in
Ġpro cess
Ġg roup
ĠI mport
Res ult
s cheme
at ing
Ġup date
Ġc re
Ġt able
n own
Ġa ction
pro ject
e vent
ing le
= [
comp at
fil ter
t uple
fi r
Ġthe re
// //
w idth
Ġz ip
R O
upt ools
Ġoper ator
z e
le te
Ġu nder
ĠS et
fi ll
Ġth an
che d
Ġat tribute
w o
read y
Ġ Key
start swith
m is
Ġres ource
t z
Ġin formation
Ġhe re
in sert
s urface
che ma
re move
s kip
Ġin clude
m t
b le
qui red
T ime
o id
Ġ like
T H
' ))<
a v
o f
as sed
2 3
T ML
at ure
m y
ex pected
Ġht tps
co der
A D
) ))<
st amp
y nc
b ool
de n
iz er
s up
Ġun icode
f er
g h
N A
~~ ~~
] ]<
Ġex ception
Ġit s
Ġfor m
Ġe mpty
off set
ut o
Ġsc ript
po st
G et
Ġ qu
s ol
al p
st d
il ity
P ython
1 1
Ġlen gth
Ġtype s
Ġ" .
M e
ĠPar ameters
mo st
A ction
ex tension
Ġcol le
he s
St ate
Ġ{ }
Ġ J
or g
al low
ĠP y
a in
E X
fun ction
re quires
Ġ.. .
p attern
Ġ query
error s
D O
ca pe
po int
Ġid x
1 00
Ġf ull
Ġb reak
ma il
le ft
8 6
Ġdi ctionary
Re quest
de code
ri x
ĠImport Error
Ġtime out
' ),<
w w
Ġla st
Ġpar sed
Ar ray
Ġpar am
li p
tr as
s ave
ial ize
s ql
F A
Ġpa rent
j son
Ġch ange
ĠP ro
Ġro w
Ġf ollow
Ġho st
Ġde st
Ġ right
f uture
indow s
Ġpar ts
E P
o me
ame ter
pa rent
Ġcon tin
1 4
Ġle vel
ĠDist utils
d u
ul ar
Q u
wa re
E L
) ):<
Ġ lines
th ing
wa it
r an
A S
able s
Ġs cheme
Ġty ping
n et
Ġ' <
" ])<
Ġi m
b ody
par t
Ġb ackend
pla y
Ġs ave
c reate
" ))<
py test
Ġm ark
Ġ{ "
Ġ-------- --<
Ġd on
n umpy
reg ister
Ġdi ffe
D ata
Ġresult s
Ġp assed
Ġo ptional
Ġav ailable
Ġco mple
{ }
C an
module s
Ġ Y
N ot
w arning
Ġc md
Ġbe fore
ca use
r iter
Ġs ign
class method
fir st
Ġin string
ce ptions
V alue
Ġf rame
Ġle ft
ifi c
opt s
Ġcol umn
b ot
Ġde l
Ġn ext
cur rent
Ġs ingle
p age
Ġh andle
T ext
w h
vi ded
ĠI ter
M A
Ġ' '
F orm
Ġloc al
Ġpath s
me ta
Ġinst ead
Ġpos ition
ate s
Ġn ormal
Ġp andas
app ing
a gs
se arch
Ġw rite
Re quirement
f n
str i
ase s
Ġname d
Ġ err
Ġcontin ue
lic ation
sol ute
" ],
Ġ' /
unt ime
loc ation
ign ore
ok s
G E
__ )<
o se
pen de
ĠA l
Ġa fter
-- -<
ĠType Error
t on
] [
Ġen vironment
to col
Ġhe lp
Ġby te
di rectory
OR M
u ild
Ġre place
ultip le
Ġin di
ite space
N O
Ġt ar
en viron
In fo
i str
or s
pende nc
ist s
Ġoff set
as h
Ġ 9
Di stribution
Ġp attern
2 0
Ġre present
Ġwhe el
el l
AT E
Ġpy thon
prec ated
re l
S e
id get
ĠO S
H TTP
tri b
Ġstring s
Ġw ant
en v
Par ser
ĠĠĠĠĠĠĠĠĠĠĠĠĠĠĠĠ ĠĠĠĠĠĠĠĠĠĠĠ
1 7
ar ies
la mbda
Ġco m
Co mp
Ġorig inal
man ager
Ġal ready
la g
b it
A ny
Ġ-------- <
ve d
Ġs kip
ht tps
bu ffer
Ġw in
Ġthe y
ab s
`` .<
Ġkey s
m od
Ġht tp
rou nd
path s
ator s
ex tend
pro xy
Ġse quence
Ġd t
li ed
Ġte mplate
H andler
C lass
ex cept
f ul
Ġo ld
V ER
te mplate
b ackend
move s
Ġte mp
([ [
s rc
n on
n ing
Ġset up
Ġa li
tail s
UL T
bu f
ex p
Con text
le t
al ar
ĠW he
ar r
resource s
ot al
or ig
col umns
Ġm ap
it able
ar ange
Ġfield s
stat us
n g
stat ic
t itle
C a
h er
as on
Ġt er
Ġcon vert
c ert
Ġex c
and ard
lic it
Ġj ust
Ġi dent
To ken
c cess
Ġcol umns
In stall
Ġpro vided
ĠV ersion
set up
ĠI t
et ch
t xt
whe el
Ġurl lib
Ġco unt
Ġe d
i que
Ġite ms
I C
b lock
ab c
Ġb lock
c ted
Ġg lobal
ĠS ec
co mple
n ext
ĠT ime
` ,
lo sed
o g
CHE CK
Ġs hape
wa ys
s or
num ber
] ))<
s ue
Ġ &
( __
Ġpro ject
n ormal
ra gment
t he
package s
] +
Ġf in
ĠĠĠĠĠĠĠĠ ĠĠĠĠ
ri es
p ri
to p
FA ULT
Ġ )
Ġc alled
f ault
ro p
Ġse ssion
ve n
Ġto kens
at ter
in string
aise s
ge st
ĠA ny
Ġw ord
3 4
Ġp kg
. "<
lim it
Ġmethod s
ĠNotImplemented Error
in k
act er
d t
z y
pre ss
nt ax
v ars
Ġf ilter
e mpty
Ġla mbda
ith er
Con nection
? <
Ġar r
s l
Ġf ill
5 0
Ġ1 00
NA ME
ke ep
q a
Ġr andom
at er
Ġab solute
vis ion
ĠW ord
Ġent ry
o per
ĠC heck
im al
in clude
Ġbe cause
Ġex ample
pa re
s ite
Ġb o
Ġname space
Ġloc ation
comp iler
Ġo ur
an y
Ġno qa
Ġre l
ter m
Ġs ql
] ])<
) ]<
cond s
ust om
F ORM
stra int
Ġthe m
de v
istr y
Ġb in
ad ded
" ).
Ġinst alled
pec ifier
ent ry
E S
Ġdef ined
Co mmand
me th
can didate
is sing
Ġ" __
c ase
I mage
ang u
Ġb ody
F ound
ge n
ĠC all
bo se
angu age
2 4
le ss
Ġdiffe rent
pass word
ver se
Res ponse
Ġbe en
ĠT uple
Ġs ocket
it ive
g lobal
Ġt wo
c lient
Ġchar acters
' ],
) [
ĠA r
s ide
f fix
ic ro
ĠG H
m ary
vi ous
Ġre lease
e ar
Ġ lib
Ġser ver
pos ition
ub lic
st yle
Ġ---- ---<
Result s
Ġ1 2
Ġpo int
ci i
spect ive
P Y
re n
Ġcan didate
Ġch unk
Ġp ort
" ),
ĠS t
ri de
ta gs
Ġ" %
time out
f p
Ġ{ '
Ġwhe ther
ĠL i
set tings
li ce
ur ity
stra ct
er os
Ġbe t
ion s
ĠN o
FORM AT
ch ange
al most
ĠEx ception
Ġdoes n
ix in
1 5
s ha
pt er
Ġe nsure
ib ility
x x
parse String
ca st
N ode
00 00
m on
Ġt z
T ER
ix el
Ġkey word
Ġn et
Ġa uth
ĠB ase
a ction
s afe
__ <
ate gor
Ġf req
s ort
ttribute Error
Ġpass word
ile d
f req
4 0
Ġelement s
in valid
Ġf ig
p kg
Ġre quired
or ies
Ġb ound
f act
Ġwith out
Ġen code
U S
ex ists
se ssion
p l
O ptional
Ġin valid
col umn
vide s
Ġpar ameter
Ġn d
Ġ select
Ġex t
Ġex pr
par sing
Ġfunction s
f inal
k er
f lags
to ols
ce nt
Ġp lt
B y
ĠIn dex
gra m
g t
ss l
iz ation
one nt
Element s
la st
r it
Ġw idth
as ked
ff ect
disp lay
Ġcon n
v c
N T
I S
Ġthe se
Ġf e
ĠA n
fi ed
\ .
pt h
Ġs i
con vert
2 00
' ),
con tain
Ġcolle ctions
n one
n ow
tri es
Ġf ail
ĠKey Error
Ġstr uct
T his
un icode
Ġ q
Ġex tension
([ "
p atch
model s
Parse Action
ex c
re gex
Ġarch ive
re al
par ts
oo lean
ex pression
ver y
M odule
Ġ- *
ig r
val u
Ġv iew
ĠĠĠĠĠĠĠĠĠĠĠĠĠĠĠĠ ĠĠĠĠĠ
om ment
P re
im um
in ce
name space
Ġset uptools
con n
M ore
:` _
Ġat tributes
ĠP EP
a ded
( -
Re pr
ĠDi ct
======== ========
vi ce
Ġparam s
dir name
s ocket
' ])<
Ġcontain s
da y
ĠS e
ĠCo py
an nel
gor ith
`` ,
Ġsy stem
M P
} ,
Ġde tails
ĠDi stribution
Ġp ri
Ġrequirement s
t ar
st ore
Ġ Z
co pe
we en
Ġrequest s
e ded
r t
a le
L en
E nd
Ġj son
l ate
Ġbu f
F O
Ġsu ch
Ġt ri
g ress
Re f
R A
Ġ2 0
Ġpre releases
ĠR es
Ġlo w
ĠSec urity
ĠS tring
L A
() .__
Ġ li
Ġpackage s
Ġe ither
g le
us h
I d
b ound
ame tri
ĠU se
co mmon
Ġt ree
C E
ch at
Ġmatch ing
load er
bin ary
} )
Ġversion s
se p
Ġu s
O S
str Repr
. ")<
l s
Ġl ong
p ly
qu ote
Ġsup ported
ess age
er ic
cl asses
ĠĠĠĠĠĠĠĠ ĠĠĠĠĠ
me d
o ver
i ce
Ġcon struct
Ġdoc ument
################ ################
M an
act ive
Or More
__ ,
' \
Ġcor rect
-------------------------------- --------------------------------
Ġcontain ing
def ined
Ġa ut
Ġallow ed
f li
Ġs orted
Ġse ction
Ġfin ally
i dent
( **
S er
Ġpro xy
A pp
Ġfollow ing
h andler
m ory
so ft
__ ()<
trans form
cle ar
T YPE
Ġcomp iler
Ġcon ver
Ġlo okup
m ulti
c ript
ur f
es cape
ct ype
able d
Ġstart Tag
Ġ3 2
ametri ze
L I
ment s
B A
ĠN ote
er ge
res h
z one
= ["
p ool
Ġdistribution s
Ġ library
Ġb oth
h andle
Ġi mp
K E
Ġc ert
so le
N o
Ġt ake
Ġ' '<
o uld
Ġt ags
Ġin dent
Ġdis play
as ic
par ametrize
Ġre quires
M ixin
num s
ĠH TML
B U
P ath
disp atch
DE FAULT
3 3
Ġpo st
Return s
ha vi
C all
Ġs ort
e q
Ġac cess
di a
Ġp ool
comp are
L S
s ure
P P
' ).
Ġde scription
prec ation
Ġset tings
or ch
= (
7 8
Ġre al
I T
ĠA ttributeError
d jango
i a
f ull
Ġ\ <
P y
ĠLi cense
ct or
ĠI mage
g ative
fli ct
Ġwith in
gorith m
ss ible
Ġpar ameters
Ġ' __
Ġal ways
Ġ2 00
as cii
ition al
ĠCopy right
Ġf lags
C F
ĠCo mmand
d ump
Ġco okie
X X
term ine
le ction
ra g
dist utils
st ack
ast ype
ĠĠĠĠĠĠĠĠĠĠĠĠĠĠĠĠ Ġ
Ġversion added
ial izer
re en
il tin
con trib
static method
Ġ util
se ction
Ġth read
Ca che
ag ing
m it
Ġn ow
Ġse par
script s
Ġk ind
TI ON
I G
plot lib
Ġbet ween
re st
con nect
libr aries
3 0
lo gger
M O
Ġde code
ĠT e
ĠO r
mark er
Ġst ack
d ot
el se
Type Error
S H
de st
Ġm ultiple
c at
ith ub
attr s
ĠG et
Ġimplement ation
it ies
Ġr v
() ,<
k nown
ĠG ener
se e
Ġse arch
Ġother wise
Ġ' \
sy stem
= {
in f
at ures
Ġe gg
auth or
Ġf inal
ide o
al c
Ġne eded
F or
ex tras
al i
Ġa wait
j or
o b
Ġme ta
Ġ[ [
2 5
:` .
ĠCo mp
Ġp age
Ġcall able
od ing
Ġ join
C heck
ĠA dd
di v
Ġstat us
] *
ax es
Ġab out
C ON
nd array
8 0
C reate
" \
r and
Ġf n
u nd
Ġt rue
v ari
ĠParse Exception
ĠĠĠĠĠĠĠĠ ĠĠĠĠĠĠ
Ġ' _
w d
Ġo p
ifi cate
B uild
ig h
id den
de lete
Ġremove d
Ġuse s
Ġnd array
as ync
[: ,
Ġen um
Ġst op
ic ally
Ġs ix
est ed
Ġ' -
Ġma in
Ġ' ,
requirement s
to k
m ath
rou gh
> __
Ġw ould
Ġspecifi c
C omment
i ted
std out
Ġch ild
C A
T O
Ġf p
Ġdirect ories
ix ed
Ġsh ow
H E
d s
Lo gger
in teger
Ġs ite
ĠAl so
link s
p lat
icro soft
Con fig
po ints
ct ools
d raw
z en
c c
I ter
on ical
Ġbe ing
O bject
set ParseAction
ĠT o
Ġen v
St art
Ġact ual
ess ion
P AT
g ithub
Ġ2 01
Ġc lient
Ġcl asses
at tributes
Ġo b
ce back
Ġm issing
ex ceptions
il t
T ree
me nsion
alp ha
Me thod
ma y
Ġvari able
ial s
Ġre direct
ou nt
der r
Ġbo x
In valid
U RL
ou ble
Ġst andard
u ally
ro zen
Ġcan not
b ers
Pro vider
Man ager
err msg
Char acters
pendenc ies
he lp
P A
Ġpro spective
KE Y
`` <
AR K
â ĸ
Q U
1 9
N ING
Ġsp lit
Ġ utf
ĠO ption
e gacy
TI ME
whe re
S D
Ġa g
w n
f fi
z eros
re quire
A uth
p ip
Ġre f
ĠP Y
lo okup
ĠC h
Ġg o
Ch ars
id d
if est
({ "
ĠT O
//// ////
Ġs ure
format s
an ts
ĠIn valid
ch o
Ġs rc
S ec
OR D
mb er
qui v
ĠW indows
c lean
row s
c ro
Ġcompat ibility
re cord
idd le
l iteral
d ownload
mb ed
M ap
add ress
Ġc t
ing s
ser ver
Ġpar sing
Ġd atabase
Ġ2 55
W h
Z E
Ġf uture
Ġc types
ok ies
S p
al id
1 3
Ġattr s
Ġre v
c y
ex ception
Ġinit ial
i ces
' re
b a
ure d
: ]<
H ead
l ong
Ġmo di
ĠP er
Ġ# :
ĠIn stall
Ġi o
ch ild
Ġh ow
Ġcre ated
s chema
AB LE
ex e
Ġexp licit
s ix
he ight
Ġarray s
Ġc lose
b l
Ġbe havi
ĠB y
T able
:` ~
v as
Re ad
ome try
Ġy our
label s
call back
ar is
Ġexist ing
ĠE n
xt ra
Ġs sl
Ġwh at
Ġmat rix
O P
de scription
u x
ĠĠĠĠĠĠĠĠĠĠĠĠĠĠĠĠ ĠĠ
Ġm y
A n
ch unk
he d
o ted
ve lo
Ġv ideo
ol ution
Ġconfig uration
pre ter
Ġbase d
Ġd st
u str
ut ton
Ġse nd
> \
Ġchar acter
Ġper iod
oo gle
ĠD E
ol der
Ġf ont
Ġ" _
Ġiter able
ur ing
Ġpo ints
Ġs urface
A l
a iled
me an
Ġax es
y stem
le ar
Ġb oolean
r type
u gin
ARK ER
Ġlabel s
Ġpre vious
ĠL o
Ġde c
per t
ĠExample s
Ġ keep
ww w
A dd
z ero
Ġre ason
ur i
con st
ec ted
extension s
ser ve
Ġraise d
ĠCall able
) ),
Ġp l
CH AR
ĠC ol
H el
S C
Ġman ager
set Name
f etch
t mp
p oly
Ġs um
ate g
Ġ"" <
Ġtest s
ad min
aris on
( \
(' .
Ġe qual
Ġ K
M essage
Ġhe ight
end swith
up per
Ġd raw
user name
IN FO
get Logger
Ġmat ches
; <
Ġres olve
Ġ1 6
"] .
Ġbu ffer
f ail
up ported
r p
alc ul
Ġun it
ĠUn ion
I P
Ġe very
Ġex act
a uto
Ġc oding
doc s
T R
pos it
atter ns
Ġth rough
Ġle t
f ont
by te
en sure
po ch
curs ive
di s
exec ute
Ġthe ir
S L
o st
Ġf lag
__ .__
Ġav oid
Ġh andler
Ġ" \
+ )
it or
Ġst yle
Ġf il
an k
Ġsp ace
ĠS QL
ale nt
Ġp la
Ġspecifi er
Ġin clu
__ .
in es
Test s
O n
Ġap pro
. *
Ġexpression s
Ġre ference
object s
ĠUn icode
quiv alent
x ml
Ġm apping
pre releases
ME NT
code s
R OR
Ġs ince
Ġd one
L oc
Ġ ge
Ġas ync
ent er
ĠĠĠĠĠĠĠĠĠĠĠĠĠĠĠĠ ĠĠĠĠ
ĠIter ator
c f
Ġend Tag
N U
ĠM ulti
Ġde precated
s w
n orm
inst alled
command s
Ġvalid ate
host name
YP Y
cache d
res olve
for ce
pert ies
Ġv is
ct x
Form at
V E
R aises
U R
up lic
ter min
S eries
Ġnet loc
Ġp oly
Ġse cond
ĠO n
G ener
re r
me di
con trol
posit ory
c p
change d
Ġg ra
Ġre try
he ll
Ġcall back
expr s
th read
Ġmark er
Ex pr
A ctions
k ind
in ing
ty ping
Ġver bose
O ption
Ġad ded
0 3
la p
ex it
spec ific
I nter
ĠA PI
H TML
en gine
Ġinter face
Ġca st
VER SION
get item
curs or
[: -
... )
u id
Ġwrap per
Ġre cord
Ġ Ð
valid ate
temp t
I L
Ġ Q
] ]
v s
Ġpa ir
Ġcon s
Ġbe st
Ġsub class
_ ,
Ġt otal
ĠI P
res pon
ĠDe fault
Ġiter ator
bo ok
mm it
in ner
ĠN O
et adata
F un
[ ^
Ġfor ce
Ġuser name
e mail
ĠRe quest
SI ZE
Ġ' --
Ġexist s
Col or
S tr
par sed
Ġdefault s
: %
Ġextra ct
AT A
ategor ical
Ġ lin
ĠF ile
pro to
F ind
or ary
Ġz ero
} "<
Ġt mp
Ġre ct
B O
Key word
ĠWhe n
Ġt itle
P ool
D is
alp has
T uple
Ġpo ssible
mis s
o red
y ntax
con struct
il y
dent ials
Ġstr ip
y ear
se nd
Ġre pr
lat ive
d st
re set
acke d
Ġac cept
E T
p ol
cl a
Ġde bug
Ġ% (
i mp
ĠC reate
ch ars
1 8
Ġres p
u sed
Can didate
re ssion
ne OrMore
Ġoper ation
let te
mo te
ĠTO DO
re direct
R UN
h ase
ĠO ther
Pro ber
S QL
c losed
Ġ[ ]
Ġis sue
si red
Ġover ride
} ,<
x ies
Ġcon d
-------- ----
Ġfile names
url s
AN D
Ġtrans form
Ġ( (
arg ument
s oc
er ce
ĠN um
: -
St ream
ri ver
( %
Ġs ha
ward s
) "
Ġcommand s
Ġw ay
st derr
Comp iler
U ser
Ġe s
C S
ĠĠĠĠĠĠĠĠĠĠĠĠĠĠĠĠ ĠĠĠĠĠĠ
Ġdo main
re v
ĠOr dered
g rid
ry pt
du ce
ĠĠĠĠĠĠĠĠĠĠĠĠĠĠĠĠĠĠĠĠĠĠĠĠ ĠĠĠĠ
Ġcor respon
is h
Ġser ies
mb ols
extra ct
a fter
) ).
ĠA pp
Ġt orch
re try
Ġfun ctools
a it
j ust
Ġs afe
d own
f y
default s
Ġsh ort
Ġct x
Ġ" ,
di m
ĠS SL
Ġcon st
Ġset attr
M atch
Ġpre sent
Ġcur sor
Ġcom ment
ĠN ame
assert Raises
mat rix
time delta
set default
ol ver
~~~~ ~~~~
Ġd b
ĠP O
il ing
pre pare
' '<
M odel
r ust
c er
D ate
OR T
im il
Ġspec ial
im ize
p at
port s
Ġwrap ped
- %
Ġ raw
0 5
mb ol
imil ar
Ġd ry
Ġp ixel
su me
S ON
Ġmodel s
ĠĠĠĠĠĠĠĠĠĠĠĠĠĠĠĠĠĠĠĠĠĠĠĠ Ġ
orig inal
S O
Ġm ulti
Ġpy parsing
res hape
l ush
Ġht ml
ang le
as y
Ġa uto
Wh itespace
Ġse nt
Con tent
I s
V iew
ĠĠĠĠĠĠĠĠĠĠĠĠĠĠĠĠĠĠĠĠĠĠĠĠ ĠĠ
ĠX XX
i ent
is dir
A ttribute
Ġp ad
Ġformat s
Ġwork s
ist ory
to m
stri ct
Ġde sired
co okie
Ġde cor
Ġspec ify
import er
Ġnormal ize
r ary
2 2
ĠRe quirement
S U
b dist
Ġs chema
p lied
tr ue
te ct
A t
S pecifier
S ession
a T
Ġp ick
ex clude
te m
v o
Ġr hs
I mpl
re ply
Ġto p
Ġf act
ĠPar ser
he x
ifi ed
n om
ation Error
Ġc ustom
Ġst ore
Ġd ownload
precation Warning
ip y
ĠIter able
un ique
Ġdo Actions
arch ive
Ġcan onical
Ġm od
sc alar
Ġ kw
contain s
0 4
Ġ RE
do main
P E
nc y
velo p
all close
ns itive
ĠM icrosoft
A s
di o
te red
** **
Ġsi mple
a ut
id s
# <
ĠD o
Ġcontent s
normal ize
6 6
Ġver ify
Ġf ragment
u i
w indow
Ġre tries
3 1
Ġpro perty
mon th
ĠCon fig
i an
bo ard
Ġter ms
F C
u g
che my
Ġin sert
Ġ( ...)
ran sp
] ),
D S
stri bu
l per
Ġcomple te
Ġco mb
move d
f in
Ġco mmon
D ATE
12 34
U p
O per
Ġst d
test s
er ate
b est
Ġw arn
iddle ware
Ġto o
is sue
RUN NING
allow ed
P O
Ġth ose
de nce
name d
f c
In st
C ase
Ġiter tools
result s
F ilter
Ġapp lication
ĠRe gex
Re gex
we b
exec utable
7 7
im g
Ġsupport s
ch ain
le x
sh ow
ft ware
Ġe t
S urface
c li
ic s
ĠM YPY
Ġsu ccess
"] ,<
Ġlow er
E mpty
} ".
col s
ĠD ate
Ġrun ning
test ing
lo aded
Ġset ting
L ine
char set
pp ing
f s
pack aging
sign ed
s q
v oid
Ġ" -
Ġdirect ly
Ġex tras
Ġun pack
g it
1 99
([ '
Ġbin ary
< /
he nt
T ra
Ġb it
s v
, )<
Ġmodule s
Ġsu ffix
str u
arg v
IC EN
Ġbehavi or
Ġcon trol
in dent
Ġcon straint
ali as
ĠM e
Ġcache d
ĠC an
/ <
un it
> `
Ġlo ok
Ġmo st
val s
Ġal p
Ġwe b
or age
ty le
o ps
Ġ[ -
Ġ limit
Ġ1 1
Ġgener ated
ICEN SE
(? :
hent ic
d rop
Ġw indow
Ġuse ful
abs path
a u
PAT H
= %
Ġla y
Ġco uld
xt ure
__( <
Found ation
Ġadd ress
__ __
at tribute
lo t
n ull
to kens
Ġno te
Ġali as
de rer
ns upported
se conds
one s
cs v
d k
E D
Ġ# <
lo ts
co me
^ ^
Ġtuple s
Ġent ries
ser ved
ĠS pecifier
s cale
Ġ ._
ĠS up
Ġc lean
ĠTime stamp
g re
v ate
Ġ ra
p k
Ġ[ (
c lip
} }
rest ype
Ġk now
ĠC ore
Ġt re
base name
] ],
ou se
Ġo c
in ation
56 78
IN T
se nsitive
ĠC F
Ġg ot
Ġcomp ile
Ġun ique
mplement ation
En coding
M etadata
Ġe ven
Ġl anguage
Ġc ho
P o
en vironment
> ]<
le gacy
p ad
Ġc lear
ĠP re
T rans
ĠT ext
W ord
res sed
Ġle ast
st op
le ep
er nel
egacy Version
dist ro
d uct
Ġcomple x
P RE
pa red
CHECK ING
Ġmat plotlib
at ches
Ġstat ic
pendenc y
v ers
Ġcompat ible
o ptional
r s
ĠP ath
fer red
Ġtar info
u ous
Ġman y
Ġex ceptions
con f
app ly
Ġm on
ed itable
. )<
Ġre set
(" \
t d
ight s
! !
ĠM ake
main ing
ifi ers
ĠĠĠĠĠĠĠĠĠĠĠĠĠĠĠĠĠĠĠĠĠĠĠĠĠĠĠĠĠĠĠĠ ĠĠ
Ġus age
Ġdir s
a f
D o
Ġ.. .<
Ġsub process
Ġdi mension
ed ge
Ġg lob
O F
[ [
u int
ist ent
G roup
' .<
() [
M ARKER
ĠT YPE
ĠL ICENSE
M D
compat ible
c ure
ph ases
Ġsc alar
H T
script or
set uptools
lay er
ad ing
() )
a pter
Ġse gment
__ ,<
su ffix
2 02
exp and
S pec
Ġ-* -
Ġr untime
Ġ'' '<
Ġrel ated
word s
Ġdef ine
m k
I nt
O ptions
Ġopt s
t ick
cate gor
ĠV alue
Ġh andl
un pack
ĠR aises
se ed
s lice
AL L
ER ROR
lim ited
() ))<
Ġvari ables
de sc
ff set
D es
arg types
\ <
ab i
Ġde pend
Ġb l
Ġ_ ,
S ub
Ġet c
d atabase
Ġ3 0
> )
Ð µ
pt r
Ġb ad
Ġfind er
9 0
E vent
" {
Ġe quivalent
5 17
Ġde lete
lo op
Ġme mory
ma g
i ated
Ġpart ial
ĠNo tes
fig ure
warning s
Ġ---- --<
` .
Ġm ight
ffect ive
Ġl ater
stribu ted
rag ma
Ġi g
' ll
Ġal gorithm
Qu ery
source s
a inst
Ġne cess
ĠD jango
Ġc losed
Ġpro vides
d ry
comple x
ff t
b ind
Ġdi vision
Ġv ia
ce ll
t otal
Ġn orm
Ġm asked
Ġenum erate
T e
Ġr ule
Ġbu ilt
group s
Ġd own
Ġco ord
D ir
O ther
if t
IN TER
b stract
al le
Ġre port
3 7
ow er
si mple
ã ģ
+ +
St at
! <
Ġde pendencies
bo ve
ĠM o
Ġ-* -<
Ġre pository
Ġco ver
ĠG roup
group by
color s
is ion
request s
Ġs cale
Ġb ot
Ġ5 0
Ġnode s
G I
N um
p g
Ġf rozen
ĠI D
at is
valu ate
ĠOther wise
= _
> ):<
iz es
Time out
US ER
Ġ" {
re que
py game
all back
Ġ1 5
2 55
net loc
pri ate
red u
comple te
T EN
la use
Un ion
li cense
ĠI nter
s orted
da pter
gener ate
ut put
Ġw ho
ĠH el
Ġed ge
Ġperiod s
sing le
12 3
Ġencode d
ro ll
get attr
> }<
m ul
Con trol
I I
Ġpla ce
v ing
Ġp ragma
cre ment
ĠParser Element
â Ķ
open Elements
Ġpro tocol
Ġneed s
Ġsh util
sy m
(" %
) ),<
co mmit
tra ck
per iod
P RO
Ġinstall ation
Se lect
Ġp ack
ĠT h
Ġme ans
in di
Ġcorrespon ding
f low
g b
Ġt s
In put
Ġinstance s
Ġn ested
st er
Ġapp ly
E nt
Ġdist ro
Ġa bove
Ġalp ha
Ġap pend
ĠB SD
ma jor
Ġsy ntax
---------------------------------------------------------------- ------------
re nder
Ġre nder
mp t
re ction
Ġgener ate
O f
St ack
Ġappro priate
Ġcon nect
find er
D ataFrame
s cope
Ġcall s
Ġallow s
Ġd uring
Ġre lative
Ġsup plied
A ll
a zy
ĠCore Foundation
ĠThe se
ĠD is
Ġper form
. ')<
iltin s
se quence
ĠS o
ch or
ĠU T
Ġch ars
ĠOS Error
s lots
Ġt gt
lib c
Ġro ut
mm ar
w idget
(' /
ho ok
sup ported
parse Error
'] ,<
Ġw ell
Ġ2 5
= ',
O M
(" .
Ġor d
comp ress
ch ine
O pen
fact or
c ard
Re g
Ġp g
r at
s urf
Ġst ep
Ġact ually
ĠRe g
Ġ---- -<
BU G
ĠO pen
Ġwh itespace
Ġwe re
req s
fact ory
5 01
De fault
) ])<
ten ded
Ġreg istry
i re
Ex pression
2 56
Ġexec utable
se n
Ġho ok
CO L
is ual
> "
Ġ Î
m all
) (
.. .,
Ġig no
Ġm erge
list dir
ho oks
S tyle
O K
V AL
Ġor dered
AT I
Build er
doc ument
h ow
Ġparse Impl
201 1
literal s
f init
Ġ ,
nd im
Ġrepresent ation
Ġword s
mo di
Ð °
nt il
Ġcandidate s
Ġis n
ou gh
i ct
Ġim g
Ġnum bers
Ġpro p
Ġch at
A dapter
Ġtake s
lo sing
Ġre quire
p ng
ra ps
man y
Ġdec imal
ar ge
teg r
Ġv ar
n am
ĠY ou
l anguage
Ġpro b
Ġup per
O L
. ",<
8 5
le s
Qu ote
Ġm ath
dispatch er
reg istry
FI X
D ATA
ert ificate
ĠB uild
igr ation
om at
ffi ci
Ġcase s
ver ter
ĠCon vert
]+ )
2 7
) ]
Ġhas hes
ĠL ink
ch annel
Ġpro vide
Ġtime s
k s
ĠM y
Ġqu ote
W rap
l ation
file obj
ach ine
Ġwork ing
Ġchar set
G e
Head er
al g
ver bose
Ġtime delta
Ġ* <
(' \
ces sed
en o
ĠAr gs
Value s
spec s
init ial
Ġs lice
ge d
Ġw rit
ĠO neOrMore
assert True
l ing
Ġlet ter
Ġse conds
plo ts
f ragment
Ġp ublic
gra de
Ġs ample
ĠPer iod
D ist
Ġrow s
um my
Ð ¾
IN E
Ġho oks
i k
mat ches
Ġed it
Ġas soc
f lat
I mport
pi ck
Ġc v
ste p
Ġw ait
Ġ libraries
pro g
que ue
ĠC ategorical
ap pen
so ck
Ġstate ment
i loc
t ty
cro s
W N
Ġ'/ '
Ġon ce
Ġn ull
Ġd ot
Ġreg ister
MO DE
Me ta
re ason
app lication
R C
ĠĠĠĠĠĠĠĠĠĠĠĠĠĠĠĠ ĠĠĠĠĠĠĠĠĠĠĠĠĠĠĠ
2 000
Ġre gex
Ġr s
Ġre st
FI EL
di gest
Ġigno red
u ted
ig uous
8 4
Ġe p
p d
y p
G B
Ġd rop
Ġpro ble
le g
Lo ad
se cond
ĠC a
curs ion
Ġload er
r ule
lic y
Ġsource s
c um
, ))<
ph ase
he et
Ex ec
Ġb its
u sing
en um
ag g
Ġl hs
E xtra
Ar g
Ġadd itional
e val
pro vider
Ġ ve
Ġlo op
Ġcond ition
G G
a N
ffici ent
Ġc p
D L
u ch
Ġn an
co okies
sel ess
Ġg re
Ġ" '
r l
indi ces
â Ģ
ex ample
Ġan other
Ġli cense
resh old
Ġ` .
sy nc
Ġoper ations
see k
FI LE
ol ated
Ġre verse
mis sing
Ġg raph
Ġcode s
M S
S ER
array s
W idget
s ample
de c
ĠS yntax
sub process
GE T
([ <
Ġcheck s
V C
f mt
Ġimport lib
Ġindi ces
Ġne gative
L ink
Ġcolle ction
Ġtime zone
() .<
tra in
Ġ" --
Ġrepresent ing
Ġit self
DI R
Ġag ainst
c ut
Ï Ħ
Ġf ix
Ġstack level
Ġfe ature
oin ter
Ġpo p
a lect
Ġe mail
re t
ĠD ata
V AR
co ord
Ġtra iling
r b
Stat us
co erce
Ġlist s
version s
Ġfrozen set
p ure
Ġs urf
Ġ+ <
a ys
ĠF I
ap ps
Ġ ~
I dent
In teger
Ġpre serve
Ġen gine
ĠB e
ge nd
cl us
Ex tension
e red
ĠA t
DI ST
Ġreg ular
cla use
la zy
og raph
tes IO
End Tag
Ġv ars
ĠU ser
b atch
Ġnecess ary
() ``
stra ints
Ġconver ted
ĠRe ad
nom ial
issue s
ic ular
Ġsy m
2 6
P os
Ġde termine
Ġl iteral
ĠA s
ĠR FC
MA X
j ar
Ġu ntil
Ġ sel
Ġx ml
En vironment
velop ment
Install Requirement
b utton
ns ures
Ġin ternal
Ġrequest ed
W ith
7 5
Ġp at
ĠĠĠĠĠĠĠĠĠĠĠĠĠĠĠĠĠĠĠĠĠĠĠĠ ĠĠĠĠĠ
ĠRes ponse
3 6
Ġbut ton
di ms
M apping
ab stract
al t
Ġmessage s
Ġ //
Ġinter preter
ĠC ON
av ing
as hes
Ġex pect
Ġplatform s
A RE
u dio
Ġ ])<
Ġcon flict
Find er
ast er
d ouble
Ch ild
3 5
c mp
m i
Test Case
ð Ł
message s
Ġb ind
. %
> '
al ign
N aT
li de
Ġv c
return s
Di rectory
redu ce
pe p
la ck
Ġ' {
tri c
c v
ker nel
al ys
ĠS ub
ĠV isual
Ġter min
ĠMulti Index
[ ...,
Ġzip file
Ġtra ck
W he
C ur
ro t
res p
Ġconstruct or
ĠIP v
man ifest
Ġcorrect ly
Ġk ernel
y load
rel ated
s pe
Ġcurrent ly
ĠI N
4 5
ur al
Pro xy
F rom
Ġb ar
Type s
ver ify
cf g
Ġdecor ator
HE AD
Ġindi cate
P hase
re quired
i pe
s dist
Ġ< <
V alid
gener ator
= -
ta ke
index er
g o
Ġpro xies
alys is
finit y
W S
reque ncy
Ġcomp onent
Ġ ),<
om b
Ġvis it
t ol
Ġde scri
Ġp ut
lo gging
: ]
W ORD
Ġsc ipy
B u
L azy
Pro perty
, ),
Ġpart icular
pe at
Ġme mber
TH ON
ue ss
ig ure
Ġw idget
Ġex clude
ĠL oc
sha red
ĠG e
igr ations
O UT
Parser Element
Ġaut omat
Ġme an
Ġp atterns
it ch
ath er
um b
Ġa m
Ġstr ict
ategor ies
â ķ
Ġ ).
Ġdocument ation
Ġle ading
U P
ce nter
set ter
oper ator
ĠS ES
wrap per
ĠSES SION
Ġextension s
ro ad
P C
ex tern
'] .
a w
i er
i mple
' "
time stamp
A A
I f
Ġf ailed
Ġpair s
() '
al ker
ve al
tuple s
at al
g r
Ġk nown
Ġc lip
a pt
P latform
SE T
ul ate
M ulti
Ġdis able
ĠS er
oc ument
Ġlink s
Ġun less
T h
x es
us r
P er
candidate s
Image File
Ġp atch
B ar
Ġs ide
Ġcall ing
4 9
Ġstart ing
12 8
ser ial
ĠA ll
per ly
() ):<
Ġgroup s
ma pping
L iteral
Ġpick le
ab ly
ĠSe quence
di cate
stat s
Ġmo ve
be fore
ex er
e ffective
string s
Ġf mt
fi xture
U E
ctype s
---------------------------------------------------------------------------- -<
l ang
vide o
X T
) "<
T ags
) ?
th an
ĠHel per
Ġ- =
as array
init ialize
mb ers
} ")<
L i
a len
ĠI O
Ġal tern
g round
Ġs imilar
has hes
Ġ( )<
pro tocol
C U
road cast
Ġ $
for med
Ġsign al
ĠDate time
G S
Ġre n
Ġscript s
Ġs w
wrap ped
ĠF orm
Ġi p
Ġst ill
Ġin ner
M o
Ġo wn
Ġ' *
H O
ograph y
pa ir
mis c
Ġse en
Iter able
miss ion
Ġcanonical ize
I TE
ransp ort
ent ries
Ġhe x
rand n
"] :<
Inst ance
Ġc ell
Ġes cape
Ġexp and
Ġd er
Ġp lot
Ġd ay
Ġse p
Ġch annel
Ġchange d
Ġe mbed
ĠV alid
to ml
sub class
file list
Ġn a
dtype s
LE N
Re try
untime Error
F loat
f lush
Pro tocol
D type
s ame
ÏĦ Î
ate ly
Ġso up
BA SE
Ġexplicit ly
pro ber
J ar
re veal
Ġg h
ĠOrdered Dict
Ġorig in
Ġco e
ST R
ĠE nsure
ys ql
Return Empty
Lo okup
ĠParse Results
may ReturnEmpty
de precated
c ked
co gn
Ġa round
Ġ( _
ĠCol umn
can vas
Ġ1 4
() ]<
OR S
ib rary
Ġtra ceback
(" /
Ġval s
Ġal ong
n ess
2 9
okie Jar
al y
ce l
A PI
Ġre maining
Ġpro gress
ĠN e
Ġmin or
Po int
Ġhe lper
Ġi mplemented
Ġmax imum
Ġinclu ded
O utput
Ġt b
Ġser ial
Ġad min
_ {
ri tes
Ġma jor
iv ers
tr an
u me
Ġoc cur
: \
e ps
Ġbase string
set item
tr ust
ateg y
child ren
N S
set s
Ġstat s
Ġsi mp
Ġas sign
(' %
Ġconnection s
con straint
min or
Ġre ce
fe atures
ly ing
comp onent
0 6
CO M
Ġinit ialize
Ġcre dentials
Ġca use
u d
Ġ" /
Ġtemp file
le v
Ġuser s
g z
TION S
_ .
ro ss
Ġany thing
Ġthread ing
ĠU p
ĠOn ly
ĠG raph
lib s
Ġvari ant
Ġin her
sub plots
Ġle gacy
By te
Ġcoord in
level s
Ġd ump
act ual
vid ual
Not Found
unk nown
hentic ation
U C
e ver
e poch
sh ort
F E
K G
ho me
Ġsign ature
Ġunit test
Ġc he
Ġ( %
F irst
Ġt d
ut or
en ce
) *
Ġst ored
so me
ac cess
h our
UT F
Ġ Error
de pth
assert Is
P AR
context manager
on ts
Ġ"" .
Ġin spect
Ġas sume
p b
ĠT rans
ĠUn ix
A C
p ublic
u tes
func s
p acked
set ting
Results Name
N et
d uplic
al chemy
L e
is instance
th is
Ġbe gin
Ġc ategories
Ġma de
================ ================
__( *
output s
M achine
par ameters
ĠG NU
net work
ĠInstall Requirement
Ġassoc iated
I tem
ĠHTTP S
Ġty p
Ġcre ating
S ize
c ap
Ġdi v
[: ]
LO CK
final ized
f d
me mory
//////// ////////
re tries
c ustom
l hs
Ġversion changed
alle l
al k
Ġin side
Ġbound s
Ġinclu ding
g its
Ġevery thing
v cs
> """
Ġpre pare
u ff
dump s
G R
Ġone s
run Tests
Ġsome thing
8 7
Ġdef init
se q
Ġh igh
se par
[ \
cer ts
b z
ist ered
p ixel
UL L
is file
ĠPO INTER
W riter
Ġcl one
D B
Ġa ctions
p andas
me mber
cond ition
N D
Ġd y
ms vc
Ġcomp arison
N I
Ġnum eric
content s
Q t
_ <
rypt ography
st andard
g on
ĠP ip
s leep
M ask
Ġcheck ing
date s
ark er
mark ers
Ġc alcul
ser v
i mplementation
Ġne ver
b r
Ġde termin
ĠCh ar
ATI ON
id er
Index Error
ĠF ield
Ġact ive
m erge
Ġ2 4
pro p
f lag
sy mbols
P a
R ange
ut ing
199 9
re ference
nd le
I E
>< /
Ġpro gram
" .<
Auth or
De precationWarning
unit test
Ġchunk s
Ð ¸
Ġre cursive
Ġp h
Ġh and
Se quence
Ġle ss
Ġmat ched
con v
patch er
Ġbe low
ĠE ach
Ġn s
t ion
fi c
ĠG iven
Ġsave d
i ally
Ġ[ ])<
Ġautomat ically
Wrap per
LE CT
ĉĉ ĉ
sp rite
Ġt ick
an e
Ñ Ĥ
co s
Ġcode cs
ĠString IO
c ing
O ffset
") )
FI G
Ġident ifier
g ot
de cl
Ġ1 23
Ġs dist
ore ign
[: ]<
Ġraise s
ĠTime delta
form s
EN T
Ġmodi fy
ra ction
cord ing
g raph
method s
Ġ@ _
r untime
ä ¸
Ġfull name
tok list
c u
ver sed
ĠĠĠĠĠĠĠĠĠĠĠĠĠĠĠĠĠĠĠĠĠĠĠĠ ĠĠĠĠĠĠ
tz info
inter val
g lob
' }<
U M
r f
Ġb asic
Ġfig ure
0 8
H AS
A d
pro gress
Par am
B e
ol ation
ut c
tran sp
load s
Ġv cs
Res ource
Ġco okies
global s
) ``
L exer
and s
# !
B ody
Ġtime stamp
Ġin vo
2 1
d one
Ġtemp orary
Ġdi alect
inter preter
li sh
. +
Ġse n
te nce
config uration
le ted
part ition
li ght
Ġimage s
E nsures
(" <
201 3
s parse
so up
Ġ1 000
b ad
Ġevent s
li te
Ġg ive
ca ped
ĠDe termine
Ġk lass
Ġfe atures
Ġ ],<
sert ion
R ect
b box
C ount
ut ation
ed it
Col umn
Ġt f
tok dict
a a
e mbed
un expected
app name
mit ted
Con sole
TEN SION
or ity
Ġcomp are
cate n
Ġ ----------------------------------------------------------------
ĠEx tension
ir t
sup press
T ABLE
Ġr ng
C lient
ed itor
act ory
Ġab s
const ants
b ing
p ers
spec ifier
te x
w s
ance l
o tes
0 9
Ġbase name
g oogle
contain er
or ld
B lock
F T
Ġsup press
platform s
set ResultsName
ĠA d
Ġg oogle
Ġtest ing
Ġfile obj
ful ly
Ġs hell
Name d
Ġlo aded
8 9
Ġsub classes
Ġe asy
ĠU nsupported
il ities
Ġpl ugin
ĠSup press
4 4
ĠE xtra
Ġhandl ing
pro spective
En coder
H t
ĠS ome
expression s
H A
ĠS E
int ain
ĠTe mplate
/ %
p ted
Ġm ag
ip File
no te
I ME
de t
com ment
t f
al ity
' ve
Can not
Ġstruct ure
P T
ive d
Pro cess
ĠQ t
'] :<
and box
ĠO ver
s hould
__ ':<
con fi
Ġde scriptor
time zone
im er
ĠJ SON
Ġcontext lib
Ġali gn
d river
lin ux
Ġde cl
ĠA B
Ġso ck
Ġman ifest
ĠT ra
or n
Ġqu oted
Ġpri mary
Call able
Quote Char
ĠPy PI
' ^
Ġt urn
ĠNO T
t ic
Ġma chine
Ġf lat
ee k
col lect
n n
Ġs pe
Ġali ases
m asked
] ).
Ġf alse
Ġl arge
ĠDE FAULT
li s
Ġdi stributed
Ġtar file
di ff
to ol
3 9
ĠV ER
Ġ gen
Trans form
ve s
T rust
man age
D A
An alysis
Ġw s
Ġchange s
W indows
w ar
pe ns
Ġde bu
or ing
EN D
Install er
con s
Ġpre c
Ġc ap
A PP
MODE L
u alen
qu oted
). """<
ha in
Ġb atch
Ġexec ution
max size
cen sed
ualen v
r ing
Ġopt im
ĠUT F
f name
ER S
ne ed
i mpl
d l
) ")<
ĠN aN
Connection Pool
col lection
R o
Ġc at
ĠRe move
om l
num eric
sertion Error
ĠG E
__ ",<
ron g
Ġexec ute
R un
li es
Re cursion
pos ix
C ertificate
x l
ce nd
LI ST
Ġstd out
fil ters
C RE
Ġcomp ression
py parsing
u ation
Method Type
ĠS p
ĠM ac
iv y
Ġco me
ent ity
> -
Ex pected
ero OrMore
ĠNum ber
Ġsha red
S M
n b
ignore Expr
Ġn n
__ ":<
Un icode
Ġcon stru
Ġde pth
ON E
FF FF
cp u
) \
P ackage
Ġde pendency
Ġ' ')<
S u
f older
vars all
? \
Ġth row
abstract method
ĠS O
"] })<
Ġcolor s
Ġh er
Ġparse Element
Ser ializer
E num
Ġde coder
Ġex it
ra c
riter ion
fin ite
) '
sub dir
Ġerr no
fo und
ist ic
$ ",
Ġm is
code Error
teg ers
p df
(' _
Ñ Ģ
', '
frame work
] ):<
ild card
Ġat tempt
Ġap pe
AB C
A GE
it al
r strip
t wo
Ġ 64
Ġpro perties
Fun c
M y
element s
log in
lay out
Ġwe ights
Ġgra mmar
atis fied
ad o
Ġtext wrap
Ġpa lette
non zero
p atterns
Ġp e
meta class
Sp ace
ĠC omb
on al
ĠL ine
Ġ`` '
Ġdest ination
ĠWhe ther
Form atter
Ġro und
Set up
g is
} .
in ary
Ġw d
time s
Ġpre vent
Ġreplace d
backend s
Ġac cording
open ssl
50 9
Ġm ultip
Ġg rid
Ġinter val
Ġ ^
Ġde tect
re verse
Ġd id
ĠN ode
Ġf etch
Ġdis abled
Ġnormal ized
sq rt
ar ily
lo pen
## <
Ġlevel s
ĠUp date
Ġc y
Un known
T A
modi fied
Ġreplace ment
base d
tri e
S cript
b asic
proto buf
C ode
M atches
te ns
* .
p print
Ġload ing
Start Tag
ge nt
- \
A nd
Ġ6 0
oper ators
E nsure
Ġdiffe rence
Hel per
se cure
to re
Pos ition
> }
_ )<
h idden
s ig
de pendencies
TE D
ĠI Python
Ġhash lib
C C
categor ies
ĠparseElement List
os ity
C ore
ur lopen
Ġca pt
H AND
EX P
Ġd uplic
w riter
di mension
ĠCon tent
su med
Ġinclude s
in to
Ġad just
Ġmin imum
sum mary
l er
r v
Ġ2 02
Ġcom ments
pure lib
re mote
ĠT ar
(" '
Ġser ialize
ab ility
pe g
Ġsy mbol
Parse Expression
Ġchild ren
Option Error
te cted
Ġin str
loc s
ĠH ow
bot parser
Ġfail s
f alse
al so
orig in
co mb
ific ation
Ġd ouble
Ġurl parse
Ġunder lying
Time stamp
l ask
Ġhandle s
cript or
ĠR untimeError
c lo
Ġin place
o ok
Co py
read er
bot tom
re vision
n ative
Ġpro vider
lo ss
ĠSpecifier Set
Ġv ery
Ġlo cale
ĠL egacyVersion
pa lette
Ġb box
tri p
Ġblock s
Fun ction
at ial
V ar
UN K
P age
P UT
Ġspecifi ers
Ġset s
b osity
Ġd ays
ir cle
0 7
De coder
RE CT
ĠTo ken
Load er
st mt
Char Set
AT OR
bound s
S o
ect or
Ġ0 0
port er
Ġinput s
un ked
Ġcert ificate
h ing
Ġle x
ĠAr ray
n al
can not
Ġvari ous
ge om
CK S
Or dered
vis it
h ip
Ġ }
d uration
Ġopt parse
Ġnot hing
Ġbuild ing
Li ke
Ġs mall
T ransport
Ġsy mbols
Ġfor ward
ĠN ormal
argument s
T LS
LO W
CHAR S
de p
Ġsc reen
an not
ac count
p us
ĠThe re
R aise
En gine
vari able
dia lect
U SE
h istory
j s
ss ib
M ON
un ion
cho ices
P L
Ġobj c
Ġv irt
ĠIn put
ĠBy tesIO
Ġo w
sed Version
ĠIn teger
get ter
Ġread ing
opt imize
part ial
') ]<
: "
ĠDistutils OptionError
h ance
l r
Ġf allback
ser ializer
b b
qu are
di us
ĠA bstract
Ġaltern ative
M ode
Ġe poch
ĠP ackage
Ġmake s
Ġasync io
rp m
Whe el
w ik
ĠCon nection
% (
r hs
row ser
SSL Context
Ser ver
Ġs l
Ġlay er
W e
] {
Ġsys config
Ġglobal s
o x
Ġweb page
] ")<
ĠF rame
} {
Ġso ftware
table s
ĠComb ine
re c
Ġen c
Len gth
j a
u nder
FORMAT S
Ġex pi
ap s
U ID
ce dence
pro c
Ġh ig
ĠS pec
Ð ½
ran ch
r m
lin alg
construct or
Con vert
sy mbol
ĠF ind
am ma
J SON
en sor
Con tain
Ġent ire
d ll
Ġstr ide
Ġdecode d
ĠF ound
sg i
Ġe valu
un ch
ĠEn vironment
Ġpad ding
pa che
bo o
ot on
av ailable
CON FIG
Format ting
ĠDe precationWarning
Ġindi c
ateg ory
pick le
Ġcoe fficient
ation al
Ġfiles ystem
) ",
ĠWhe el
final ize
5 9
Ġ },<
.. .<
Ġy ear
(' :
Ġreq s
Ġt rust
iter able
S A
ph an
F actory
Ġen viron
ĠKey word
ĠDatetime Index
ĠT ry
) ],
S GI
Ġ[ ],
' '
/ #
al og
ro botparser
gener ic
limited List
"" ,
ro ken
Ġr ather
DE BUG
Ġpos ix
bu iltins
call able
ĠE mpty
TYPE S
miss ions
Ġm ime
Ġdir name
ĠPy Installer
ident ifier
SH ORT
Ġen able
Ġc er
Ġc enter
pro perties
Con verter
rou ped
Ġ1 7
Ġho me
- >
gment s
ĠRe try
ne gative
B utton
Ġab i
Ġsepar ator
w rit
Ġapp lied
cor rect
ĠTe mp
Ġpy project
distribution s
Tag Token
de s
process or
node s
Ġquery set
Ġfil tered
Ġp ur
du ces
FIEL DS
t b
(' ''<
ĠA SC
sc reen
D ec
l lo
A X
D F
Ġc losing
Ġcol lect
wa y
Ġprec ision
RI PT
s a
: ])<
L egacyVersion
cl one
Ġ[ ('
Ġr tol
ĠM ay
fe ature
ĠValue s
(" _
ĠA pache
Ġz eros
Ġoutput s
ident ity
andl ers
wh ich
Ġ( -
da ys
Ġfinal ize
Ġdimension s
g d
ĠP ost
Ġgener al
normal ized
Ġn one
or dered
Ġb dist
(" ,
mat plotlib
re name
ĠM odule
Ġdist s
T Y
Ġe i
Ġth ings
([ ^
Ġat temp
ĠVER SION
T ool
li text
arg in
____ ____
Ġ qui
Ġf name
Ġe st
ex pi
ĠO R
EX TENSION
E E
py pi
ta ch
Ġnew er
Ġpixel s
ĠIO Error
UN D
Des criptor
tra ceback
make file
s m
sc an
Ġ1 9
Ġun known
**** ****
C R
Ident ifier
b its
dec imal
et ree
Ġc lause
ĠD atabase
ix er
Ġre mote
Ġun set
Ġ-- >
oton ic
ĠN A
map per
ĠDe velopment
t orch
insert Element
de cor
am ing
c wd
Ġm i
format ter
us age
ĠCon text
Ï ĥ
rp c
Ġc c
x is
Ġfunction ality
[: :-
v ance
lin space
. "
cre t
Ġprob ably
Name s
ĠOpen SSL
Ġcontain er
F e
ĠC O
F ont
Ġcomp ute
imp lied
ĠOrdered Set
h i
te ms
Ġmon th
ĠĠĠĠĠĠĠĠĠĠĠĠĠĠĠĠ ĠĠĠĠĠĠĠĠĠĠĠĠĠĠĠĠĠĠĠ
AN G
Ġdi rection
Ġ3 1
O T
st orage
NO RE
Ġbound ary
S cope
full name
( ',
Ġreturn ing
un ct
(' -
ĠN ow
loc ator
Ġ1 3
ĠM apping
UT H
ĠCa che
ue ue
me tric
([ -
pl ugin
Ġcontain ed
G raph
Ġe ffect
build er
, "
t iguous
Ġ" *
Ġ12 8
Ġprocess ing
ignoreExpr s
= ['
] })<
cur ity
OP TIONS
Ġcmd options
m q
AL P
TE XT
Ġdoc string
Ġnot ation
AR T
CHE ME
m ysql
ï ¼
On ly
S ource
Ġag ain
Ġd ue
comp arison
Ġis olated
t k
ĠM S
le m
appen gine
a ken
ile nt
riter ia
âĸ ĳ
g ory
parser s
Ġp p
en c
trans late
assertIs Instance
lin eno
Ġpre ferred
ĠGE OS
de coder
de vice
Ġto ol
Platform Error
g res
ĠI nt
count s
cre te
local s
bu ndle
mm utable
S h
4 8
Ġreg istered
bit rary
ba z
Ġconst ant
2 8
duce d
Ġre d
To kens
Ġx y
col lide
f x
S ystem
pro duct
CE SS
Ġf i
ver age
RE AD
PRE FIX
Ġdist ance
sh ift
6 0
T RI
d y
ĠW h
Ġinst ant
CA SE
E d
] ),<
j o
le ave
ge ther
pro xies
temp dir
ffe red
ĠSyntax Error
Param s
H e
s hell
Ġdi gest
Ġan chor
pen dent
ub e
AL I
ĠD on
Y ou
un defined
A c
phan um
U nsupported
DI RECT
di ffe
Ġdi m
Raise d
Ġimport er
( """<
cate gory
cend ing
m ultiple
Ñ ģ
di ag
Ġgre ater
boo lean
W rite
side red
ĠASC II
Ġf ixed
image s
App Name
> "<
de g
B E
w er
} '
Ġf oo
an ked
Ġcomp ress
De bug
Ġback wards
con flict
Ġlo ck
su ccess
PY THON
Pro vides
ad apt
Pro gress
wh ite
Ġaccept s
C re
av a
r fc
Ġ })<
Ġpro duct
Ġap ps
Ġupdate d
Ġre vision
Ġcon sidered
w indows
Ġimp licit
NU M
D ocument
d at
Al chemy
ĠCan didate
" '
y per
Con st
ref s
\ *
f ree
Ġproble m
h igh
=" :
N ull
Ġmag ic
ke ts
C AL
Ġs parse
pre v
' ``
Ġp ax
Ġat ol
At tributes
n or
q d
Ġm ixed
tra ce
frame s
r gb
Ġ{ %
Ġin tern
pre vious
Ġg c
AR Y
ations hip
k ing
mp ath
] ],<
Ġter m
ĠFI X
n ed
Ġy et
RI TE
in el
ct ure
Ġloc ations
#! /
t le
Ġgener ator
Ġc ryptography
Ġren derer
count er
Ġ'' '
Read er
Ġprint s
ssib ly
l strip
Ġpack aging
ĠGe ometry
* ,
sup port
ven v
N E
ist ing
Ġinstr len
D AL
D ownload
par ameter
Ġse cure
'] ]<
Ġad apter
Ġname dtype
################################ ################################
Ġn t
Ġlog ic
Ġtra in
ĠSo ftware
list s
df lags
Ġg u
encode d
Sec Trust
T ry
in sum
Ġf requency
th reshold
En hance
ĠFIX ME
I DE
Î ¿
Ġf s
Ġsee also
, )
f it
Ġd uration
tro ll
Ð¾ Ð
Î ¹
Ġresource s
Ġcomp iled
CO DE
Ht ml
C UR
im ation
Ġformat ted
ĠX ML
= ",
ĠIn it
Ġnamed tuple
Ġre pe
Ġte le
re peat
with out
Ġ" {}
xx xx
" })<
P r
w b
rid den
IG NORE
) """<
Ġdebu gging
P ass
Ġh ist
utable Mapping
Ġob tain
in c
Ġw ildcard
ĠS imple
M issing
y m
DA Y
ĠD ec
max Len
S yntax
ĠĠĠĠĠĠĠĠĠĠĠĠĠĠĠĠĠĠĠĠĠĠĠĠ ĠĠĠĠĠĠĠĠĠĠĠĠĠĠĠ
lt k
plat lib
( ("
s core
Ġloc ator
Ġc api
clu ded
Lo op
Ġbot tom
4 6
A xes
un c
h andlers
su ite
Ġ| =
Ġmark ers
ren derer
caten ate
ĠE lement
O D
+ -
Ġ% <
implied TagToken
I M
ar win
event s
Ġad ding
Ġexpr s
Dis patcher
Ġc li
al s
() ),<
Hel lo
] ])
99 99
1 000
ser ialize
py xl
Ġent ity
Cur sor
Space Characters
wh itespace
h ist
ĠM essage
ĠIndex Error
A bstract
end ing
Ġmodi fied
n ested
ra vel
([ ],
iter keys
ĠURL s
! ")<
15 9
sp an
ĠW in
cho ice
y e
z A
Ġf ree
D G
pi ed
an cy
Ġ" )<
ind er
Ġc s
input s
D atabase
c ri
tri m
Ġinstall er
co res
b ed
} \
Ġs cope
ma ps
Ġle ave
Ġsc an
Ġmo ved
install er
n ail
mo ving
ĠGraph QL
B ackend
Ġt r
res ses
H ash
M iddleware
ma c
con cat
sup er
Ġrepresent s
Ġbin s
ĠS kip
iz ing
al gorithm
Base Version
Ġve ctor
at tempt
Ġ4 0
uth or
context lib
Tra ce
8 8
is o
ĠP ublic
Oper ation
umb nail
Ġe val
O b
Ġ ]
^^ ^^
: ',
ĠC Compiler
ip h
I tems
Ġw riter
Ġre ally
Loc ator
categor ical
Ġrule s
. '<
he lper
Ġm k
ad apter
ĠP ass
sign ature
Ġa pi
di git
ee ded
I F
ĠW ork
V er
ĠS T
mag ic
ivers al
Ġdef ining
ass ign
lin t
RO M
Ġma c
read line
lat in
Ġfact ory
Ġin tegr
get text
Ġ --------------------------------
(" -
Ġsql alchemy
ar row
Re quires
state ment
ro y
Ġd ual
ag ers
In it
4 5678
e valuate
ĠR ange
Ġup load
Ġin tegers
([ (
Ġ% }<
in place
ip her
is hed
Ġqu ot
86 01
run ning
Ġpri vate
Ġconst ants
W indow
m iddleware
Ġresolve d
Ġpoly nomial
ĠRequest s
Bu ffer
Te mplate
F ailed
N ormal
per cent
Ġo l
Ġh istory
ĠN ew
Ġl ate
and er
Distribution Analysis
Ġ utils
## #<
Re move
ĠF igure
Ġact iv
Ġmy py
Ġconstru cted
b s
ĠR ect
install ation
Ġ10 24
ĠPro xy
ma inder
Ġfil ters
Ġspecify ing
work s
Ġim medi
B ack
Ġc wd
spec ial
Ġas cii
ĠZ eroOrMore
Ġam ount
ĠSO CKS
" %
en abled
RE G
Ġimp orted
ĠDefault s
Ġp lay
cogn ized
M ac
que nt
Ġwrit ten
Ġfact or
P U
R GB
def ine
ĠUn defined
iph ers
S up
multi part
" }<
Ġm igrations
Ġli censed
S ign
ort ran
RE D
ac cept
Co uld
Ġindi vidual
) -
Ġst mt
ĠH idden
Ġ\ \
range s
pa yload
Ġz one
Element Enhance
b i
w eek
" >
ma cros
ĠH andle
Ġab is
run ner
({ '
Ġro t
a i
Ġth ree
in ux
ĠLo ad
f time
Ġre versed
Ġh aving
make dirs
Î µ
chunk s
Ġow ner
X ML
Ġt k
Ġgener ic
in sensitive
ar m
PE C
Ġwrit ing
Machine State
ĠDe f
LA CK
reg ate
k ze
ve c
ĠL iteral
re cursive
Con flict
aly z
kze ug
c pp
r ng
In finity
inter face
6 5
Ġt aken
Ġ'' ')<
Ġ' #
Num ber
' (?
Ġre ply
tr c
Ġ` ~
ĠM ax
ĠW SGI
ĠConfig uration
ul er
ir d
Ġdepend s
w ind
x s
ar ted
Ġmap per
te ction
loc ations
Ġret val
b lack
Ġex tend
TIME OUT
Ġcomb ine
RE QU
4 01
fun ctions
Ġsu itable
Ġcoefficient s
add r
Di ctionary
Ġed itable
Ġt p
Ġde v
django project
U rl
Ġd at
Ġrun s
Ġindex er
Ġ ))<
Ġres olution
ĠTe am
crement al
g i
Ġp i
it u
Ġd river
g gest
re index
ha ve
Ġformat ter
LA GS
period s
un nel
Ġ_ ('
lim iter
Ent ry
L ER
Ġpos itive
Ġdi ff
Ġare a
Ġ queue
de scriptor
Ġtrans action
ĠS top
ĠP ool
pro d
ĠM ARKER
sv n
Ġ Qu
Re c
obj c
iter items
C lause
am ily
are a
ĠMo ved
separ ated
Ġhand led
Ġpre pared
troll er
i ous
Ġac count
Ġhttp lib
Ġnew line
ari able
" ^
= <
Ġp ers
ite cture
Ġopen pyxl
line ar
lo cale
ĠS te
com ments
LO B
Ġ= <
Ġr c
Ġen abled
Ġl s
Add ress
b lit
fir m
\. \
Ġstop On
pro file
cre dentials
Ġindicate s
L abel
ĠS hould
pro vides
ow ner
Ġpro cessed
root s
ĠForm at
ĠU sed
match ing
ĠOS Status
( ('
c r
data set
ĠH t
Ġopen ing
ĠSQL Alchemy
vis ible
Ġin v
N on
Ġlo ss
Ġlo oks
Ġbuild er
post args
Ġgo od
Ġdefinit ion
Ġla zy
C L
can onical
!! !!
> ".
O ver
e k
Ġ Ke
Ġh idden
sp litext
7 9
T S
m ultip
le gend
Ġre cent
Ġ{ })<
Ġvalid ation
ĠComp ute
ĠInstall ationError
Ġbl ue
P KG
] :
Ġinter pol
ç ļ
Ġ mpl
ĠP o
path sep
dis able
Ġcoordin ates
orn ado
np ack
IS O
po se
QU ARE
gd al
çļ Ħ
Ġfor ms
we ight
edge s
re port
ce ed
ĠT LS
find all
be ta
con sole
De f
Formatting Elements
Ġc f
ĠInter val
ĠS h
âĸ Ī
Ġn ative
'] ['
ĠCommand Error
loc ked
be gin
NO WN
i ence
Ġimport s
redirect s
li tem
Ġbet ter
J P
u uid
in ja
over ride
Ġdown loaded
r ate
Ġs ig
Ġpath lib
Ġcall er
: ",
Ġf ul
Ġaut hentication
Ġc hain
t ask
ĠGener al
Ġcons istent
spe ction
(" >
Ġpy lint
Ġsimp ly
s in
key word
ĠAr g
' }
ĠT ag
iter ator
query set
e f
Ġw on
Ġm uch
Ġsign ed
ri ve
con ver
ĠR aise
Ġser vice
BA CK
ma ster
Ġcon sole
unct uation
p c
wh ile
Ġp k
Ġan gle
block s
nam ic
201 2
ra cle
Ġback ward
Ġlong er
ĠPro bing
ĠProbing State
s rid
{ '
`` .
HTTP S
Ġhandl ers
S end
r g
Ġre fer
__ ",
Ġdo ing
ĠR un
we ights
Ġw rong
A SE
s n
Ġapp author
su do
Ġscheme s
O neOrMore
Ġn b
Re present
ce pted
Ġst orage
serv able
w raps
Ġm s
TO COL
Ġf lush
ĠU RI
12 5
( .*
* .<
* <
Ġ{} ".
CharSet Prober
Î ±
ĠMy SQL
nor mpath
' [
Ġopt imize
Ġconver ting
Ġp lat
spec ifiers
Lo ck
Ge ometry
e insum
ex ternal
up load
Ġma cros
ĠL e
Ġhost name
VAL ID
sp a
po ses
Ġdel ta
age nt
Ġg uess
pre release
ĠDE BUG
__ ',
out er
SC RIPT
pre p
Ġlocal s
late st
Ġfe ed
Ġlay out
lev ant
Ġg rouped
TE ST
acke t
ĠHt tp
) }
7 6
ul ation
ne g
Ġextra cted
Ġtable s
AS C
Tree Builder
a ctions
ĠO bject
new doc
api pe
Do es
S ee
str ide
Ġpath name
Ġdepend ing
ge os
un link
Ġl ang
Ġout side
oper ation
h and
m ant
di ent
Ġinter pre
Ġexact ly
A ss
de dent
{ <
Ġen coder
Ġwho se
c alled
Ġl d
d pi
i form
Parse Error
Ġimplement s
j ace
ĠTime out
ir c
"" .
clean up
ĠMe thod
Inter face
Ad min
st ub
Ġh old
Ġend point
Ġtri m
k lass
ĠDistutils Setup
ĠDistutilsSetup Error
iz ers
en coder
ĠB ad
M T
W in
W AR
Ġme dia
mplement s
select ion
Ġde vice
de ep
Ġp red
Ġpos n
E OF
s cape
Ġ( ``
a red
ĠT ree
qu it
âĢ ¢
spa wn
w sgi
Ġ' :
ch in
Ġv s
OR Y
Ġwheel s
Ġdetermin ed
Ġimmedi ately
L ay
m ixed
Ġc ategory
Par sedVersion
ĠNum Py
tar info
may be
Ġdis patch
Ġman age
Ġlin eno
d arwin
Ġcon version
key words
Timeout Error
at t
Ġco pied
ĠM odel
for ward
copy right
Loc al
pri mary
Ġde g
E GG
Ġcon straints
pen ded
Ġrun ner
PA RE
Inst alled
ad ow
ust er
Ġsepar ate
ĠLoc al
âĸĳ âĸĳ
Ġadd ition
Col lection
vari ables
D K
Ġfil led
Ġ' \\
ĠI mp
ac cum
ĠW ith
BO SE
Ġ qual
ĠE U
Ġrecord s
Ðµ Ð
Q ueue
S CHEME
Ġ5 17
NotFound Error
EXP R
H andle
s atisfied
te ctor
Ġdi ag
Ġget s
ĠSe lect
Ġ2 3
Ġwin reg
IGNORE CASE
Ġ' {}
Re cord
Ġpass ing
Reg ister
d r
i con
ĠH ash
g l
che b
b c
ĠF ilter
=' ',
Ġsu ite
Valid ator
tens or
T oml
ĠP lease
i ed
Ġpro mpt
min Len
ĠĠĠĠĠĠĠĠĠĠĠĠĠĠĠĠĠĠĠĠĠĠĠĠĠĠĠĠĠĠĠĠ Ġ
ĠstartTag Other
Check List
Rec CheckList
n ch
un set
in v
rel ation
ĠGener ator
Ġmeta var
DE F
end Tag
Ġreference s
nd ers
IN PUT
VER BOSE
Method Dispatcher
Ġpro perly
ĠL O
fun ctools
ME TH
gre ater
9 8
201 7
rand int
Ġcer tain
oth ing
R ow
g c
Ġa gg
ĠC ur
ven ience
Ġselect ion
Ġtre at
su ally
Ġo k
Ġdtype s
gener ated
Ġ'. '<
Ġtre ated
I mp
Ġh ard
ĠO per
Parse ElementEnhance
i ff
n x
n u
Ġurl s
LO G
ĠFound ation
Hel p
se ctions
Oper ator
Ġ2 56
he llo
g libc
os ite
ĠE nt
ĠH e
String IO
Ġorder ing
CA CHE
medi an
chin ery
N TI
a ma
c ss
Ġ{ {
ĠE R
un its
her m
) '<
ĉĉ ĉĉ
HAND LER
W H
l an
t w
Ġf ace
Ġover write
Ġpro file
Ġex port
} '.
Ġ" >
Ġ( [
OR TED
user s
Ġsc al
Ġar t
du ction
Ġwho le
Ġe ar
Le vel
L ibrary
in fer
ve ctor
path name
Ġposition al
pri vate
C ORD
Ġin ts
Ġsave list
ing er
log ical
L INE
Ġs a
le nd
SSL Set
wh at
rat io
C Compiler
W alker
ĠS DK
Ġover lap
201 8
Ġposix path
ser ted
Co okieJar
SU PP
pared Request
M arker
## #
Ġ`` .
Lo g
I nd
di gits
/ .
b ut
que e
Ġde leted
di rection
Ġse q
Ġresult ing
` ,<
ĠS ystem
pla in
st it
EX T
7 0
M AN
index es
MO D
Ġ Query
il ers
Ġu uid
import s
split lines
ĠMS VC
lim its
Ġissue s
U se
po sed
Ġnamespace s
valu ator
(' <
Ġcur r
ference s
connection s
B L
c m
ew idth
Ġappe ar
S PEC
g win
as ing
pre d
tri cs
Ser ial
Ġproble ms
F ail
Ġres olver
i ms
act iv
App lication
Ġf resh
Ġad vance
Ġnet work
ex cel
Ġover ridden
Ġ---------------------------------------------------------------- ----
MON TH
E l
[ _
Ġ" (
po licy
P S
or iz
al ways
Ordered Dict
Ġw raps
Ġab stract
ĠArg ument
s age
Ġres pect
Ġsequence s
Ġ[ ['
kw ds
Ġun its
at io
ty p
v Options
Ġget text
norm case
Te mp
Exec Error
ĠHidden Text
Ġ' '.
ĠE X
C lose
k b
00 01
Ġindent Stack
Arg ument
B B
N G
Ġf all
equal s
. '
C MD
H ook
Ġre trie
Ġs izes
Ġdt i
Ġembed ded
ĠHow ever
EXTENSION S
IN ST
Can vas
Ġ' â
ĠA c
Ġser ializer
ong o
HTTP Error
temp orary
x FF
al f
offset s
dimension al
o gram
ĠAs sertionError
Ġt ail
con straints
ĠF e
Ġbu g
Ġcho ices
alyz er
to o
I ST
Ġge om
> ``
select or
er m
Ġca re
ĠH ead
Ġmax loc
sl ash
4 2
Ġar bitrary
valid ators
ched uler
Ġoffset s
Ġol der
Ġcreate s
IG HT
ĠTemp Directory
Ġpre v
fix ed
ref lection
Ġmap ped
expand user
t ls
) /
n od
t t
t ab
Ġpa yload
C ER
Ġre served
Ġb roadcast
Ġme mbers
aster n
ĠS ession
ĠC omment
ĠE OF
PARE N
ive s
Lazy Module
M ax
Ġinstall ing
PI L
A gg
DATE TIME
m ult
cre ated
Ġtz info
qd m
me mbers
Ġskip ped
f ast
l dflags
Ġt ell
co mm
ak ref
Ġsen tence
confi dence
ASC II
u func
me m
Ġ* ,
4 40
p pend
Ġ5 12
Ġge ometry
ĠM AX
By tes
f w
Ġm ut
SI TE
Ġfloat ing
Ġ201 3
Ent ity
Ġa st
Ġe ps
pro b
ĠO P
Ġche cked
ĠER ROR
g gs
Ġt ransp
Ġ' |
Ġh appen
Ġcan vas
dist ance
Ġ"" )<
M ake
d x
23 12
flat ten
Ġm ouse
Ġ( ?
ĠC ase
######## ####
For ward
AD ATA
P l
pro mpt
Ġtrans late
Ġposition s
h int
u name
ON G
Ġapp lic
Ġvalidate Trace
er red
.. ..
ĠRe vOptions
in Body
std in
tmp dir
diffe rence
Ġ' )<
ĠT able
Inter nal
ase d
D jango
g uess
Ġth reshold
gn oring
Ġ'. '
p id
ĠP AT
li er
Ġrelease d
PA CK
Ġcomp ressed
* (
x a
Ġf ur
Ġcons ider
Ġf l
ĠF irst
Ġan not
' "<
Ġ' ',
up grade
Ġ1 99
Ġsent inel
HEAD ER
># -----------------------------------------------------------------------------<
ĠNe gative
ĠDi stributed
L Y
R ST
iv ative
tick s
read only
Ġsp rite
Ġrout ine
Ġtermin al
re lative
Ġ`` (
Ġ4 40
sub type
asked Array
Ġprevious ly
ĠendTag Other
pixel s
$ ')<
Ġto ks
tra ined
vc varsall
comp ression
err no
Ġv ert
view s
) ')<
) ],<
m id
ĠF ROM
Con straint
compat ibility
a rent
d om
() :
Ġsum mary
M ultiple
Ġdef ines
Ġdata set
FIEL D
R aw
Z ipFile
re pository
Ġre po
items ize
9 5
M in
UNK NOWN
G HT
m icro
res ample
sub plot
in line
leave Whitespace
ad just
set attr
S kip
S NI
bu iltin
check Recursion
token Map
may IndexError
record s
AT C
Ġ1 8
con tiguous
Ġco re
tent ion
Ġintern ally
Ġ ut
Ġcon trib
ĠRe quires
A ttributeError
D D
} '<
Ġf onts
py pa
Ġkind s
" ',
Ġp in
)) [
ĠĠĠĠĠĠĠĠĠĠĠĠĠĠĠĠĠĠĠĠĠĠĠĠĠĠĠĠĠĠĠĠ ĠĠĠĠ
ĠDistutils ExecError
Ġauth or
= {}
Ġp print
ex port
ex isting
ĠM at
Ġbu iltin
Ġindex es
un quote
um an
Ġarg parse
ĠCo okieJar
U t
J E
b and
i um
re a
un ix
Ch ange
B it
ĠA nd
ĠL inux
Ġconfig ured
ĠSte p
P EP
Ġtry ing
] ['
å ı
lif y
spec ified
web page
au ss
Ġt ab
In Scope
Ġab le
Parse Results
M LE
LE D
C ategorical
U I
ĠL ibrary
Ġper cent
ali ases
('. ')<
J IS
i ation
up y
Ġ- <
dist s
c alcul
is olated
Key Error
M on
m igrations
r itable
te l
pre tty
`` :
base s
b ig
Ġ :<
Ġp ie
Ġn ltk
202 1
9 6
Ã ©
inter active
Up date
A G
B ER
N e
Ġ* _
ap pa
tri ct
ang ing
Ġbu iltins
request ed
do f
order ing
adapt ers
Ġde p
ST ART
F igure
String Class
Date time
Ġd ummy
ch mod
Ġcol s
Ġj ar
stream line
literal StringClass
ĠCol or
clus ive
phanum s
E M
Ġb rowser
ĠA L
Ġle g
Ġwe ek
template s
cla red
se curity
Ġc atch
Ġs q
Ġ* =
ns i
Ġme di
Dist utils
' {
Ï ģ
om ic
01 23
Ġbyte array
NO T
Named Type
Ġident ity
m or
)) ))<
So up
Ġto ols
Ġpo tent
OP EN
) +
y y
STR ING
Ġre mainder
F etch
s heet
Ġl on
vari ant
ex act
ĠW H
201 4
Ġmeta class
Ġth ing
Ġ2 2
target s
Ġg libc
Ġbl ank
Ġedge s
ab et
ff ine
ant ile
skip Whitespace
D R
S V
ra se
Ġ" :
get value
Ġex tended
prec ision
t up
ĠI SO
C alled
Ġt run
as n
ma chinery
Ġor ient
lip se
ĠValid ationError
Ġf older
Ġb ig
comp ressed
Ġin f
Su ccess
b at
ĠIn st
Ġfollow s
bl ue
ate ver
Ġas k
vi rt
> ",
g zip
Con struct
Ġp ol
Ġtmp dir
upy ter
E C
` :
Ġp s
Ġbe come
oc ab
de litem
ched ule
Ġmap s
Ġtoken list
NAME S
Iter ation
` _
p m
Ġde lay
ĠV CS
Ġtoken Types
case Tokens
Style Comment
X DG
w alk
Ġcookie jar
Ġ mp
ro perly
nch ron
] \
wh l
E astern
a ware
element InScope
intain er
B asic
Ġre levant
vi ces
Ġ{ !
callback s
1 01
N ew
O ne
py project
o auth
str ftime
trans action
zip file
Ġbound ing
Ġs core
tar file
S c
l ab
is able
ĠD ownload
Ġread er
M IN
m ar
Ġin line
ĠG DAL
ĠNO TE
ĠUT C
num bers
Ġoperator s
_ %
Ġa ffect
RE SH
ste ms
Ġkeyword s
Ġbegin ning
U UID
Ġsub RecCheckList
14 159
Node s
Ġc r
All Matches
u do
search String
Ġde sc
start Tag
scri be
CO MP
g ate
Ġh our
ĠP IL
Ġen co
Ġinvo ked
h older
Ġi de
Ġp ure
ĠS tore
ist ics
Ġma king
U LE
ĠLo okup
Ġp ub
Ġto ml
ĠC lass
bl ank
JE CT
c lib
Ġf it
() `
Ġpro ps
log y
O ri
P ri
] "<
p lt
ĠS U
Ġpre dicate
e v
Char acter
ĠSt ream
multi array
Ġspace s
de pendent
Ġfile path
ifi es
Ġkeep dims
ĠSyntax Warning
F il
ss ue
Ġst derr
Iter ator
track er
> :
pre fs
Ġend ing
Ġsepar ated
jace nt
Y ield
ot o
Co mple
ĠRes ource
VAL UE
B ox
ar ound
im ate
Ġparse s
sup ports
0000 00
>` _
Ġoccur red
ĠOver ride
S dk
([ ])<
Ġun iv
Ġun quote
ĠSE LECT
} .<
ces ses
ĠAB C
oriz ont
Ġth ough
er min
di fied
Ġpre cedence
token izer
ĠstartTag Handler
ĠendTag Handler
b oth
es c
D ER
Re lease
ĠB ack
HTTP Adapter
.+ ?
ĠS ocket
Widget s
Ġdecl ar
manage d
A ccess
Ġc riterion
i ver
str ategy
ĠT yp
Ġstr ategy
Ġ8 0
sq lite
HT MLE
N ext
Ġco mm
ou nter
ĠN aT
IN DO
opt im
Ġvirt ualenv
or ator
un e
no un
Ġbehavi our
y anked
an alyzer
col le
ĠAl low
roll ing
Ġcome s
7 4
attr getter
ĠFor ward
ran k
mon otonic
ma chine
ĠF loat
ĠIn fo
frame set
ĠPeriod Index
quee ze
F FIX
c d
Ġtarget s
={ '
poly nomial
() ).
Ġco erce
Ġutil ity
HE EL
S chema
at trib
1234 5678
Pass word
Ġe as
Ġde al
ĠO Auth
ĠName Error
S ocket
Ġbackend s
t ile
ĠL egacy
check s
ĠZ IP
over lap
g ui
Ġex ternal
ĠF un
Ġdescri bed
wik i
Ġro ll
char acter
Ġoc curs
c ket
File Error
={ "
W RITE
trans lation
ĠĠĠĠĠĠĠĠĠĠĠĠĠĠĠĠĠĠĠĠĠĠĠĠĠĠĠĠĠĠĠĠ ĠĠĠĠĠ
Th read
Net work
RI GHT
Ġmark up
Ġq s
ĠV ector
MA P
Ġinvo ke
ĠC OM
oper ations
P M
g reen
re cted
Ġ( ("
Ġco mmit
am er
vend ored
Ġexec uted
ro ut
ST AT
ph abet
~~~~~~~~ ~~~~~~~~
[ (
ĠC re
SE LECT
Ġtri gger
Ġe valuate
fo ot
PO ST
sen ted
Ġback ground
Extra ctor
Ġqu otes
m gr
in ct
an a
Ġare n
m time
Ġin d
ĠP latform
ca ption
Ar gs
Ġto gether
Ġsel ected
Ġtyp ically
e of
n eeded
Ġp ointer
Ġu sually
Ġy i
ient ific
Ð° Ð
F uture
se udo
pat ched
b an
p ower
Ġstart s
ĠCall back
P oly
Ġw indows
Ġ202 0
G RO
ta ct
') :
m c
Ġm igration
str s
is nan
Ġpre release
ĠB u
convert To
HTML Tags
"" <
const ant
cli ck
b g
us ic
Ġencoding s
ob s
] ",
ĠB L
201 6
Ġsuccess fully
Ġinher ited
pro ps
Ġup grade
ver bosity
p ointer
Ġ' +
Ġget ting
state s
Ġ{} '.
b all
Ġcon v
Ġvis ible
Ġlower case
transp ose
b roadcast
e m
is olation
ĠT ake
Ġ@ @
rc Params
Ġexample s
Ġcy cle
mo ized
') )
f ed
k t
Ġde coding
valid ation
LE TE
cs rf
ATE D
Str uct
SU FFIX
Ġ2 8
Ġarch itecture
Pa rent
Ġful ly
N ULL
ĠS UC
E ST
n at
ur ro
Ġstate ments
Ġnote book
Ġwildcard s
re maining
te rest
Ġsee k
vo ke
clo sure
ĠSUC CESS
: ].
fill na
ĠMe ta
lib Exception
ĠN on
We b
m ixer
sole tes
get state
ĠL og
CK R
F ragment
UT C
Ġs leep
Ġe v
ĠV S
De precated
save d
Ġfail ure
need s
Ġimplement ations
Ġsepar ators
ĠNormal ized
O bj
P ER
o ot
3 8
Ġen ough
bin s
Ġconflict s
P ost
info s
ĠĠĠĠĠĠĠĠĠĠĠĠĠĠĠĠĠĠĠĠĠĠĠĠĠĠĠĠĠĠĠĠ ĠĠĠĠĠĠ
RA Y
B IN
AB EL
me dia
Ġch r
ĠW rap
Ġline ar
Ġreg ard
Ġinher it
S top
de limitedList
ĠC ertificate
ĠThe y
ĠSt art
}) >".
i j
Ġel f
([ ('
iter tools
Name space
gra d
TER N
Ġgo ing
duplic ates
Ġspe ed
in ator
valid ator
sh ot
cmd options
Ġtra ining
if ul
ME T
Ġiter ation
ĠGener ic
aut iful
an chor
ĠM ust
Ġkey ring
insert ion
Ġac cepted
Ġskip na
5 12
M icrosoft
Ġan sw
Ġsha re
Ġd m
lo or
(" [
ĠĠĠĠĠĠĠĠĠĠĠĠĠĠĠĠ ĠĠĠĠĠĠĠĠĠĠĠĠĠĠĠĠĠĠĠĠĠĠĠĠ
Ġpro vid
File s
HO ME
ĠTra ceback
. ])<
Z a
match Len
LI B
OL D
M at
re p
ro spection
S imple
Ġ4 00
B inary
se quent
ALP HA
# -----------------------------------------------------------------------------<
) }<
C P
Ġp hase
iter values
Ġ" !
par allel
Ġperform ance
cri ption
se mb
li as
fe ed
MA GE
Ġis subclass
ĠF rozen
collect or
inger print
M is
') ])<
14 16
SH A
Ġes caped
m ime
ĠCon trol
encoding s
MET ADATA
B LOCK
M ain
Ġr ank
To o
transform s
channel s
e asy
ĠMoved Attribute
Ġwh atever
ĠSe arch
writ ten
Ġo d
ĠI s
ĠA ss
Ġpri or
ĠPY THON
k l
en able
fix er
clus ion
Ġassign ment
Ġflat ten
F oreign
L ib
e lif
ct ive
)) ?
den se
widget s
Pl ugin
m ouse
Ġwe ight
gre es
p ub
r al
de ps
-------- -<
Ġr fc
ĠV er
Ġspecifi es
p ush
Î ½
() }<
py plot
page s
HAS H
45678 9
N ote
Ġ ke
ith me
Ġab c
m ust
ĠCon struct
mark up
Ġpri ority
i mag
t l
el come
namespace s
proto c
> '<
R el
Ġs alt
get cwd
ĠN et
hash cmp
Ġfollow ed
Ġstatic method
) ._
> *
q r
de tect
bu ffered
ER E
tra ct
Ġiter items
: ],
i req
re ce
te ll
200 1
SO UR
Ġ""" )<
di sc
set state
mpl ing
" ')<
sign al
Ġwin types
l st
Re direct
t re
ag ate
cre asing
ĠY ield
ure Transport
are st
Ġnorm ally
G BA
R PC
t gt
') [
202 2
ation Candidate
ĠDistutils PlatformError
Ġbo ot
il la
ed By
") ]<
Ca seless
B IT
", "
Ġ2 000
code cs
call er
x f
Ġ uri
Ġf ast
ĠO GR
Ġac ross
Ġsy stems
ĠWe b
CT YPE
bound ary
c nt
KEY S
Contain er
sel ected
ĠS pat
Ġg reen
Ġpro to
ĠInvalid Specifier
Ġcast ing
ĠTrans form
P TR
] |
res olver
wheel s
ch ing
ile Error
ĠP ri
SE S
Se arch
Ġmerge d
d p
__ :<
ĠGener ate
Ġinitial ized
ut down
Ġread able
Date Time
Ġre moving
pt ime
ment ion
en cy
ĠB oolean
Ġpo ssibly
202 0
sha re
A sync
b ranch
ip v
00 1
initial ized
c ases
p in
'] [
end er
Per iod
Ġadd s
do ctype
= \
f at
Ġdefault dict
Ġformat ting
rule s
ithme tic
] (
p ax
Ġcount s
nod ot
colle ctions
Ġansw er
A uto
c al
ab solute
G LOB
st rap
Ġre com
ĠS parse
ĠU sing
ste ps
igr ate
ĠTar Info
} ')<
Ġsc ientific
Ġsu ggest
CK ET
Ġtrans l
itu de
D raw
Ġh ap
Ġv oid
SE PAR
SI X
real path
(" {
check point
ak ing
Ġspecific ation
U sing
UN C
Re q
ĠD O
fe at
Ġserial ized
Ġstr g
ĠE d
post gres
onent ial
Ġhig her
b reak
l ue
Ġdi gits
Ġde s
TH RESH
o om
at in
de precation
Ġcount er
TEN T
se cret
local ize
Ġindic ating
SEPAR ATOR
M ark
Ġp layer
Ġpar allel
Un able
By tesIO
Ġcomponent s
c ar
Î ¼
ex pect
ĠEx pected
DE SCRIPT
struct ures
Ġconflict ing
"" )<
Ġb a
id l
con tin
Re ference
ĠM arker
Ġpre tty
len code
RO OT
coord s
Ġtele thon
f allback
ur lencode
ĠU N
=' '):<
CER T
Ġre named
Ġc sv
In sert
C ho
ch unked
ĠC H
} :
Ġse ver
pa wn
WH ITE
G TH
se c
ib ling
Ex ist
ĠEnt ry
E V
i ate
inter pol
SSL Error
Ñ ĥ
__ ):<
ĠTest s
orizont al
Ġ2 6
Ġbase s
rit ical
ĠTh at
Ġf raction
ĠD ocument
201 5
lis hed
f onts
Ġc ross
ĠS ign
ĠF rom
Ġg ui
ac ing
RE Q
Ġtrans lation
Ġc lo
ĠM utableMapping
co pg
ĠType d
cy cle
un iv
Ġpro duce
end QuoteChar
av ig
Ġ200 5
accum Names
x e
Ġ" #
Ġla g
cre en
Ġcondition s
å Ī
Ġ ÏĦÎ
Ġcoordin ate
P ip
Ġ'. '.
GE OS
Ġconn ected
Ġregard less
c riteria
Ġt ries
ĠSt at
sw ig
sock s
ĠPackage Finder
Ġs li
pre args
Ġz f
CT W
Ġcre ation
pl us
Ġre c
ro ke
d ummy
Î ¯
Ġin verse
Ġ" ==
Ġcon fi
ĠC lear
pre sented
am d
> ################################################################
G ra
de tails
os cript
virt ualenv
Ġp ower
ut ors
TE MP
REQU I
B Y
havi or
Ġh ref
std lib
C ell
D ING
L M
M I
un safe
ĠM ark
A F
f raction
le ast
Ġin tended
th at
play er
Ġinitial ization
st ick
f A
p ow
Ġt w
is ing
32 1
Not Exist
Ġcalcul ate
ĠStop Iteration
Fail ure
N orm
ĠM atch
[: :
Ġ32 1
f rozen
Ġr gb
fil led
Or der
S ome
Ġre peat
Ġlist ed
Ġz lib
Ġde ps
Ġ"" ,
Ġsort ing
Ġd pi
10 24
q s
ar ator
con catenate
> {
Î ·
he st
un ded
Ġcon f
ĠS u
SI G
Ġview s
$ ',
Ġp lease
Ġcho ice
duplic ate
Ġs m
Ġpre served
sc ipy
Ġout file
Ġmo ck
NA Error
Ġto do
pp c
S ingle
sel ine
fi fo
ĠA fter
comp ute
Ġdate s
CF Array
Ġ' ?
Ġgive s
Ġfur ther
> ',
Ġt ask
Ġre duce
Ġst eps
Gener ator
ar c
In sensitive
lay ers
Ġsen se
Ġduplic ate
) ',
ver ts
=" %
Ġend s
pair s
Ġone Of
Ġchar det
Ġapp name
Ġcon cat
Ġ', ',
fin ished
Ġcp u
Does NotExist
g amma
ĠP RO
ĠB asic
E scape
Ġ[ ("
'] )
ĠZ ipFile
Ġclean up
DESCRIPT OR
j i
Ġth us
Ġma intain
j f
ra dius
Gener ate
Ġpur poses
Ġs atis
Ġprocess Characters
RC ALPHA
ipe dia
ï¼ Į
Ġre presented
Ġm ult
Ġac cessed
call s
=[ [
I TH
Ġcom ma
Ġh yp
pro duces
Ġ... ]<
Ġn dim
RE EN
: (%
ĠI ssue
De codeError
Ġself Tag
kw arg
UN I
Ġarchive s
Des cription
Position Token
Debug Action
Ġgu ar
9 7
K T
t unnel
Ġb and
py c
Ġ3 02
per m
' (
at ty
de compress
Ġb roken
ĠF F
Ġ'/ ',
rm tree
Ġin terest
ĠS urface
ĠS imilar
Byte CharSetProber
note book
/ {
de lay
De tails
help ers
ĠDo es
Ġoverride s
ac le
ls b
amer a
ac ity
Ġextra ction
BU IL
Config ured
Ġhap pens
5 2
c ircle
Ġas signed
ĠS ince
Ġde limiter
ĠEn gine
roperly Configured
res ize
NTI FI
int p
Ġredirect s
ĠN ULL
') ),<
H EL
Ġi gnoring
Ġin compatible
Ġframe work
pt ure
Ġun expected
filename s
c data
un bound
Ġr m
kind s
S Y
Ġf ew
Ġg zip
ĠH AS
vert ices
ĠE ND
ĠW rite
hex digest
P art
def s
__ ":
Ġres pon
script ors
ch an
B oolean
h yper
ĠP KG
Ġ< /
ĠSer ver
: ,
ct ors
__ [
Ġ2 1
Ġun install
Ġsh ift
TR Y
charset prober
expi res
f k
t n
Ġm d
Ġun packed
Co mmon
sys config
Ġtemplate s
Ġfn match
ĠLo ok
Ġlook ing
Ġl b
ĠPip Session
noun ce
5 7
struct ured
Ġvalid ator
Ġselect or
k ivy
on d
Ġac cur
Ġren dered
0123 456789
Ġparent s
ĠImage File
THRESH OLD
Ġt ensor
5 00
I mplements
Ġd ll
Ġent er
ollow edBy
angle s
ĠKe ep
G H
he b
ge ometry
Ġst uff
date d
Ġset surface
load ing
Ġdoc s
ĠPro vider
A M
M IT
Ġfin ish
ĠSp lit
m ro
t mpl
w t
Ġmac OS
6 7
ro id
Ġ`` <
doc string
G L
O ut
x c
ex tent
Ex it
er c
NTIFI ER
| \
Ġ 99
Ġinter active
PRO TOCOL
Ġs ilent
lo ur
ĠRe moved
Ġro aming
Gener ated
Ġc ut
her me
ĠRes olution
Ġsample s
Ï Ģ
Ġchar Encoding
men ded
Ġmay be
Ġskip ping
war ns
T AB
s f
bu ilt
ca de
Ġsu c
process StartTag
Ġprocess EOF
av g
Ġche b
ĠImp roperlyConfigured
E nter
Ġsub set
pos n
ĠSt ate
Ġrout ines
4 7
S K
{ "
} "
in spect
ĠO racle
es caped
Ġu b
cur dir
Author ization
D own
an te
Ġper mission
Ġs af
Ġsub path
Set Console
Ġmax Exception
ĠDec imal
i i
Ġident ify
ĠChar acter
ns ity
Ġx p
Ġcomple tion
Ġra dius
track ing
ĠAt tributes
ĠUnsupported Wheel
Ġcapt ure
Ġmime types
p ressed
ul ated
Ġimport ant
t imer
Ġt ornado
con verter
Ġher me
Ġ-------------------------------------------------------------------- <
Ġa udio
ĠT arget
Ġex e
ĠA N
Ġad apt
hes is
A xis
ial og
Ġinterpol ation
ĠCur rent
() ]
># :
Ġout er
RE S
Ġlog in
ten v
sw itch
am l
ĠL ib
ĠDist libException
M any
th ers
Ġunset surface
T Z
il ine
file path
ĠIn finity
Ġ5 00
ĠUse ful
//////////////// ////////////////
x d
Ġas sumed
el ded
ĠM igration
CO UN
c atch
Pro gram
ĠDi ctionary
Pre paredRequest
Import Error
/ ',
Ġf la
ss h
min ute
Ġcur Col
e ye
ro cess
Ġ' "
un tered
Ġend QuoteChar
)) ]<
/ ')<
b re
j peg
ri end
Ġpy gments
Ġup d
Ġtarget path
Loc ation
Regex p
" }
K EN
g er
Ġf h
as is
con sume
count ry
sw ap
termin al
UC JP
S cheme
ĠA UTH
mo re
P ORT
Ġe tree
co ffset
ser vice
LA SS
confi gs
I MAGE
æ ķ
co ver
skip If
ĠZ ip
ĠAd ded
Ġp added
la ce
Lo ss
sha ke
GLOB AL
Ġd x
ĠP oly
ac c
Ġpo licy
En codeError
- #
s rs
ĠA S
gg le
{} '.
Ġh it
(' #
Ac cept
INDO WS
v ander
re po
ic ket
com ing
Ġsever al
c rt
er kzeug
Ġun defined
ĠG ET
Ġimplement ing
ĠSt udio
down loaded
j ava
ä »
al ive
Ġex cluded
ĠA ut
url parse
Ġwe akref
ĠReg istry
Ġpublic Id
+- ]
str ptime
pend ing
Ġ\ *
DO WN
save As
Multi Index
Ġenco untered
b f
n l
an it
ĠA nsi
add ParseAction
MA G
dest roy
saveAs List
HO ST
SCHEME S
9 2
i vidual
Ġb lack
AT CH
replace ment
40 4
Be fore
I gnore
] ',
ce eded
Ġb s
to list
Info Distribution
Ġ201 2
Mo ved
Ġpre fer
Ġstate s
LO AD
Ġliteral s
(' \\
__( **
out ube
ĠM etadata
Ġchannel s
cu da
EN V
inter section
non ce
D uring
N ow
t ions
Ġh i
Ġn at
py torch
pend s
mat ched
AR CH
back ground
Install Dir
ĠSSL Error
ĠPO ST
i et
Ġs olution
ers on
ĠV ariable
oo se
active FormattingElements
au dio
ier arch
Ġs rid
sp inner
Method s
mi di
5 4
Ġ' $
Ġ" $
Ġbe ta
ĠO utput
Ġ4 2
Co okie
update d
iv ing
ĠC oding
ent ities
Par ses
SSL v
Ġrel ation
Ġpat t
Ġdefinit ions
ĠExtra ct
x lim
Ident ity
host s
Ġpage s
C ustom
c ancel
assert False
Import er
ĠBe autiful
T itle
p ools
in ations
Ġn or
ĠS tr
Ġme th
l on
q t
Ġdomain s
) })<
C ls
Z ip
k it
') ))<
appa uthor
] ``
m argin
(' --
ĠM IME
ĠPro tocol
Insensitive Dict
(" __
mm ars
mb iguous
Call er
K B
Ġe lem
State Machine
. ],<
R ule
m er
code name
HTTP Connection
go od
deep copy
O pt
Ġs heet
__ "<
>@ _
], [
Ġin correct
RE DIRECT
Ġper m
work ing
Ġscal ars
/ '
0 33
t od
ĠI S
clu ding
Ġent ities
ĠHTTP Error
sql alchemy
ĠFigure Canvas
Ġpy tz
Ġyield s
Time delta
Ġpl ural
Ġquote Char
During Try
N aN
Ġs olve
get opt
to ur
... "<
Ġcli ck
ĠHttp Response
s queeze
re cognized
Ġdi strib
Ġresponse s
Ġmask s
Ġrepe ated
MOD ULE
t ot
Ġnode list
200 8
trust ed
HEL P
c compiler
Ï Ĥ
Ġb el
ĠC ode
ĠB lock
ang ular
=[ ('
ĠCoding StateMachine
ort h
ĠA xes
ĠType Var
Ġ200 8
fs path
HTMLE lement
Ġo thers
bu ff
exec ution
G iven
Ġe sc
Ġun signed
Ġdis allow
_ '
qui et
ĠComp ileError
> ")<
in ate
ate x
pre pared
out ine
Ġwh ite
by pass
ĠHTTP Response
Ġtz name
KEY WORD
Ġyi elded
F OR
S y
h ref
Ġf atal
"] ))<
ose conds
Retry Error
ĠNA ME
' d
un patched
Ġu func
pre trained
ĠN ull
ron t
Ġz mq
old ers
Sec urity
Ġsw itch
s ince
Ġin complete
Ġmax size
Al gorithm
ĠPO SIX
Ass oc
b old
per missions
ĠM ap
ore set
Ġnum er
plo y
Base Exception
sv g
enum s
El se
G IS
direct ive
Ġcon venience
ly ph
sub classes
inter p
stru ction
Ġconfi dence
In clude
ĠW orld
Ġk ivy
Type Ref
Ġver bosity
Hook Caller
' ''<
S upported
Ġsu bject
Ġper missions
plat base
Ġhig hest
) ("
ur se
ype s
Type ID
Ġ'- '
METH OD
Ġs andbox
Ġde precation
Ġi req
Ġin c
ca led
L IN
se ct
end point
Ġsl ash
Ġt list
Ġi mmutable
pi e
Ġper formed
Char Field
DO CU
thread s
V ector
A IL
in crement
ul k
arg er
ĠNegative Infinity
Ġw x
build ers
Ġman ually
Ġerr SSL
sen tence
ĠQt Widgets
x ff
Ġs pawn
ĠA ND
") .<
Ġconfig parser
Ġlike ly
Python Version
leg ate
he v
art ist
so li
As sertionError
85 9
Ġls b
N ET
Ġt mpl
an ded
Ġ""" \<
ĠI mplementation
pre fer
tra iling
men u
ĠTyp ical
f ailed
Ġre name
def init
Ġun supported
ĠB ool
Ġca ching
Ind ividual
Q T
() ._
ĠL ay
Ġap pended
T K
ed u
et ime
201 0
Ġlex er
SSLContext Ref
u er
Represent s
Ġ ?
ri ces
ĠL IGHT
use s
title s
Ġmulti path
c riterion
un install
({ <
fic ation
' m
f h
ĠA uth
Ġcomp uted
ĠAt tempt
Ġtick s
Dec imal
Ġrecom mended
C MS
c as
st ale
un iform
config ure
Res olver
ĠApp Engine
ĠSpat ial
B RA
F LAGS
h g
lif etime
ich r
Send s
[ <
un ted
Ġde grees
link er
Ġadd resses
package Name
ĠBuild Environment
z mq
S ave
b la
re initialize
Ġu nders
ĠW ill
ĠLoc ation
conflict s
r x
Ġm id
Ġm iddle
Ġder ived
erm ite
Ġprovid ing
æķ °
T oks
file no
code c
ĠB OM
Ġcheck Recursion
not Chars
0000 0000
quote Char
hex nums
Ver ify
Ġp ending
ip ython
Ġiter values
medi apipe
ermin al
4 00
L ONG
Ġb ranch
__ ()
Ġcol lide
A ut
L ATE
__ '
01 01
Extra ct
> `.<
B LACK
Ġm time
') ):<
PY ING
MENT S
Ġgra mmars
ĠCase InsensitiveDict
s mall
199 37
SOUR CE
ĠAUTH ORS
j pg
Ġcolor ama
= "",
P LA
] ')<
c b
l arge
quest ion
ĠG B
Ġne trc
Ġid s
G A
P lease
Ġv max
py py
Ġmsg pack
EL F
ĠSec ureTransport
Ġ å
Ġ[" --
cell s
urro gate
y ield
al one
Ġh ad
Ġst and
et ched
ĠUn like
Ġconver ter
) **
Ġ ì
in tern
ĠDe precated
hour s
(': ')
________ ________
Ġlon gest
E AD
a head
de leted
un used
ĠIn clude
Inter val
F atal
co v
De lete
Ġtra ce
Ġroot s
go ing
Ori g
] '
Ġma cro
Ch annel
33 33
mant ic
c lock
Ġhas hed
num er
ĠCh ange
align ment
3 84
D ialog
Ġs k
rom ise
ĠW arning
Ġrel ationship
ĠBe cause
Ġguar ante
iet f
L ines
s dk
Ġb order
Ġle gend
ĠM in
max imum
Element Tree
ĠInit ial
F ill
S tore
Ġs v
', )<
Ġar c
Ġ3 00
Ġ202 1
5 8
disp ose
Ġher m
) [-
pt s
AL LOW
ĠCon nect
Ġdi git
ys hev
com ma
parent s
HTTP Response
fail ure
B ot
m ount
s izes
ĠO K
cons istent
Ġest ab
mor ph
= (),
arg max
Ġcode name
float ing
Ġvc varsall
ĠFrozen Set
) ;<
[ ...
c df
soc ial
percent ile
Ġ âĢ¢
Ġs n
Un defined
APP DATA
postgres ql
Ġto k
]) ))<
Ġid na
CO DING
Ġignore EndTag
IC AL
roll back
ĠTh read
Ro ot
> /
S R
W ork
i ro
t list
Ġ" ~
AN GE
Ġframe s
ĠC I
Ġde velopment
Comp arison
Ġreference d
ĠRE AD
ĠNe ed
Ġfi xture
a ir
p ies
ic ted
Ġal phanums
Ġlist AllMatches
RE F
for wards
Ġlog ical
Create s
ORD ER
Ġthrow n
plugin s
] },
g mail
Ġc red
ck er
Pro file
ph rase
Num eric
sample s
HTMLElement s
Ġre main
Ġin serted
en s
pre process
ĠM D
xy z
win inst
Ġpla in
ĠCa seless
Ġ`~ .
le cted
Ġf d
ro ute
Ġw ish
tok s
ðŁ Į
B ound
S creen
prefix es
NO DE
ĠElement Tree
I t
T ri
Ġb i
class ifiers
et y
Ġiter keys
pl ural
2 24
i ment
Ġi e
un ic
Ġcopy ing
skip na
oted String
many linux
conver ters
an es
ĠP r
Tree Walker
BO M
Ġstrip ped
ĠTar File
ĠPAT H
Individual Specifier
c id
Re porter
any thing
drop na
Syntax Error
Ġ( {
th umbnail
ĠO ne
ĠEx ec
ĠCertificate Error
ch n
Ġse ss
prepare r
named tuple
WAR NING
Ġgener ation
> [
Ġindex ing
conn ected
o res
ch art
obj s
su ch
ym ous
Ġe tag
Ġto l
ĠS cript
ĠC alled
Ġde limitedList
ĠD raw
Ġca seless
Ġret Toks
fin ish
ĠS trict
Ġun like
ĠH ashes
Ġcontext manager
hentic ate
reference s
decor ator
S hell
l b
m as
Ġf aster
an nounce
Ġs quare
Ġ" [
ĠI nd
ive ly
Ġuser bot
cert ificate
Ġcapt ured
ĠCO PYING
Ġcf g
3 86
å Ĳ
Ġin finite
Ġco st
Ġexpi res
s k
he re
bl as
ims how
, -
f lip
Ġint ro
AR RAY
byte order
comb ine
9 49
L ast
{ {
ur istic
Ġw ind
ma le
ĠF ix
Ġme mo
session s
Ġvirt ual
+ '
4 3
\ '
ver ted
Res olution
Cur rent
c rypt
ĠF uture
ap pro
ĠO N
ĠM atches
ĠPro cess
Ġdraw n
ĠSU PP
L ABEL
_ =
or acle
Ġre pl
Ġal la
Ġ3 6
format ted
ĠDef ine
P ack
a res
d itional
Ġ limits
Ġre store
Ġf oreign
ĠS ave
args ort
ĠDistutils FileError
uff le
Ġlate st
REG EX
GRO UP
. ',<
12 7
Ġdiag onal
chan is
S QUARE
pe m
Ġ' [
Ġto ler
ĠT ri
Ġdo ctype
RE NT
ĠUnicode EncodeError
Ġbit map
ĠMethod s
Ġide a
m igrate
ĠP ep
HEAD ERS
è ¯
re et
tag Str
}) "<
spe ed
MAG IC
Ġp u
Ġ# #
con j
Ġde n
method caller
example s
U sage
~ <
""" )<
Ġst arted
ĠL abel
Ġpy pi
ĠCon tain
Reg istry
g id
Ġp ipe
ch ive
Ġun changed
Ġback off
A ctive
C alcul
l n
ĠM an
Ġper mitted
abc def
Sub class
Ġb g
ĠO b
Ġexpect s
transp ort
n ers
um mary
ĠM on
extra ction
Ġtemp dir
Ġutil ities
Ġcallback s
Ġtk inter
st ar
Ġs low
out file
Par ameter
ĠEx p
}) ".
Ġalla uth
â ľ
Ġ ----------------
Ġ: ]<
SER T
> =
ee p
Ġopen ed
f rac
ri c
Ġat t
"] ["
D ay
co uld
Ġg ame
Ġnew lines
SI DL
ĠDistutils Error
pol l
C or
ol ume
ĠFrame work
ĠWH ERE
in Table
Ġs f
Ġm obj
Ġm icro
pre view
Ġ[] ).
Ġcomb ined
FILE NAME
+-] ?\
ĠT oml
Ġset Up
cmd class
ĠAdd itional
desc r
ord inal
flow Error
unch er
Ġdeg ree
E AR
I MP
in formation
ĠM achine
ĠW AR
Ġunicode data
O ID
o ssible
__ ))<
Ġhist ogram
Lay out
h yp
o sed
ĠĠĠĠĠĠĠĠĠĠĠĠĠĠĠĠ ĠĠĠĠĠĠĠĠĠĠĠĠĠĠĠĠĠĠĠĠĠĠĠĠĠĠ
Ġr x
Ġpro g
Ġ3 4
Ġx m
parsed Version
Ġstd lib
PRO JECT
3 00
> [^
de pendency
Ġa head
pre cate
Message Type
VAR S
manage ment
BIN ARY
ĠP os
Ġr g
am b
protocol s
Sup press
S how
d temp
__ ('
Ġby ref
`` ,<
Ġl arger
Connection Error
Ġlet ters
ãģ Ħ
Mon th
y lim
Ġ= >
me trics
qu antile
ĠA sync
Check s
Ġse cret
Ġloc ated
Ġsp rites
ĠSecurity Const
ĠID NAError
F RA
e ager
Ġt imer
ar ing
Ġf ra
Ġm u
ĠF lask
ĠB inary
AN CE
na ive
I R
Ġn l
space s
err state
Ġcho ose
Serial isable
Ġorient ation
j ac
p x
Ï ħ
ue s
pro vid
read able
Ġder ivative
annot ation
e ch
ge o
Ġis na
con version
decor ators
COUN T
T RA
X Y
d ual
Ñ ĭ
is digit
av or
Ġcount ry
lend ar
Ġcontrib utors
n othing
Ġin fer
ect ion
ĠM issing
ĠU npack
work ers
ALI AS
s alt
Ġd n
is atty
PAT TERN
) (*
t ition
w g
Ġe ffective
il ation
user base
late x
wik ipedia
Sdk Dir
P e
V is
lin ewidth
"] [
dict s
Ġj ob
Moved Items
C ES
d rive
g iven
re versed
st and
Ġp ast
Ġal g
ĠR PM
Ġarg types
******** ********
O Auth
ab out
Ġth umbnail
ĠH ermite
min imum
ĠEn coding
DOCU MENT
" /
ect s
con firm
function al
Ġdid n
C LS
U npack
de scriptors
Ġshould n
+ <
8 859
ing ular
Ġse ctions
dent ial
DE X
200 7
Ġshort cut
nchron ous
ry pted
ĠO ut
SE CU
let ter
E gg
Ġa verage
li ps
Ġde ep
om ial
fore ign
Ġtag name
11 11
' })<
X ml
e tag
y es
sel ves
Ġe mit
ab ilities
ĠC lient
ĠM IT
IN AL
PI P
IO Error
ĠAl ways
Ġstruct ures
ĠHead er
E U
Ġb asis
ap ane
Ġse nder
Ġbu ff
File name
Ġbox es
Ġ50 8
apane se
* ')<
Y Y
Ñ ı
1234 5
Ġoptim ization
6 8
b ian
Ġd s
Ġm ar
we et
modi fy
Ġrece ive
ĠTimedelta Index
Ïĥ ÏĦÎ
cl uster
py ver
call DuringTry
Match First
) "),<
h ind
t body
Ġre ported
Ġc id
ĠS H
ĠU S
ans wer
pos itive
ĠLookup Error
> ')<
con troller
ĠA uthor
Ġtime d
") ])<
zip importer
the ta
Ġsystem Id
ĠGener ated
Ġdy namic
activ ate
Ġapplic able
, '
U RI
d n
o h
Ġp ush
co ef
ĠS ingle
Con v
** <
Ġ"" ),<
Ġident ifiers
position s
Ġcons ist
Ġms vc
6 9
H as
ro py
Re cursive
ap ted
ĠW INDOWS
Ġad jacent
bo ot
") ),<
cen ses
Request Exception
untime Warning
ĠLi ke
stride s
Cho ice
Ġrm tree
/ '<
9 01
M utable
e valuator
Ġfor cing
ĠC y
Ġde que
ĠUn known
Event s
ĠHe re
Ġ\* \*
= ("
P YPY
æ ľ
Ġc riteria
Ġme chanis
TION AL
Ġrender ing
auss ian
Ġtoler ance
Ġi con
", )<
ĠE l
ĠH EAD
Ġli ght
mk path
rot li
ĠValid ate
Ġmodify ing
multip ly
Ġth ink
Ġ| <
{} ".
vers al
. ],
w ritable
Ġ(' .
limit ers
Ġaccess ing
ĠCallback Context
Ð »
Ġg l
over flow
gre SQL
LEN GTH
in tegr
Ġt qdm
pre dicate
'] ))<
Ġcode c
Ġmin utes
Not In
Ġappro x
Ġkw ds
Ġdot ted
Ġei gen
H KEY
} }<
Ġf ft
ul a
RE CORD
let ters
Proxy Manager
ĠHTTPS Connection
p acket
Ġf ut
en ium
Ġappro ach
COL OR
Ġcause s
Pr int
] ]]<
Ġ" }"<
ĠT ools
set Filter
ĠI gnore
ta ched
Ġon to
Ġaccess ible
EE K
ĠMax RetryError
ĠEU CKR
} ({
um ask
Ġx s
Ġpl us
Ġappe ars
che cked
Ġurl fetch
ref count
Ġ vendored
ul p
Ġman ip
LO CAL
Ġ'* '
.* ?
Gener ic
database s
b et
ma cos
pro j
ME M
Request s
N UT
ĠT ool
([ \
Ġload s
Ġvc runtime
glob s
Ġ urlopen
th rough
(' ')<
Ġde tection
gener al
Ġread y
AD DR
Sp atial
att name
R GBA
å ħ
Ġ' âĸ
Ġun ion
A gent
f ut
er n
lo bj
Ġ\ "
Ġra ster
C lip
e lem
x axis
me sh
ĠC ustom
ĠB LACK
stit ution
co st
ĠS QUARE
ise ct
ph p
EX EC
re cv
st u
Ġo ps
li censes
Set s
Ġ6 3
PI PE
CF String
CF Release
Ġ"{ "
. ",
K ernel
b n
Ġup on
Ġprefix es
wrap pers
ĠInst ance
Ġp seudo
di c
Ġby pass
ho od
ĠU P
Par ameters
De cl
Ġfloat s
Dec orator
c map
f loor
w ill
ĠS ource
local host
save fig
indent ation
Graph QL
ĠMachine State
æ ĸ
Ġa gent
Ġre cognized
Ġf ine
ma intainer
gs ize
ĠR el
back ward
Sh ort
? """<
T ensor
d on
ĠC Python
Ġ0 9
ĠP age
ac ted
ĠW inter
En abled
xx x
Init ialize
ierarch y
data frame
zip info
gorith ms
NUM BER
re load
sp rites
ars h
Ġdict s
Ġ.. .,
ĠCheck s
CON TENT
Ġmean ing
Protocol MessageType
k j
Ġ[ _
Re place
Ġse ar
ĠR GB
Ġmark s
U RE
Ġin ject
un packed
po logy
ĠUn install
cor pus
State ment
ĠReg ister
rg ba
ĠB ut
PA CE
Ġdescri be
morph ic
Ġ( ))<
ul ates
=" )
Open SSL
Ġde limiters
out come
app le
Ġcond itional
clus ions
ĠBeautiful Soup
A fter
] }
i li
x p
Ġs atisfied
import lib
no tes
Pre dicate
IT S
PA SS
Ġrout er
clo ud
Ġboot loader
e ta
Ġm iddleware
") ):<
comple tion
Option Parser
Ġevalu ation
* \
A ppend
D C
Ġc ar
Not Any
lex er
sequence s
Package Finder
Ġinstant iated
anit ize
: '
pi pe
Ġdoc test
Ġ". "
ĠPo int
BACK END
provid ers
) ;
. ".
tern ative
Ġtoken Map
Ġparser s
Token Converter
Ġbody chars
Ġrelease s
Chars Orig
results Name
ĠDis content
Integer Field
Ġph ases
Ġthrow Exception
Ġfonts ize
+ "
L ANG
v ocab
in ted
Ġe q
Ġ" \\
ver ting
ff ff
user site
sup plied
ĠInvalid Version
ĠInter nal
ri ding
Ġst ub
ĠSet up
M Y
] ]:<
ing u
param ref
ĠR Lock
gra mm
TR AN
ĠPYTHON PATH
= ""
Ġc m
Ġd dof
LE FT
cor r
exp licit
ĠHTML Parser
è ¿
it ter
ĠC alcul
ĠCategorical Index
WS GI
Ġrece ived
Generated ProtocolMessageType
Ġw alk
ot ion
ha ust
fix ers
man ent
whe n
lap sed
v ailable
ch dir
Ġ_ ("
"] ]<
"^ \
ĠTake s
x z
is abs
ĠS tyle
Ġ`` __
Ġchunk size
Ġgo es
Ġprotocol s
B UT
P ointer
] '<
Ġ er
ĠM askedArray
Ġwind ll
` )
Ġb z
ve red
very thing
Ġthread s
Ġactiv ate
what wg
G ui
L egacy
se nder
Ġ' ',<
il li
la pping
ĠA R
Ġstream line
ĠPro vides
ome tric
Ġ9 0
async io
Header Dict
Ġaltern ate
annot ations
INST ALL
ĠREAD ME
/ (
U ES
] ?
th ough
ĠThe n
Ġbuild s
Ġduplic ates
ĠFun ction
+ (
W ait
b lob
Ï Į
Ġre a
cl assed
token Queue
compile d
win reg
[^ >
Child ren
Ġred act
ĠOper ator
+ ',
() ])<
FF FE
suffix es
Ġsimp lify
Ġattemp ting
ĠInfo Extractor
A MP
Ġd p
__ '):<
Ġv ary
bu gs
ub er
transform String
CUR RENT
frameset OK
ĠMatch First
anything Else
P ublic
Ġn ice
Ġh ack
ĠL anguage
ĠEn able
Oper ations
Ġmon key
RE MENT
ĠNum eric
s ibling
Ġp t
Ġch unked
Ġglob ally
A UTH
r u
ç »
fi es
Ġas array
Ġimport ing
pr une
link name
sub set
Ġsp atial
ick s
Object Type
rot ate
7 2
8 1
f amily
g u
or ient
Ġwidget s
âĸĪ âĸĪ
Temp orary
B ig
U ST
à ¸
lib name
ard own
St d
ĠEx pression
su bject
AN T
http lib
ĠJ ust
M a
M igration
ĠC PU
Ġde tected
ree ment
Ġsql parse
ĠEU CTW
' %
ð Ŀ
ĠP NG
ff ected
Frame work
dt i
igh b
ĠEntry Point
ar ity
li ant
Ġme m
oc ation
col group
dist inct
Ġdis card
ash Comment
Normal ized
Ġear lier
Sc alar
la in
xt ures
ĠDi rect
RA W
Ġdraw ing
!!!! !!!!
F oo
Ġo mitted
Ġh ide
ĠP ack
]) [
C SIDL
e ff
o pens
read the
ãģ Ĥ
readthe docs
b zip
h ide
z illa
in ject
ĠS IG
iz able
ap er
Pro perties
Ġmat rices
poly gon
K it
W HEEL
Ġt idx
te t
Ġres name
db api
Ġsatis fy
B in
M ATCH
as hed
mk dir
GG A
ane ous
decl are
TRI BUT
Ġdistrib uting
t head
Ġin crement
ĠC lean
sub directory
sum ing
BA PI
TO KEN
ateg ies
Ġrect angle
ĠCF String
Record Path
NUT YPE
Ġs ingular
(" --
Error s
url fetch
Ġurl join
err upt
Install ationCandidate
ĠSup ports
ĠCON TRIBUT
Ġdiv mod
ĠStr uct
BRA CKET
ab is
Ġ2 7
dir ty
Ġal phabet
et c
ĠO p
play list
Call back
Ġmon otonic
ĠSpec ial
uer re
ĠStrict Version
ĠCONTRIBUT ORS
: ")<
f ortran
Ġf ed
ĠD es
ĠRe ferences
Ġ`` "
Ġpart ition
remove d
ĠGe o
EV ENT
= ()):<
Ġ' (
el y
() ),
ĠRe place
unt il
ĠSSL Context
leg al
TLS v
ING S
Ġqu ad
Ġreplace s
Ġob server
SU B
Contain s
F LO
c ritical
ĠS end
Ġr and
Ġ[' -
Ġprob ability
Ġam ong
= '<
C losing
] "
Ġ[ ],<
EN CODING
FI RST
(? !
Ġlookup s
Ġdb api
ĠÏĦÎ ¿
$ ")<
Ġ mention
Ġnew ly
File Header
box es
CF Data
ĠInterval Index
ELF FileHeader
E LE
W EEK
Ġ` {
ĠE L
ĠSet ting
================================ ================================
week day
M utableMapping
_ "
Ġt aking
Ġw or
Ġh uman
Ġv min
Ch unk
Ġfind ing
Ġreg ion
Do ctype
u z
Ġf avor
Ġar ange
Ġ{} )
Ġgre et
ĠWh at
ar ter
Ġcor ner
FA l
come s
>' ''<
rocess ing
social account
* '<
C EP
U AGE
e quivalent
Ġh alf
ns hi
Ġapp lies
search sorted
ĠInvalid Requirement
Whitespace Chars
Ġquoted String
Ġf ore
un supported
Ġ` _
Ġse ed
Ġte chn
Un parsedVersion
Ġ12 7
ob soletes
ĠRemoved In
Fatal Exception
k y
ĠS ys
ist a
Ġpro per
ĠE asy
Ġtoken izer
Ġ'/ ')<
interpol ate
5 1
r d
ise d
Con nect
den ted
2013 0101
wer kzeug
calcul ator
F ull
re install
Ġre cogn
ke w
") [
Ġiter ate
Ġoption ally
Ġavoid s
ãģ Ĩ
agg regate
bz r
ĠSUPP ORTED
B Z
c iphers
ur ator
ĠF ortran
per iment
Ġget ter
ĠN ested
app lic
Ġ(' -
Ġnon ce
DI T
Ġfra ctions
F UNC
s andbox
re pl
Ġ[ ]:<
per mission
Config Parser
SUPP ORTED
Ġpotent ial
D oc
R andom
c alc
n py
Ġs ound
fi er
is na
inner HTML
Ġattemp ts
ĠAc cept
> ]
Ġs cl
ĠIn cremental
Ġaut os
Ġfix er
Ġalign ment
D T
e ffect
Ġlink er
(' ',
Ġde nsity
ĠO ptions
sc atter
ber t
LO P
Request Handler
Ġauth ors
ĠFI LE
B ad
de pends
Ġc ir
ge tenv
ck s
tr unc
direct ories
A V
C ancel
O GR
Ġre tain
it tle
ĠD ATE
ĠD NS
>> >>
Ġ[' /
byte code
Po licy
Input Stream
Ed itor
> ,
M ath
Ġ vendor
Ġt abs
Ġc book
Ġe ggs
list en
UL TI
Ġjoin ed
Sp lit
Ġsym metric
d ition
m ongo
at ype
qu ares
Ġl st
Ġdis cord
Ġdirect ive
ĠSet tings
Ġdisplay ed
âĶ ģ
writ ing
Ġeas ier
I VE
S ite
an ted
un get
char ref
sh adow
site s
convertTo Float
z a
ar Down
Ġre duced
Ġ_ <
all files
ne tes
Ġsh adow
auto commit
ĠFile NotFoundError
Ġreport er
TEMP LATE
ĠAN SI
uber netes
_ )
Ġs ol
Ġ( `
ĠT ABLE
Ġ: ,
Ġfile mode
Ġpro duced
Ġun ichr
Ġconver ts
Dis play
ĠChar Set
Ac count
atex it
FAl locator
> (
e di
Ġs dk
Ġin ferred
Ġ""" ).
di vide
ĠE quivalent
comp ilers
ans i
Ch art
Ġconfig ure
ak er
CO OK
exp onential
Ġna ive
f l
Ġc lock
Ġr atio
Ġ`` _
ĠG oogle
ON LY
Ex ample
Ġcap ital
) ()<
n ans
Ġg amma
Ġinstall s
Ġnamespace HTMLElements
child Nodes
Ġgra dient
DL L
ĠArgument s
ĠBL UE
ction aries
Ġbu ndle
Ġca lendar
Di alect
gra mmar
Ġlin ux
RC Command
e led
pe er
Ġu id
ĠL im
AA A
6 3
O FF
ç Ķ
Ġi mpl
Ġp tr
Ġcon vent
Ġstr s
ĠPer mission
heb yshev
ra d
Ġ' &
qu ot
dest ination
Ġsw ap
Code c
L U
Ġre du
Ġ# ##
ĠF AIL
ok ing
Ġ/ =
lookup s
ALLOW ED
> ----------------
a verage
s ound
di rected
vi e
Ġun used
do es
( "".
> ##
K ind
V ariable
p ull
ĠRe cord
Ġsup ply
ĠR aw
lap se
PO SI
ITE M
= ('
Ġe qu
qu ad
Ġh yper
ĠS JIS
ĠC md
() ")<
ĠE UCJP
map ped
Ġdis patcher
Ġ"' %
Over ride
Fil led
c ython
i pt
in ference
le ting
ar b
Ġpro duces
== '
Ġnum s
back wards
ĠMo dified
ĠPool Manager
i or
s quare
y aml
Ġg nu
base string
with Attribute
Ch at
CH UNK
Ġmake HTMLTags
ATC ATC
a j
n derer
t foot
se en
co very
DI S
ĠPro ject
simple filter
ĠPip Error
Ġqui ck
` ).<
m usic
Ġf our
ĠPar sed
Match er
same file
component s
] ["
f ns
w atch
Ġco pies
ER O
module Or
ĠRE CORD
Fe atures
ĠYield s
moduleOr Req
_ ):<
b io
de lim
ĠĠĠĠĠĠĠĠĠĠĠĠĠĠĠĠ ĠĠĠĠĠĠĠĠĠĠĠĠĠĠĠĠĠĠĠĠĠĠĠĠĠ
Ġadd r
filter warnings
Ge o
bla h
Pe er
Ð º
Ġa mbiguous
pre serve
loc n
l asses
li ck
Ġth ird
ĠE gg
Ġ[' .
Ġ& =
ĠBase Database
200 5
Pre serve
Ġ201 8
Al low
cum sum
opens ource
f a
r vs
li ve
Ġcomp ilers
Ġlow est
Ser vice
a wait
w x
y axis
ip s
token ize
Ġ{} ,
ãģ Ī
Ġpie ce
avig ation
' ")<
C UL
S afe
V S
Ġt t
de clared
is in
ĠD BAPI
ron tend
Ġrange s
Ġinfo s
23 1
Get TypeID
cy gwin
n m
Ġ" +
id na
ĠS afe
bu cket
back ports
pri ce
Ġsegment s
Select or
R untimeError
Y EAR
e cho
x label
Ġa ge
un def
ĠB Y
rap he
Key chain
[^ \
]+) \
tool bar
SecTrust Result
irc ular
Future Warning
( (<
/ *
st arted
Ġ[ #
(" *
ĠR PC
connection pool
... ")<
ĠProtocol Error
B LE
e i
or arily
Ġb isect
Ġm argin
ĠT icket
Ġco urse
99 9
win types
Ġ'/ '<
rel path
rel ationship
ĠCurrent ly
Ġstand alone
: .
[ ["
re map
Ġe ver
str g
Ġmatch String
op le
SE TT
ĠstartTag Table
Ġevalu ated
D ouble
Q A
f requency
sp atial
Ġcell s
Distutils Error
> .<
L G
g lish
Ġf rag
Ġf amily
]+ ',
ĠRequirement s
boot strap
C TION
I FE
o od
Ġ' @
Ġx range
sy copg
bind ings
BLOCK SIZE
P h
m u
Ġt xt
ĠC MD
)) ):<
Ġ201 1
dis abled
---------------------------------------------------------------------------- --<
Ġpk gs
re served
Ġb lit
ĠI dent
ĠC ounter
Ġlo gs
ON T
ĠPer form
Line ar
L ong
f ancy
on ce
ĠN ORM
Ġmapping s
Ġfs path
IFE ST
P H
^ {
j inja
} -
Ġto uch
id ual
ĠF ail
Ġat tach
arg min
Ġiter ations
Ġgener ates
round trip
PP ER
serial izers
Progress Bar
F D
T arget
s olve
} /
cro ss
Valid ationError
ĠLine ar
Ġsmall er
Ġmedi apipe
Ġf t
Ġas pect
Ġ2 34
201 9
style s
Ġref resh
From Table
gz tar
cu it
ĠPost greSQL
ĠSparse Array
* :
L L
Ġl xml
loc ate
Ġpy asn
Ġne g
Ġsh lex
Get s
Ġmulti part
C ATION
R AT
Ġi r
Ġre use
mo ji
ĠR andom
Ġgener ating
>\ <
Ġbutton s
DIRECT ORY
b ra
rom ote
ĠP et
ĠV ista
min utes
Ġdis k
process ing
node list
bit map
Ġhow ever
RC LE
Ġdescri bing
(': ')<
Init ial
w itch
in ite
Ġc ancel
lin ked
ĠL azy
group er
Ar chive
Ġlin ked
ĠText IO
ĠTh us
quoted String
typ ical
V ideo
extern ally
Ġcalcul ated
ĠQu otedString
ĠNormalized Name
l u
Ġw alker
up caseTokens
Ġex tent
ma ker
ĠS y
py p
pro vided
Ġme ant
ĠB LOCK
Text IO
Ġpost Parse
Ġreason s
ĠOR M
Multiple Match
Caseless Keyword
BY TE
ĠC ho
00 2
Ġpro duction
Ġexp lan
top left
ĠAdd ress
medi ate
ĠSkip To
raphe ne
U sed
b rowser
e g
ĠT IME
ĠS RCALPHA
to bytes
est yle
Ġassert Surface
Ex p
cur se
ick ness
Col group
my py
XX X
Ġspace Characters
Ġkw arg
Ġmemory view
Ġapply ing
Ġmime type
ĠassertSurface Filled
G AC
Ñ Į
ut er
ys ical
]) ]<
pi v
db g
Ġ". ".
vari ance
19 2
Ġquot ing
GAC Y
' \\
Ġ( ),
-------- ---<
Ġde velop
Sp inner
b idden
c api
r ink
ĠA void
ĠN B
Ġwh y
"] )
Ġsy nc
Ġinter p
Ġsubclass ing
embed ding
T k
l as
ol l
-------- --<
Ġde mo
ste ad
cat s
ĠSup port
Ġs ay
Ġw ide
ans ion
Ġread s
âĶ Ģ
ĠSystem Exit
" [
. ',
in vert
al ance
Ġc ent
ĠE M
join s
ĠV AR
ific ant
Ġra ising
Ġear ly
pyp irc
B SD
me moized
ĠA ppend
Ġ3 5
`` )
Ġkey file
ĠCo mple
ĠUn iversal
Ġexec uting
Ġlay ers
lr u
ĠFormat Control
> .+?
F x
P R
e tags
as freq
Ġas cending
pre fetch
ib ilities
[' _
Ġdist ingu
Col lect
tz name
Ġdec ide
D on
l gdal
w kt
Ġc le
Ġn args
ĠA AA
In line
reg ular
ne trc
Ġ201 7
diag onal
Ġretrie ve
SECU RE
lips is
K R
å ¤
in ates
(" ~
ĠL A
Di rect
Ġnecess arily
war ded
RAT IO
9 3
g m
Ġp th
ge s
li hood
ĠS R
ĠF ollowedBy
Ġ3 3
Ġcol lis
Ġobj s
Ġunpack er
Ġfresh ness
Ġtrun c
B RE
c ryptography
Ġy s
ĠL atin
In cremental
with in
ref resh
=[ ],<
Ġstruct ured
sym metric
Lookup Error
^^^^ ^^^^
al ready
}< /
ĠOr der
Ġlin ewidth
Ġpack rat
m v
Ġt ilt
Ġas n
Ġcomp type
Ġgener ally
cre ation
Ġident ical
Ġalp has
Installed Distribution
Ġ question
Ġa way
ĠP atch
sc roll
======== ====
pop ulate
TR AS
Ro bot
Ġtrust ed
G NU
T YP
c x
as ure
as pect
ĠS V
pre cedence
Ġtrans ition
nom ials
' },
. )
ã ĥ
qu otes
os ition
rel ate
document ation
Basic Auth
W A
ol ding
Ġsub sequent
EN ER
Class ifier
Whe n
Li cense
BUIL D
ĠUP DATE
Ġd rive
Ġme trics
if ted
rag ged
Ġpoly gon
Ġcorrespon ds
Ġdifference s
Ġvert ices
definit ion
Ġrea ched
è ®
Ġc ha
od ate
et ter
In formation
Ġout files
DE LETE
ne arest
Ġtrans formation
ble m
66 66
gramm ing
M askedArray
f old
å Ĭ
Ġre ject
Ġf ake
out dated
ag ainst
ĠIn stead
Pre fix
div mod
Ġpla ces
Spec ify
('- ',
Ġ(? :
m ut
or ten
Ġc i
Ġas s
id le
}. {
Sign ature
Ġdeclar ation
ĠRemovedIn Django
5 3
Ġ# ################################
Ġdi alog
ator y
ĠB ar
ĠG L
char det
COM MENT
T U
x A
at least
Ġdi ctionaries
Ġar row
fil tered
return ing
Ġsear ched
H ost
M ULTI
S ide
in her
Ġe nsures
Ġco v
(' "
[' __
Name List
open er
skip if
Ġtree builder
Call Back
At tr
Ġsaf ely
ĠContain er
T r
Ġre raise
url patterns
args pec
ĠH as
Ġany where
the me
Check er
Ġ^ <
I Python
M M
has hed
Ġhash er
ĠSet s
IDE NTIFIER
ĠOverride s
" [\
r aries
de termine
get frame
to pt
ag raph
Ġen force
ĠIn line
Ġus able
web driver
(', ')<
= ':
> .
L PAREN
y label
á ´
Ġtest ed
Ġse curity
Ġpre pend
Ġat trib
pa res
start ing
stra ined
Ġback tracking
compat ibilities
Ġzip import
Ġsend ing
âĶ ĥ
8 3
T abs
f ingerprint
Ġf ar
is ode
Ġv i
Ġle ad
ang ulation
SSL Get
(". "):<
align ed
decl ar
x fail
Ġc x
Ġf reque
ĠW erkzeug
RI BU
Ġupdate s
CF Dictionary
Ġbel ong
. '),<
f ake
r split
s imilar
ra ble
Ġ1 20
Ġkey board
ĠB ig
ĠLi censed
PE G
Ġinsert Before
Ġprop agate
Ge topt
Ġhold s
Ġpotent ially
SK IP
COOK IE
a al
un ary
from keys
Ġsub scri
pad ding
Fe ed
f r
ĠF ill
ĠE num
vert ical
prefix len
stribu te
ĠNormal ize
encoder info
Ġtrun cate
! --
I mplementation
h aps
s cores
Ġp ow
ĠC lose
Ġx x
AN UM
ĠTest Case
EX TRAS
Ġsite s
Open Key
Ġtrack er
ĠBu ffer
ĠAss ume
} ]
Î º
ĠL ast
tra ction
Version Error
velo pe
ĠÐ ¿
. \
Z IP
ĠA lias
ho p
Ġmake file
Ġmode s
Ġtrans formed
fail ures
component Type
Ġassume s
Ġsilent ly
bet ween
Ġt di
Ġc ircle
Ġs chedule
Ġas suming
ĠA uto
AT TR
As Str
Ġturn s
Ob servable
ĠConfiguration Error
] ]))<
l and
Ġm ixer
ĠM ore
tra st
Ġ'' ).
Ġconvert To
any array
IT Y
system Id
public Id
rac kets
O B
i os
| %
ĠS ame
Ġ3 9
ĠE nd
ĠE vent
gg ers
Ġl ittle
TI LS
MA IL
OPEN SSL
: ]:<
O p
P atch
Z eroOrMore
se g
st acked
ro me
Ġs cheduler
DE C
78 9
Ġlin alg
Ġke pt
) `
I Resource
ex tended
Error Stop
ĠF ont
word Chars
Ġnew self
Ġsy n
Ġcolle cted
Ġbyte code
Ġ) ?<
ĠSt andard
Ġconstruct ing
5678 12345678
Ġentire ly
Ġexprs Found
' -
} (
} ',
de tail
Ġs aving
fo c
Ġle af
mo ck
po ssibly
mpl er
pos able
new line
Ġtrans fer
skip ping
Up per
ABC Meta
>`_ .<
Ġtransl ated
riend ly
e ach
h ouse
in tent
In dent
post release
Wh ite
poly morphic
ĠExtra ctor
W ARE
_ \.
s urrogate
from roots
-------------------------------- ----------------
process EndTag
alp n
Ġmodi fication
Ġspe ll
Ġrepe tition
Ġart ist
> ).
se nce
le af
Ġre ly
Ġde clared
Ġan imation
ĠM ixin
Ġstring End
Ġstring Start
ĠPath Metadata
ĠDis play
ĠSer ial
Ro le
Ġcertificate s
) ",<
ĠC hebyshev
Ġnew Parent
Ġarg v
ten ance
istr ation
Image Plugin
Ġcomb ination
ĠÎ ±
serial ization
Ġmultip rocessing
Ġstride s
Ġhour s
Ġfla ke
G IN
] /
_ *
s ilent
lin ed
Ġpre p
by ref
ĠDistutils Arg
+) \
Ġdecl are
LANG UAGE
ĠDistutilsArg Error
h ints
de limited
Ġre p
Ġp sycopg
Ġs oc
el low
ĠS how
ĠĠĠĠĠĠĠĠĠĠĠĠĠĠĠĠ ĠĠĠĠĠĠĠĠĠĠĠĠĠĠĠĠĠĠĠĠĠĠĠĠĠĠĠĠ
Ġel lipse
ĠU SER
ST ATE
SS AGE
process SpaceCharacters
DO UT
original Phase
dat as
Ġmk path
Ġps util
Ġsli ces
LIN K
Ġdistingu ish
8 00
C N
get E
ĠC ar
ĠP hase
Ġma fi
cs idl
shape s
Ġcor pus
cor outine
Ġtri p
thread ing
Ġinterface s
User s
Ht tp
Ġqui te
P ipe
h ard
Ġin tent
Ġin dependent
Ġm ix
ĠA ttribute
tra ining
pri ority
ĠRes ult
Ġtre ew
c python
in str
ĠC SV
Ġde lim
Ġde sign
form field
In tegr
Ġsub dir
Ġright s
Ġindent ation
Ġequal ity
) ',<
a co
m igration
Ġs im
ce il
la pack
ĠRequirement Set
Ġdrop ped
MAN IFEST
PLA CE
Calcul ator
g cc
m peg
ur able
Ġ( *
() ',
append Child
check ing
Ġdis car
Ġopen er
Install ationError
Pool Error
Ġtre es
GA AT
D ump
æ ĺ
di ctionary
ĠS ci
ĠO pt
mat mul
ĠPar sedVersion
Do main
DIST RIBU
Ġsym links
Ġintegr ation
Ġsq lite
D en
P ower
r upt
Ġ atexit
Ġre ach
Ġm ysql
Ġis o
Ġu int
ĠC A
Ġat omic
ST O
Ġany way
ĠJ ava
100 00
clip board
ĠExtension Array
ĠInit ialize
Ġpie ces
ĠExtractor Error
D rop
un parse
ĠU ses
ĠV AL
Ġloc ate
Ġsub ok
Token izer
Ġtri ed
SD K
Tool bar
Ġinterpre ted
esc Char
optim izer
ATCATC GAAT
ATCATCGAAT GGA
A b
d ash
ĠRe lease
MA C
Ġnd iter
Ġbuffer ing
lex ible
Ġ25 4
Ġsym link
button s
Count Equal
Ġ---------------------------------------------------------------- --<
Ġoptim izer
REQUI REMENT
PASS WORD
' ",
o pe
r ub
s low
ä ½
Ġcon sumed
ĠD ST
Ġma ster
Ġmatch er
Ġcount ing
ĠSQL ite
Control Adapter
ĠDis able
SETT INGS
piv ot
/ ?
C md
M Q
] }<
on s
Ġ' '))<
Ġr pm
In voke
Ġpre di
Ġsub command
") ).
Text For
Ġalign ed
ad b
De tector
Ġauth ority
FILE S
Ġapplic ations
} `
Ġf fi
Ġp df
Ġo dd
con crete
Ġres ample
pre ferred
Ġtoken ize
") ))<
Ġinter section
BO OL
Ġorigin ally
ĠPr int
F i
_ [
` ."""<
w kb
Ġ# ----------------------------------------------------------------
Ġcon tiguous
ys cale
Con dition
abc de
200 9
Ġmention ed
. ]])<
C ipher
h alf
t ight
Ġd r
Ġpackage Name
Ġoper ate
UT O
ĠHTTP HeaderDict
Ġlanguage s
Mo dified
Ġoccur rence
assign ment
2 13
__ ')<
Ġnot ice
pro du
ĠU sage
Ġsub type
Ġdoc strings
Ġwas n
ĠOption Parser
Specifier Set
CRE T
Obj C
macos x
DISTRIBU TION
Ġre fe
Ġn est
Ġ' ..
ĠP ut
sc al
ĠDe pendency
Ġhost s
Pre pare
App Author
Ġcomb inations
Ġgot ten
Ġbind ings
Ġroll back
arb age
O racle
Ġ" @
Ġex posed
sp h
mo oth
ĠN UM
Ġsc rap
Ġcache able
Ġmis match
Ġretrie ved
Ġupd ating
CUL ATOR
? :
x or
å ®
Ġin cre
out files
[" _
face color
over load
vari ate
Ġob serv
An chor
MAN Y
* "
A rea
Ġre li
Ġp join
nt h
Ġof ten
ma cro
St orage
sh utdown
HTTP ConnectionPool
TYP ICAL
I ABLE
\ "
Ġthe ta
ad ding
ic ious
reg istered
Ġexp anded
Ġsome times
comple ted
Ðµ ÑĢ
ĠRead TimeoutError
cu ssion
My SQL
Ġatt ack
Ġ }}
te am
la ps
Set ting
Set tings
ĠSet uptools
EL LOW
('. ')
Ġaccept able
Ġrot ation
âĸĳâĸĳ âĸĳâĸĳ
ĠVer ify
Gra mmar
g ge
in s
Ġs s
Ġac cum
Ġcache s
Ġtemp orarily
+) ?
Ġfragment s
Ġcoord s
conver ted
HTTPS Connection
applic able
N ONE
re store
an ity
un less
ĠRe quired
char acters
scheme s
executable s
tick er
Ġplay list
Ġinterpre t
M ID
de construct
le y
ut coffset
en u
Ġal ter
ll ab
Ġ4 9
Ġsp an
Ġdrop na
cmp key
hain Map
Ġmultip ly
override s
. ::<
S ys
g ain
s ible
Ġdef erred
Ġr ate
am in
Ġpro c
Ġma ker
DE TE
Ġlog ged
print ables
Ġexec utor
Ġunpack ing
DIR S
ÐµÐ ¼
) (\
m ing
de ploy
an on
qu eries
par ation
file object
Ġch art
ĠIn sert
net mask
Ġsite dirs
complete Read
Ġsel enium
W idth
] [-
x i
x FFFF
__ ``
el s
ĠE N
ĠM ask
Ġkey chain
Ġpy openssl
Ġhead ing
ĠLo ck
IP V
ĠendTag Table
pk gs
sym links
CallBack s
, %
S parse
d j
g ing
Ġ ri
Ġre cv
== =<
RE SS
end ian
Ġwork around
Ġtimeout s
AS K
Ass ign
ĠAut hentication
CULATOR OPTIONS
7 00
A lias
c ity
re construct
st roke
ĠS ection
ĠM erge
Ġfind s
rt ol
Ġspecific ally
ba seline
Ġtransform s
D river
J K
b roken
Ġb lend
ĠC SS
Ġlist ing
Ġne ither
err SSL
log o
FO UND
ĠUnicode DecodeError
Inter active
Ġserialize Element
) ``.<
O US
g if
in i
Ġre cursion
De termine
Ġdecor ated
Ġsuccess ful
ĠDate Time
Ġcoe f
SUFFIX ES
p an
at omic
__ ")<
res olution
pat ches
Ġattemp ted
Register Message
ĠEasy Install
B ool
i h
Ġc nt
Ġp acket
Ġn bytes
Ġb om
Ġbe hind
key chain
ĠA b
join ed
PRE TER
USER S
('/ ')<
Mark up
" ``
å Ľ
Ġn v
ver ified
Ġde construct
), ]<
ry ption
ĠRe mote
ĠN S
Ġpre ference
lic ies
Ġ"< %
Ġtra ditional
Ġ'_ ')<
ĠPRO TOCOL
Ġarc name
appro x
$ <
> `<
M ust
d T
in ches
Ġre wind
__ )
ra in
Ġco unted
Ġde signed
am t
Ġme t
pack rat
Ġver ification
~~~~~~~~ ~~~~
Ġplace holder
Ġtrack ing
CL AS
tod ay
6 2
= (<
P D
P attern
c red
m iddle
s b
re ject
de velop
il low
th ree
Ġtag Str
ES C
ĠNO QA
Ġchars AsStr
Ġabs path
ĠPyPI RCCommand
Ġconstru ction
Ġtele gram
Struct ure
SES SION
C mp
v min
>> >
Ġvalid ators
pass wd
ĠJ ython
Ġve ctors
VC InstallDir
B C
Ġch anging
has attr
Ġ201 0
SER VER
Process Error
ĠRange Index
SIG N
gge red
C ert
ä º
Ġp asses
Ġcon j
ĠF ree
ĠA xis
Ġy anked
Ġj ac
ĠCon verting
Ġsp inner
Ġport ion
Int errupt
ĠData Loss
soli d
H ashes
in Head
st or
Ġe cho
ss lobj
el ap
Ġun escape
space Characters
rc data
Ġprocess SpaceCharacters
Ġpoly nomials
ĠGEOS Geometry
Active FormattingElements
ĠDataLoss Warning
] _
nd o
Ġsh own
Ġ200 6
! ".
E mail
s ses
Ġa mp
Ġd ash
Ġcon firm
Ġg t
Ġj o
be havior
Distribution s
LI MIT
Ġdatabase s
ĠApp ly
Sup port
E valuator
H i
P ixel
W orld
\ ']
m itive
Ñ ĩ
lo gs
ra m
ĠE poch
ĠW RITE
Ġsign ificant
(?: [^
elap sed
] .<
è ¡
pro cessed
gn or
.... ....
S andbox
i mmutable
al ong
-------- <
ĠI de
to gether
ĠN T
Key board
rv a
crypt o
Ġmar ked
Ġb old
Ġis dir
Ġde pendent
Ġst ores
AL LED
new s
Field s
Ġwrap ping
('. ',
Ġcustom ize
Per form
Ġobtain ed
Ġinterest ed
Temporary File
* =\
G DAL
h df
on gs
Ġe c
ra ft
Ġ3 01
Ġcl uster
Ġpre process
act or
Ġob s
Ġ': '
. /
ro d
Ġpro j
ĠRe set
Ġx f
ĠB ASE
Ġapp dirs
ak s
Ġ200 1
PO OL
Ġip address
Foreign Key
Ġalg os
W ID
k top
æ ł
Ġin fix
ot hesis
Ġr llab
Ġse ns
try Parse
ĠTree Walker
ĠPri vate
ĠCalcul ate
Calculator Options
s li
in ess
Ġt ransport
as String
art ic
Ex port
Ġax s
Par sing
Ġcur ve
EN TRY
Ġ'< %
ĠAl ready
MO VE
Ġcomplete ly
Ġdot s
black list
ĠDownload Progress
Fil ters
Ġtw ice
* (\
B UND
E MP
L et
a de
def er
Ġin ference
Ġb b
Ġw ays
Ġan aly
Ġan alog
ER Y
po ssible
parse Action
ĠR atio
Ġend er
]) )
mag ing
Ġedit ables
So ftware
Ġ" ))<
str icted
ĠF oreign
ĠB utton
ĠG NUTYPE
Ġno se
keep dims
tar ball
cell aneous
Ġdes cending
S l
z oom
Ġf low
Ġ' >
ort ho
ĠI DE
ĠD ummy
Ġun specified
mb cs
Pro vide
table name
vis ual
(% (
assertRaises Regex
Ge om
HAND LE
ĠMAX SIZE
, ),<
p key
tri gger
": "
AR D
)) *
AB I
Ġoriginal TextFor
Ġsession s
Ġsw ig
lev ation
C I
T z
u ck
Ġs in
ĠE valuate
ĠV ari
CH AT
Ġthere fore
Ġshape s
Py PI
ĠIP V
Ġdistro s
Ġupper case
Exec ute
ABC DEF
wind ll
` :<
Ð ķ
Ġin dented
Ġ[ *
value d
mb o
sub scribe
long double
phanum eric
NE CT
Normalized Name
C M
S pe
Ġ rid
ar ith
Ġre init
Ġd om
Ġ" &
im ated
Ġpr inted
Ġj np
su ggest
find iter
[^> ]+
' (\
F ace
h ot
i info
j ob
tr un
Ġ: ]
pro tected
AR M
Comp onent
Ðµ Ð½
Ut ilities
Pri vate
h orizontal
Ġ gs
le tes
un signed
Ġj s
Ġoper and
Ġver ifies
exec utor
Ġ'{ {
ĠFe ed
ĠCharSet Prober
Ġexplan ation
E mbed
Ġ urlencode
re ed
Ġn di
def erred
ĠD B
ĠU CS
RE L
Ġwork ers
ĠPy Py
ĠVersion Conflict
Ġq t
OS Error
ĠstartTag Html
No Value
ĠText File
msvc compiler
edit ables
Ġsig ma
: ')<
ta rea
Ġat tached
stri ction
Ġpoint ing
conv olve
Ġmanage ment
Ġtransp arent
? ://
F S
O O
o ked
y o
Ġse mant
Ġhas n
Ġsupport ing
Ġbo ard
\. ?
ĠPre pare
trie ve
W E
st able
ĠI MP
cur r
Named Types
6 1
ge ometric
pre ference
buf size
('/ ')
ARCH IVE
[ ~
re raise
Ġf lip
ĠBase Exception
ĠAd min
STAT US
Ġ" `
Ġ" |
Ġ[ %
Ġco lour
ĠCon straint
su c
match er
Se par
Map per
ĠCF Index
fft n
Range Field
ĠQt Core
Imp ossible
[... ]
! "<
B box
d dof
f wd
l g
y ste
Ġw ritable
Ġm ixin
Ġcheck sum
do g
Ġ"" ).
Ġerr check
Ġstd in
stru cted
ĠOver flowError
ĠNaN s
hidden imports
Ordered Set
in p
ĠO F
ĠH ost
python path
)) )
+) *
ĠSub classes
ĠIN ST
Ġflatten ed
Ġcir cuit
a ul
h its
k ill
Î ¸
li gn
Ġ( {}
Ġco s
find ers
ph oto
EX IST
ffi c
cookie jar
Ġclean ed
Ed it
Ġndi mage
se m
in x
(" :",
Ġy max
files yste
decode d
Ġfilter ing
Ġsql types
imp licit
Ð¸ Ð
Ġ limited
me ans
he m
get filesyste
el lipse
ĠS NI
url split
Ġx max
ĠU rl
Ġun ix
RE SET
Ġcomp ared
Context Analysis
IC E
âĸ Ħ
Ġrece iver
ĠSocket Error
getfilesyste men
L D
ar gest
co eff
um ath
not ify
Ġdis cussion
ref ul
over write
multi index
Ġ", ".
Ġ-------------------------------- ----------------
)- (?
STAT IC
Resolution Error
CLAS SES
getfilesystemen coding
( "",
F lags
g a
li ms
ĠW KT
build s
Ġback port
og r
Ġconver ters
Group Prober
ĠLe gend
ĠQuery Set
Ġ'â Ĺ
Ġvert ical
illi seconds
G ER
_ (<
b en
c xx
Ġre pla
il on
ĠT k
Ġ5 03
nc ies
gn u
Ġbound aries
Ġreport ing
Ġindic ated
Ġcer ts
+ \
G MENT
T ake
ĠW HEEL
cre ating
Ġaccess or
Ġshow s
Ġref ers
rac ket
TA G
REQU EST
UNI CODE
trun cate
F older
S te
n v
u c
in cluded
re use
ce d
ste mp
doc test
Ġsize of
FF ER
bound ing
ĠName d
Ġturn ed
Ġeffect s
d c
re ncy
Ġc map
(" +
Ġcon catenate
Ġcur s
Ġte arDown
Ġform field
Ġpl an
Header Error
Th an
prop agate
ĠFe ature
ĠHead ers
XY Z
Ġsoc kets
B o
Ġre load
Ġs ur
as i
Ġw ants
ra di
Ġ""" ,<
con sumed
ĠS c
ĠP unctuation
ca y
The re
allow s
Ġleft most
change log
resolve d
Ġ25 3
Ġimplicit ly
Ġeas ily
a ffine
h r
Ġt unnel
al phabet
ing Set
un escape
nc aps
Ġimp ro
Console Output
semb le
9 1
C iphers
Y ear
t m
Ġf f
Ġs un
list ener
ĠRe f
ĠU t
add itional
ne ver
COM MA
Ġpur pose
t ist
ur lap
Ġs caled
Ġb c
ĠF ancy
pre dict
ĠM ost
instance s
Ġover flow
Ca pture
Ġmi di
at tach
Ġn aming
Ġ' **
Ġ" ;
Ġu m
size of
Ġla uncher
mark s
Ġsee ms
Ġraw mode
Windows SdkDir
quent ial
8 22
l ings
r ant
ĠL E
index ing
Sec Certificate
factor ing
Ġnumer ical
? ?
Ġe lapsed
ĠI maging
() """<
Ġst e
Ġy min
ĠM ongo
ST DOUT
insert Comment
ĠSt ack
ĠST ART
Ut ility
v ary
er ance
Ġp id
el f
Ġh dr
assert Not
Ġun safe
Ġcheck point
script Data
ĠĠĠĠĠĠĠĠĠĠĠĠĠĠĠĠĠĠĠĠĠĠĠĠĠĠĠĠĠĠĠĠ ĠĠĠĠĠĠĠĠĠĠĠĠĠĠĠ
Ġinner HTML
Ġexpi red
'' '
ĠBack wards
C ounter
k a
r st
ro gram
Ġis file
man agers
Ġevent ually
na v
Ġpick led
F ore
r find
Ġn m
Ġ# ###
Ġ( ['
Ġfile ids
ĠO f
ĠRe ference
Ġsup pressed
ci dent
DO T
QU ERY
separ ator
âľ ĵ
- ]+)
p fx
å Ń
Ġ2 9
Ġmax len
ĠPy Qt
clean ed
alle st
Ġmove s
Ġrespect ively
4 1
r ational
or ious
Ġn om
Ġhe llo
ref lect
open api
Ġmo ment
bin aries
Not ation
CF TypeRef
Ġnan oseconds
Ġd ri
Ġh ierarchy
ĠC or
Ġal gorithms
Ġsub st
Co ord
mask s
DO CTYPE
ĠÎ ¼
ĠArray Like
ĠSpec ify
ĠSh ort
Ġbecome s
Escape s
z lib
Ġt ile
:< /
Ġre mo
Ġd ashes
sub dtype
') ")<
reg ion
Ġ7 2
mis match
Dir s
Ġconnect ing
diffe rent
Ġ"> ":
TRAN S
WID TH
mbo lic
i di
p unctuation
__ }
Ġm m
str ong
ad er
rect angle
Ġnon c
regex p
(". ",
Normal ize
Ġqual ity
micro seconds
Ġhi dex
CMS Error
æ į
ab ot
ĠS Y
Ġsc roll
Ġallow ing
ĠJ oin
Ġge nshi
Pa lette
ĠNet work
l ut
Ġ ~~~~~~~~~~~~~~~~
Ġa mt
ra dd
ab ling
ĠC ount
ĠO ur
Ġcert file
Ġjoin ing
Ġxml charref
dy namic
ĠCI RCLE
I gnor
e ars
o ms
Ġ KEY
re String
Ġi val
as List
Ġ' ;
li ded
Ġlo t
ĠE ither
parse Element
ĠPar ameter
LE AN
TI VE
stream lined
Ġret String
skip Ignor
Pre Parse
Whitespace Escapes
Ġprop ag
>""" (
Fe ature
Ġleave Whitespace
esc Quote
Binary IO
Caseless Literal
ĠCaseless Literal
Std Handle
skipIgnor ables
I con
Ġ â
Ġt ls
Ġc la
ib lings
dist info
cur ve
EN G
Ġbyte string
ĠBLOCK SIZE
b tn
al ter
id ing
Ġlo ops
form data
Ġan alysis
Ġg d
ĠL oose
ĠB est
us able
mod al
ĠVersion Control
Ġclip board
ĠInd ic
re m
ct an
Ġw atch
ra pe
cl er
es sel
Ġh orizontal
() ``.<
ist ers
Ġpro du
ĠM any
Ġl at
Ġun bound
ĠG it
ST AMP
build ing
Ġ"< =":
gra ms
gra dient
RO P
ĠCommand Args
ĠApp lication
Ġfree ze
Ob soletes
Ġ"> =":
ĠMat plotlib
Ġ"! =":
Ġtreew alker
S OR
U AL
f info
l ations
m icrosoft
w orld
x m
Ġ ë
ch r
ise s
Ġres ize
Ġmo ving
project s
Gener ates
ĠLoose Version
> ..
B ind
i mplement
x ied
Ġc ipher
Ġc iphers
lo pe
`` """<
ĠW indow
sub commands
ick le
Ġ7 0
gin es
200 2
canonical ize
125 2
Ġ"== ":
/ ><
r r
de precate
ro le
Ġg rp
ac quire
ump rod
Ġca used
55 5
Ġgroup by
BU FFER
auto escape
clause s
ĠAB I
Ġmk dir
Cor pus
( \.
V isual
} ",
Ï ĩ
at om
ĠI NT
ari adb
Version String
Ġwork er
Candidate s
Ġsignal s
Ġgreen let
amb iguous
# :
R AN
b id
Ġ" ("
ĠS trip
() '.<
Ġsub plot
ĠCon v
ĠCon verter
Ġover riding
temp name
Ġattr name
ĠUnicode Error
Ġcontrol s
Ġ123 45678
6 86
D LE
U TILS
e ggs
y ond
Ġ ):
Ġa a
Ġ' !
un stack
Ġex haust
ha z
color key
34 5
cap ital
7 3
A vailable
u mented
y stick
Ġf ront
Ġf olders
nt ity
ra ster
Ġu name
ial i
assert Select
Ġ6 00
Ġwrap pers
Gener al
SUPP ORT
REQUI RED
% %
P RI
l k
p res
Ġ Ñģ
Ġs olver
from txt
Ġpy py
cache s
wa v
]) ),
Pre pares
Ġ'* .
Argument Parser
ĠJava Script
âľĵ âľĵ
D WORD
H istory
O DS
] ]])<
w elcome
(' *
ĠF FT
Ex ternal
(( (
~~ ~<
ĠKey board
Trans action
Ġpe ople
abcdef gh
çĶ ¨
B IG
L im
c lic
Ġt up
Ġ( .
ĠT urn
ĠI E
ĠU UID
ĠB ackend
ĠPar am
To Win
Ġview keys
dis connect
Ġes sent
cer n
Up dates
Ġ25 2
dimension s
ĠInitial ise
" (\
T wo
j obs
Ġe ager
Ġw rites
() [:
Ġset ter
ĠB ound
Ġad v
ĠR oot
db l
cause s
rel u
Ġbuf size
Ġtri ggered
Man ifest
Ġob servable
:`~ .
Ġactiv ated
ĠMark up
A AB
E MAIL
l tro
s chedule
in tegers
Ġs ized
Ġs range
ĠE mail
if rame
dist map
Version Conflict
Parse Next
select able
ident Chars
ĠApp Dirs
Ġgot s
("' %
ĠTree Builder
DETE CT
ltro id
( "")<
* ([
F lask
n r
n oscript
re me
ile nce
Ġr value
Ġfile no
Ġme nu
ĠM IN
pla ys
DE V
ne cess
ĠDe lete
stack level
IP v
force list
PL AT
Ġpol l
Ġestab lished
+( \.\
haz mat
) [:
/ "<
F ixed
â ł
å º
di alog
is subclass
Ġde tector
RE PLACE
Frame works
ĠĠĠĠĠĠĠĠĠĠĠĠĠĠĠĠĠĠĠĠĠĠĠĠĠĠĠĠĠĠĠĠ ĠĠĠĠĠĠĠĠĠĠĠ
FF T
hash able
aut oreset
ALP H
ĠProxy Scheme
Datetime Index
Auto Field
ĠLay er
Ġbi as
i red
m f
z z
ĠD DL
ĠIn secure
Ġsub plots
ĠDi rectory
UN PACK
box plot
Ġdocument s
ĠMulti ByteCharSetProber
BLACK LIST
ENG INE
L C
o ck
Î »
Ġm x
ass oc
Ġv ocab
ĠF unc
sp ital
Ġload ers
Qu otes
ĠWAR NING
ãģĪ ãģĪ
> -<
C G
M ouse
Z ONE
c ipher
p ag
Ġf lask
it z
as cript
(' ;
#### ##<
Lo ok
Ġgroup ing
now led
uri ous
Le ft
mar ize
A UTO
d ers
æ Ī
Ġt ex
Ġs rs
Ġs cores
ĠB it
AT AB
"] ).
To One
ug ate
Ġcho sen
Ġve c
ĠTemp orary
ĠStat ic
Let ters
C LASS
f g
s un
Ġ utc
lo od
---- ---<
ĠH A
Ġcomp utation
ME DI
ĠCF Array
ATAB ASE
l legal
n os
in verse
li fied
ĠC hainMap
Ġpro cesses
Ġhave n
Ġdatetime s
work er
gh i
Ġannot ation
ĠFun ctions
Mat rix
p asses
ã Ģ
se cut
self Closing
an imation
Ġin coming
Ġis olation
up ted
(' {
pro gram
ĠR ule
struct ure
Ġcolor map
ĠURL Fetch
ten acity
Create With
xxxx xxxx
Random State
e ig
ì Ŀ
Ġ ),
de tach
ch apter
ch oose
tr l
Ġst ick
vi ation
Ġx min
ac cur
Ġobject ive
ine se
pa ste
ME SSAGE
state machine
ĠCallable Operator
mk stemp
ĠLink Error
cut s
ĠCON FIG
unset color
ĠInfinity Type
ĠNegativeInfinity Type
ãģĦ ãģĦ
" ><
S heet
S trict
w ap
Ġin secure
__ .<
Ġ1 80
ĠF ic
ĠW KB
coding statemachine
Lo gin
av ascript
AS N
non ymous
cert ifi
Ġspecific ations
Func Factory
Ġquot ation
ĠSign al
F lag
k ubernetes
n ltk
w ide
ã Ĥ
Ġ âĢ
ar ithmetic
Ġb us
rect s
Ġbrowser s
n rows
r partition
u ght
Ġp ools
name list
ol ate
Ġcon sume
Ġ% %
Ġlist en
AR GET
Ġj inja
iv ot
Request Error
Ġstyle s
Multi ByteCharSetProber
Const ants
Î¿ Ïħ
(.* )")<
R T
_ ))<
ch al
Ġy y
Ġpre processor
SE CRET
ĠFor ce
Ġ200 9
={ <
Stream Handler
ĠApp le
Ġshort er
Ġcomparison s
Ġplugin s
rec array
Main tenance
Maintenance Form
A P
B lue
N N
r um
re aded
ve ctors
set surface
ĠF ast
Ġtest Serializer
color bar
itle ts
Ġtmp loc
ĠPre paredRequest
second ary
Ġtrim med
unset surface
Ġmechanis m
9 80
a ined
f ollow
ĠF red
Ġy md
ĠE XT
ĠL ag
Ġdo ct
mit ian
finit ion
ĠMax imum
Mat ched
Program Files
FLO AT
b order
f etched
g ray
Ġn x
ex ports
Ġan on
ĠN L
DE D
Ġsh utdown
Ġ'. ',
mod s
ĠÐ ²
null s
CAL CULATOROPTIONS
Ġtransp ose
" #
ar ding
Ġde ad
sing ular
ST Y
nc ing
ĠCo okie
Ġ"< ":
Or Series
let ion
igh ted
Ġlook ahead
Ġprepare r
ĠEX TENSION
ĠWrap per
arsh al
, (
G ot
l xml
s cheduler
ap ing
Ġout going
load txt
Base d
Ġmin imal
Module Type
handle s
Object Identifier
aut os
Ġexpi re
ĠDec orator
F ix
ct rl
Ġs re
Ġm im
get root
ĠM O
ĠL et
default Namespace
Ġchar Stack
Ġ"< {
Parse Exception
Ġinfo setFilter
Get StdHandle
Ġsave point
ignore EndTag
([[ [
Ġob served
Sec Identity
Ġsend s
rot ation
Ġclo ser
Ðķ Ð
assertSelect s
F REQ
U CS
f get
t qdm
Ã ¡
Ġf g
Ġf id
Ġl p
ps y
ME TA
LE GACY
sh uffle
Ġprocess or
Ġsign atures
200 6
Sp line
Ġdecor ate
ceed s
Ġex am
all ery
~~ <
Ġbreak s
Man age
Ġshow ing
Head ers
Ġra di
ĠSer ializer
HTTPS Handler
ĠUnpack er
secut ive
STY LE
L IC
d ta
Ġas ked
path lib
Ġ` -
ump ys
Ġca reful
32 4
Ġcurrent Node
Ġexp ansion
\. (\
Sec Keychain
("- ",
ĠPoly gon
Ġunders cores
) ['
3 02
6 00
F requency
] """<
Ġs light
ot s
is link
ĠS cheme
vi a
Ġse g
Ġ3 03
([ ("
Ġl ab
': '
group ing
Ġsu cc
Ġ"% (
Wheel Cache
conflict ing
ĠGraphQL Field
Ġconvent ion
R F
Ġn c
Ġ' ='
set color
(" #
Ġde tail
qual name
back track
De pendency
lower case
Ġback slash
pop item
foo bar
Ġqu eries
pri me
ĠCh at
Ġge o
Ġ~ /.
merge d
s ctype
ue st
to dense
Ġstr ong
ap shot
pre load
col lation
ĠU np
loc ated
ĠB U
De v
trans ition
project ion
âĢ Ŀ
Ġautomat ic
Ġserial ization
ĠUnsupported VersionError
Su ite
Core Foundation
des cent
READ ME
PYTHON PATH
CL U
Ne ed
Mis match
Parsing Error
abcdefgh ij
8 2
W ITH
s ax
le ading
Ġe m
nd ar
(" ==
Ġco erc
Re set
ĠM ain
default Value
return String
mon itor
Ġ'- ',
Ġcorrespon d
take while
Fill ConsoleOutput
* $",
. ,<
> ~~~~~~~~~~~~~~~~
C lear
D ummy
P G
b mp
at ol
-- -
ype d
from string
() ``,
ĠV C
ft p
Ġover lapping
=[ <
top level
Ġclient s
Ġref lection
ATI VE
kl m
------------------------------------------------ ---------<
( .
al phanums
Ġb ba
ĠT H
ĠT EXT
Ġ[ ])
ĠA gg
Ġg id
sp line
init CharsOrig
Ġthis col
ĠM ultiple
ĠU NI
Ġnew loc
ĠIn tegr
op Assoc
TE GER
html Entity
Ġignore Expr
Ġnamed Items
Ġskip result
Chars NotIn
Ġrest ype
jo int
ALI ZE
white Chars
ĠPass word
Distutils PlatformError
Grammar Exception
deploy ment
asString List
Sl ashComment
Ġdoct ag
htmlEntity Map
S PACE
` """<
a ver
c ffi
x fe
å ¼
me mo
Ġo pp
Ġ1 01
Ġcon troller
ĠS DL
Ġv string
Ġ: ])<
sp acing
Ġser vers
De code
): ]<
iv ity
Ġqu it
]+ \
Ġsearch ing
Format Error
coord inates
IM AL
D est
J ANG
L ower
a mpling
b rid
p u
st reet
lat er
base dir
DE N
new axis
mark down
sy ntax
\\ [
EX CEP
Ġbyte order
77 7
Ġ'| '
Ġannot ations
Ġsq rt
Pip Error
) }"<
7 1
W KT
f b
n args
Ġa i
__ ),
Ġstr ategies
Ġ: :<
py o
Ġch mod
CH INE
EN ABLE
Ġsee m
Ġdir ty
Ġcomple ted
fact ories
CON ST
Iter ate
ĠApp Config
ĠMo ve
Environment Name
ĠContent Type
ĠLegacy Specifier
break s
E xt
` )<
Ð ´
at ched
Ġf k
Ġf ingerprint
Ġw orld
ĠG ra
Ġdist inct
ition ally
no st
Ġmin ute
content types
Ġmodi fier
############ ###<
Ġinvoke s
Ġsemant ics
C losed
P ub
d ns
re present
Ġc as
Ġc ircular
pe ated
Ġd l
ĠS chema
ĠP RE
Ġst roke
Ġg arbage
Ġ4 5
Pro ject
Ġpa ste
AN N
length s
Ġq r
bl k
sig ma
into ptions
ĠConnection Error
ĠCre ated
p added
Ġas y
ĠC lasses
ime nsion
Ġst oring
am ount
00 5
ĠN eeded
Ġ[' *.
internal s
Un iversal
trans fer
MA CHINE
BO T
(?: \
ĠSer vice
Ġside s
1 50
C ent
p romote
Ġre used
Ġ" ?
Version Control
âĸ ĵ
domain s
VAL UES
Ġnull able
Ġ199 7
Ġcr ash
JANG O
) ``,
C ms
E K
] '))<
w rites
Ġ ><
ser vers
(" ("
Ġal most
.. /
SE NT
Ġtext ure
sum er
Multi Dict
Ġmultip lication
Ġba seline
Collect or
Ġrepla cing
' ;
Ġc b
an ion
ĠF req
ĠN orm
assert CountEqual
Ġproject ion
GG ER
Ġpop ulated
}' ".
Ġmedi an
> ~~~~~~~~~~~~
L st
se gments
Ġm al
(' [
ĠEx it
Ġsu do
ĠRes olver
Ġ', '<
Sp rite
Cre dentials
Ġart ists
P tr
W x
x istent
Ġc d
Ġp acked
Ġe fficient
ĠS HA
che mas
Ġst able
sp matrix
om it
FI L
ĠendTag Ignore
Help Formatter
ĠMat rix
J apanese
O ps
v w
Ġre m
pt ic
ĠC P
ĠM is
no logo
Ġ(' ',
write able
Ġbin aries
Ġ201 5
ĠCy gwin
Ġnom ask
psy copg
m ariadb
ar ns
Ġb ulk
Ġh int
con tact
Ġg lyph
ĠB oth
Ġhe uristic
ĠCh annel
ĠEn code
Copy right
Cursor Position
N ORM
W rit
h uman
æ Ĺ
ut ime
Ġ" (%
assert Regex
no ise
ĠEx cel
SI VE
De vice
direct ives
]+ [
Ġthem selves
Ġaut oreset
ĠKe ys
Ġbuff ers
ĠLegend re
C ircle
m utable
t v
ch ors
Ġ0 1
ca pture
`` )<
Con f
ĠH ook
Ġz s
app dirs
Ġsh allow
Ġinter vals
pool manager
QU E
Ġcomb ining
expand ing
cons ist
Lay er
) $')<
C LO
C ATED
g y
i ctypes
s af
æ ī
Ġa nt
ar bitrary
ar ctan
ri age
Re ce
url join
"] ])<
12 0
TT ON
Ġ-- <
math ml
ĠQ ueue
Be gin
dy lib
Skip ping
Ġaccur ate
> ])<
F INAL
V IDE
f compiler
Ġc mp
an o
Ġ( :
per team
Ġme tric
Ġos name
ac ific
(( -
inter sect
Ġthere of
oper ands
Ġsepar ately
ĠPack er
periment al
Ġmafi abot
W KB
_ ]*
re build
Ġa u
Ġc um
Ġin clusive
Ġm utation
Ġex clusions
ĠP andas
unt yped
Ġno ise
row count
Un ix
Ġextract ing
Ġpop ulate
Ġdump s
Ġ'+ ',
ADDR Z
I FF
T ools
a e
v stack
ĠP h
Ġpre paration
Ġcol no
split drive
check er
Ġbo ok
LA G
Ġ', '.
Config uration
Ġclose Tag
Mo ve
ĠTemplate SyntaxError
ĠLib Error
Ġ({} )
B atch
} !".
Ġn gettext
`` ).<
index ed
add resses
pl anes
Ġequal s
User Warning
Exec utor
Ġmis matches
Ġ} }<
Ġcollect or
Screen Buffer
OpenKey Ex
" ;
" },<
) ])
h ift
Ġc amera
Ġf ic
Ġin sp
ut ter
(" @
Ġcon caten
ĠS ample
(' __
ĠF etch
ub ic
Ġdata frame
Ġac cident
File Finder
=[ ]
Not Implemented
Ġpkg util
={ })<
INTER PRETER
ĠCategorical Dtype
MS G
Byte CharSet
Ġpers on
Toml Encoder
ĠCOM MENT
contin ue
s kew
Ġfor warded
ĠS W
Ġg one
Ġcheck er
no p
') .<
Ġdel attr
ĠDE LETE
fail s
ĠÐ ½
ĠConfig Parser
Ġknow s
cap s
rece iver
Ġkivy md
Ġ" ["
Ġ( ):<
ĠT oo
Ġth ickness
(' [^
Ġ: :
per manent
Ġl dflags
su er
Ġdoc utils
RO W
Comp at
VE D
ĠCF TypeRef
('/ ',
how to
Ġxml rpc
ĠSpec ific
tre es
recognized Format
BRE W
F ree
G U
g rouped
u dent
de scribe
Ġ' ^
ri k
ma pp
ĠS ET
ns uring
sp in
Ġ4 04
Ġ[[ [
ĠÐ º
ĠUnix CCompiler
Console ScreenBuffer
EXP ORT
uz zy
âł Ģ
a z
Ġp ag
Ġin compatibilities
Ġl t
Ġread line
AN Y
ĠImage Cms
ĠInstall ationCandidate
Exec ution
ARE D
ä¸ ª
Ġrot ate
P open
Ġc ity
Ġ" :"
ĠR o
Ġsource code
sl ug
Ġag reement
CRE ATE
Ġintegr al
Ġscal ing
DateTime Field
) ``<
M enu
w rong
Ġin tention
Ġ# ###<
Ġm gr
Ġm illiseconds
Ġh olding
pre ds
Ġl w
back off
tree builders
IO Loop
Text Attribute
buffer ing
ĠAdd itionally
Ġrect s
Ġexpect ing
>} .<
intern et
a decimal
d m
st ata
le arn
Ġpro ber
IN CRE
Ġro ute
sub modules
SI DE
)) ])<
Un expected
Ġsign ing
Ġpython com
ĠWhe re
stack trace
connect or
>""" )<
Ob tain
ĠPos itive
ConsoleScreenBuffer Info
/ ",
9 4
e E
s dl
ul ong
un i
Ġlo st
vi olation
Ġso ft
app lies
Ġopen Tag
Ġman agers
23 4
Ġnd min
BU F
cookie lib
Ġvar name
Ġembed ding
Run ning
rout ine
* )?
C FAllocator
L AT
Z ERO
_ ',
s im
ĠS CHEME
able String
Ġst amp
Ġx i
ĠB etter
Ġ[' --
Me mory
Requirement s
RA PPER
UP DATE
tic le
Ġinstant iate
Poly gon
fonts ize
ĠForeign Key
ĠKeyboard Interrupt
' ."""<
> [\
T UR
c umprod
g allery
r upted
w as
x B
Ð ²
se ss
Ġw t
ĠF our
ĠB IG
Ġat tention
run c
ĠUn less
http bin
IO Base
Ġsurface s
aut henticate
mk dtemp
Int rospection
Ġdetermin ing
Ġblue print
ĠExp licit
a ffected
c rc
read lines
ber band
Ġab ort
opt parse
we akref
Me dia
ome tries
Ġhelp ers
ĠAPI s
Ġpick ling
redu ction
bc def
BL UE
tot ypes
Supported Error
ĠCFString Ref
, \
A pi
C UT
W ould
x b
Î ¬
de mo
le ts
Ġh its
Ġv list
pr intoptions
ĠB ox
mb css
by e
Ġcheck out
nc u
") :
Frame set
Ġstream ing
Ġed itor
={ !
HE BREW
}} ',<
âķ ±
Ġagg regate
Ġweek day
ĠSocket Timeout
ãģĨ ãģĨ
ĠAccept s
ĠFred rik
mbcss m
B M
y ou
mp lo
Ġw sgi
con strained
Ġbe yond
ĠF OR
ĠU nder
lic ing
tra it
tra verse
Ġchar List
Ġsp acing
Ġqu ant
Ġreason able
âĶ Ī
Ġ"* "
Ġinstant iation
Cre ating
gl fw
############ ##<
Ġut coffset
disc ard
O W
R FC
f ers
Ġ ur
co ped
get refcount
ĠRe cursive
ĠM E
ĠL und
Ġpre dict
format ting
64 0
char List
Ġqu antile
GE OM
Ġkeep ing
+) \.(\
ĠGraph Q
Ġalternative s
Ġdat atype
'[ +-]?\
Ġplat lib
hand shake
micro second
EU CKR
( """
N oscript
S ound
S RCALPHA
T erminal
in ay
st ab
Ġf oot
Ġp list
Ġin consistent
ĠT ags
py cache
text s
([ ["
Ġad apted
St ub
Ġmodule Factory
To Table
insert FromTable
Ġnormal ization
Ġlookup Encoding
Regex Lexer
Ġweb encodings
Stack ToTable
ĠRead Error
Child Nodes
hist ogram
itu ations
herm ite
Raw text
Foreign Attributes
('# ',
FRA ME
Clip board
Ġquick ly
Ġfreque ncies
ĠLag uerre
G rid
H our
R untimeWarning
f ps
f lask
Ġre ports
Ġe g
Ġin s
Ġd ont
ĠS ER
que t
ns pkg
arn ed
IN SERT
ts hift
Ġsome one
cale ndar
BASE NAME
Ġenter ing
ĠFancy Getopt
C om
W ill
d umb
le gram
he at
Ġin clusion
ul let
ĠS ort
ction Error
Ġ` /
Ġcol lapse
Ex porter
add Handler
Ġ5 6
Ġlink ing
{} .
ĠInter face
Ġtool bar
Ġpers istent
Î¼ Îµ
ĠLund h
C Y
b ands
in tel
is finite
un iversal
ĠS im
form set
ĠG REEN
place s
Ġvari ance
Ġact s
14 7
hentic ated
Î± Î¹
' ',
- ]*
Ġa ware
ct ree
pr inter
ĠU SE
Ġcomp lain
log ged
static files
Ġsecond ary
! \
C ategory
to string
Ġk SecTrustResult
Ġne arest
Lo gs
ph i
Info Extractor
cc um
Ġauto escape
ĠRE QU
ĠIN SERT
Protocol Version
Ġadmin istr
utor ial
bre w
ĠScript Writer
ĠNorm ally
re ater
ur t
def ects
Ġw inter
ul ative
th row
date util
ĠN E
Ġun parsed
Ġun iform
"] ),<
Ġup gra
Ġwhen ever
doc tests
disp os
Ġ{} ).
ĠComp are
METH ODS
Agg regate
Ġdelay ed
BUND LE
nowled ged
C y
] -
k o
de tected
ĠC SI
ĠA ccess
Ġar m
Ġme et
ĠM UST
ĠB roken
Ġ5 5
Ġsuper class
Ġdis crete
Ġstat istics
io dic
ĠJ inja
Ġcom types
Ġconstruct s
ĠCreate s
ĠPip Option
Ġ19 2
eof s
vw xyz
# ]*
, ):<
R SA
Ġre distribution
Ġin k
ad vance
list AllMatches
Ġpar agraph
ore an
ign ored
De finition
Ġmat ter
En able
c losing
x pr
} _
Ġs ituations
con tour
ĠF ixed
Ġma il
Ġremove s
Un it
Ġ"" :<
RI TY
ĠJ upyter
ĠDict Cache
Ġpost gres
Ġgo al
Ġtimezone s
Ġserial izers
={} ".
crt ver
Egg InfoDistribution
Integr ation
B AD
U ltroid
Z one
i ator
t iff
Ġe nsuring
Ġb r
li ptic
(" `
Ġdi ms
Ġde dent
ST RE
SE EK
Ġcomple tions
ĠComp iler
ĠPre vious
ĠIN DEX
ĠField s
Entry Point
ĠMoved Module
ĠAS N
ĠDirect Url
in side
Ġc ss
Ġin direct
Ġex ports
Ġstr ftime
() ],
assert In
Ġun able
Ġ. -
Test er
ĠParse FatalException
abc d
ĠSe cond
nam ically
Ġrecursive ly
ĠNew Type
Ġsuggest ed
ĠOb servable
oh n
Ġconsist ency
abcdefghij klm
B acked
F ER
P NG
S cale
V I
a h
| [
Ġf rontend
Ġm colors
Ġ( #
Ġg rpc
sp am
Ke ys
cert file
termin es
exclude s
Ġbegin s
ital ic
numer ictypes
peer cert
Ġtrunc ated
scal ars
* ',
G ame
T D
Ð ŀ
Ø §
Ġ# ################
co vered
un ity
Ġres idual
ĠL en
Ġprint ing
Ġsh orten
sign als
ĠInvalid Header
Add s
ĠMo ck
("/ ",
ĠInput State
ĠFrame OrSeries
Ġface color
Pip Session
Ġredu nd
A IN
r mul
ä ¿
å ĩ
Ġre duction
Ġc ategorical
qu ant
ĠD ESC
Ġwe ak
ent ropy
IN DEX
Ġtra itlets
sol ution
Ġhex adecimal
tool kit
Download ing
ĠSR ID
Ġcollis ions
Interactive Shell
ĠIDE NTIFIER
T ORY
i add
w ildcard
res pect
ĠĠĠĠĠĠĠĠĠĠĠĠĠĠĠĠ ĠĠĠĠĠĠĠĠĠĠĠĠĠĠĠĠĠĠĠĠĠĠĠĠĠĠĠĠĠ
ĠO ld
use cols
Token List
ren dered
fetch one
ĠFile List
ï¼ ļ
Download ProgressBar
ĠAL L
! ')<
C DATA
N PY
P lace
| <
re ncing
Ġc rit
Ġ[ ["
to uch
Ġde comp
Ġget p
DE SC
Ġte ardown
Ġsp am
Ġmin imize
Time Error
Ġwrite able
Ġcookie lib
Be havior
NE W
Ġmk dtemp
kivy md
abcdefghijklm nop
' \.
1 80
A E
M ix
z ma
ĠT HE
Ġse c
Ġclass name
Ġj upyter
Ġwin inst
ob server
Ġref lect
ĠConfig OptionParser
Ġexecutable s
Extension s
ä¸ Ģ
ĠMSVC Compiler
âĶĢ âĶĢ
coeff s
INCRE MENT
F inal
J oin
h p
re pla
Ġe mitted
Ġb ands
(' @
key ring
ĠF actory
art z
ĠV iew
Ġuse cols
ash ion
Ġnet mask
ĠAs sert
bi as
qr stu
avigation Toolbar
ffic ult
Folder Path
! )<
> %
b k
re mainder
Ġa ux
Ġin finity
as of
fi d
ex ist
od d
Ġ` '
Pro to
ĠDi ffe
return code
gen fromtxt
Ġtri angular
ĠEXT RA
qrstu vwxyz
O IN
b ars
k its
de limiter
te ctions
Ġb rotli
__ }<
ĠP DF
Ġ` $
Ġr ational
ns fw
), )<
qual ity
qual ified
quest ions
im izer
ps util
Ġk v
stream s
Ġbl k
SecTrust Ref
Ġeigen values
ĠNL TK
C EL
M erge
P K
] ":<
d up
p assed
p unc
Î Ń
in et
re dist
Ġb pp
co ders
int rospection
IN S
Ġdate util
doc info
Base Specifier
Ġ'% (
cor relate
Dis able
(". ".
Ġest imate
Ġcs idl
ĠSu ccess
ĠAuth Info
Ġass ump
3 64
Ġf ashion
Ġw ire
Ġ' ':<
ow ns
Ġspec s
pa st
16 8
GE O
ls dk
Ġref lected
COL ORS
POSI TORY
A udio
F ollowedBy
T G
c StyleComment
e verything
n levels
rom an
', ),<
and atory
Re quired
Re nderer
ca seless
Ġloc n
RE POSITORY
bo unded
Ġcall PreParse
Ġ"" ,<
ĠParse Error
({ })<
Ca ption
tmp nam
Ġgra d
>` _<
With Tabs
CUR SOR
H IG
u f
u ix
å Į
Ġc alc
age n
Con troller
lic ated
fe male
ST EM
Ġ"- "
Ġgraph ql
stub s
" (?
M ag
m x
Ġi llegal
(" ;
Ġcon secutive
ĠF allback
am mit
Ġg raphene
Ġun ary
process ors
Get FolderPath
Ġ20 48
Ġpat ched
Ġest im
He re
Ġrc Params
Ġslight ly
Ġredund ant
> ################
Ġ# ####
lo v
__ ).
(" </
Re nder
ĠC OL
ĠG UI
ĠH istory
state file
print able
Oper ators
Te am
Ġph i
ĠLO G
Ġupd ater
D H
W W
de termin
Ġe agers
ame l
Ġw kb
qu ared
Ġ` __
ĠRe port
Ġfun cs
default dict
cmd line
Ġrel ations
SD L
Ð¾Ð ²
Toml Preserve
.' ''<
Ġunders core
Manifest s
ByteCharSet Model
T otal
] .__
c amera
s get
ar p
Ġre strict
Ġm utable
Ġ" ..
fi xtures
Ġex ceeded
Ġh or
ĠA re
Ġr an
ĠE ng
Ġpre sence
Ġun pick
Ġcur ses
Ġsy mbolic
sol ver
current ly
ĠSec ret
ĠSe lection
Ġ201 4
fetch all
ĠSo up
ĠSub version
âķ Ĳ
unic orn
D TYPE
b alance
m ts
s set
v Mac
in er
al ty
Ġp ng
od bc
ĠA ct
Ġar ity
ord ers
Ġle aving
ĠB B
Ġbu cket
Ġreq Mac
egg dir
poly val
Pool Manager
()`` )"""<
ĠDatetime Array
duplic ated
Ġ'â £
RES ULT
Ġautos ummary
nost ic
FIL TER
ĠFour ier
abcdefghijklmnop qrstuvwxyz
D ash
L anguage
t ig
v olume
ĠP ort
pa use
Ġsub directories
ĠCommand Handler
QU O
Ġtitle s
Group List
Ġ25 1
Meta Data
Ġmut ate
ĠSV G
* )
> ##<
H ome
P ress
T CP
z fill
Ġ xt
Ġ -----------------------------------------------------------------------------<
Ġf dst
Ġ# !
Ġdef ects
od b
ĠP EM
Ġ3 04
im ization
app able
SE D
Ġsh ifted
Ġ". ",
ĠPro vide
Comp are
CA LE
19 70
Dis position
rat ic
Ġfix up
Ġmp math
Ġtask s
Ġaccur acy
D ATABASE
s ized
Ġp idx
Ġin vert
---- <
min ator
Parse Mode
Ġlength s
ĠCall s
ali ased
Model Admin
Ent ries
Ġregex p
Enum Value
annot ate
Ġmi rror
Ġinherit ance
ĠDATE TIME
surrogate escape
capital ize
" +
S can
U CT
c book
s atis
ct ime
as cending
ĠA nonymous
Ġst ar
sp icious
Ġy ears
AT URE
iv ation
Ġhash able
abstract property
Literal s
Ġprevent s
free ze
Ġnat ural
ĠSc alar
m map
se gment
de que
Ġn rows
an n
Ġal t
ind s
comp osite
Ġat om
Ex ists
ĠR untimeWarning
St udio
Ġdis pose
author ization
CS RF
Ġpad y
Ġdownload ing
Retry ing
Ġsa mpling
foot er
Ġrespon sible
Program Data
NotImplemented Error
" '<
f resh
n ulp
p color
Ġ ;
Ġcon crete
to ctree
ĠF oo
ta iled
Ġse nsitive
Ġread only
Ġstream s
State Error
Ġsingle ton
Ġconnect or
Ġduplic ated
ĠResolution Error
æĺ ¯
] ._
in voke
at ar
Ġre directed
ĠO ri
group dict
Ġser ve
Base Spatial
fil t
ĠHTTP ConnectionPool
insert Text
env var
signed integer
Ġhyp he
ĠLen gth
re wind
Ġc gi
ur ize
Ġcon tour
ĠE F
ĠE ncaps
Ġloc ked
OR K
"] ),
SE CON
TI CAL
Ġver tex
skip ped
OP TIONAL
VE LOP
Ġhigh light
Ġdat as
ĠWith out
startTag Html
Ġtensor flow
Ġsuc ceeded
æį ®
DLE WARE
! #
F LAG
S P
h old
Ð Ĳ
)< /
he ses
Ġc type
as gi
---- -
is k
un lock
Ġcon form
Re st
out going
parse Impl
:// ",
Ġ6 55
Ġsh rink
Ġtag ged
hash lib
Ġident ities
und ers
Ġplace d
Ġbind ing
Pa ir
ĠWork s
saf ety
m r
o i
Ġp wd
fi gsize
qu x
Ġu nt
ms i
ĠL exer
Ġwhe nce
raw mode
Ġinter sect
are ncy
Ġdoc tests
\\ .
ĠPy gments
mon de
ĠGet ting
pat t
null able
comb ining
ander monde
G lobal
L P
_ :<
or a
path set
ĠC RE
ĠC ython
Ġan ce
ĠG tk
mat vec
place holder
Ġsub directory
Ġsub tract
Ġend ian
Ġsp litext
nan oseconds
ĠPy test
Pre vious
Pre ferences
chat s
CON F
BO O
1234 56
Tra versal
ivers ity
ĠSE CU
Ïĥ Î·
J OR
g rpc
g lyph
Ġi x
Ġs anitize
Ġ_ (
Ġdi vide
to pology
vi al
Con verts
De legate
zip File
MA JOR
Ġtri ggers
Ġstandard s
mul x
Ġappropriate ly
Temp Directory
Ġauthor ization
={} ,
Requests CookieJar
ĠNORM AL
ĠVari ables
repla cer
D lg
h ack
æ µ
é ĩ
at s
ĠP ixel
age s
Ġelse where
load ers
pa que
Ġz oom
su itable
Ġimp lied
ĠRequest Methods
22 2
ðŁ ĺ
war ding
Ġqui et
ĠBad Command
ĠConnect TimeoutError
Ġtechn ically
Allow ed
h atch
Ġi ma
he mat
Ġ" ,<
Ġ- .
Ġdi ffer
(' ^
Ġr p
== <
Ġca file
ĠR GBA
sh im
Ġforce d
Ġsimple json
show warning
sym link
Ġdy lib
9999 99
Ġdiff ers
Ġpub lish
FRA GMENT
quot ing
B r
j upyter
Ġp ivot
Ġb p
Ġm usic
ĠS aj
ĠP lot
to c
Ġun necess
Ġloc s
Ġiter ables
Get ConsoleScreenBufferInfo
Ġ9 4
PY OPENSSL
IS UAL
Des cr
85 1
Ġ123 45
WAR N
Ġnor med
pie ces
ĠMon day
' +
) ["
B H
Ġ( __
Ġex plo
code d
Ġsub modules
Ġsub stitution
check first
raw Stream
process Characters
element Tree
ĠHTTP Connection
Col umns
Ġprocess Comment
ĠJ PEG
Ġ9 6
LI KE
ret val
Ġplot ting
Ġascii Letters
INST ALLED
Ġcontrib utor
ĠGDAL Exception
RAW TEXT
reconstruct ActiveFormattingElements
ĠProxyScheme Unsupported
âĸĵ âĸĵ
Integration Point
) ]:<
C SS
I X
P ush
d ont
m os
x data
é Ľ
ul ator
ĠC SR
ĠA p
Ġl ut
ĠV is
ĠV inay
Ġab bre
update s
TE S
ĠTest ing
stack overflow
+) $",
cut off
Cur ve
Ġred acted
Figure Canvas
Ġhyp othesis
ĠSIG INT
Ġwor ked
Ġcle ared
Ġdiscar ded
ĠSaj ip
O c
U ntil
b right
f la
r path
Ï İ
Ġ è
Ġc python
Ġget pass
Ġun installed
ĠV cs
IN ET
ĠR PAREN
cache control
Ġ7 89
Ġenvironment s
Ġbin ascii
ĠRes olve
ĠImage Palette
ĠCF Data
Ġaccording ly
ro aming
pt p
Ġex clusive
ĠC om
res ume
ĠG ot
mb charsetprober
Ġsub stit
Ġte am
char distribution
Ġpart ially
LO bject
ĠBase SSLError
cho red
Ġwait ing
SER VED
timezone s
origin s
HTTPS ConnectionPool
mime type
ĠStat us
MATCH ER
F ROM
c j
} },
in coming
Ġex poses
Ġg ap
Ġpro bers
index ers
curs ors
ĠJ an
Data set
Ġfin ite
Ġfin ished
Dis posable
Tra cker
Ġdy namically
('_ ')<
Ġadjust ed
Cre ated
Ġpure lib
Ġub nd
- (?
E s
n bytes
y brid
{ %
is py
ch anging
Re ason
Ġg iving
out ines
head s
cond itional
UN CT
Ġli ve
Ġmain ly
cro ll
Ġbad ly
Enum Key
Ġdigest s
Ġpred s
Comple x
ĠPet erson
Ġimpro ve
9 00
? [
M utation
sel y
def late
Ġ# ~
url conf
Ġg it
Ġ`` [
dist lib
sub s
Ġdirect ives
ran ches
pl an
LA Y
Ġcons ists
Ġcustom ized
ĠDo ctype
ĠCON NECT
Ġtr uth
Change d
EU CTW
solid us
alphabet ic
ĠEng lish
* '
/ __
F ONT
I FI
g am
r il
Ã §
å į
ï ½
Ġt type
Ġb row
key map
Ġde nom
ĠL abs
comp type
Ġcol lided
AT TRI
Ġ> .<
[: ],
Ġend points
Ġav g
ĠNot SupportedError
_( *
ĠParse Expression
ĠCan not
Ðµ ÑĤ
ĠHel p
ĠPost GIS
DEC IMAL
! "
) |
C String
S JIS
f ront
m and
s ld
x html
Ð ¿
Ġf etched
Ġs ld
it ers
str ate
is subdtype
ĠT EST
ĠP A
Ġst acked
ext fileobj
link path
Ġexp orted
Ar tist
\\ \
contain ing
At Index
pg f
ĠTemplate DoesNotExist
He ight
ĠURI s
Sy mbol
b ulk
Ġi i
un y
un named
Ġar ithmetic
Ġel t
comp uted
prec ations
ĠHTTP Adapter
the st
DIST ANCE
APP S
ĠGeometry Field
INSTALL ER
ĠSSLContext Ref
CLU DE
? ")<
l led
Ä ±
de tector
Ġs anity
th Distributions
Ġres hape
DE PRE
EN TI
ĠDe tect
Ġjoin s
long opt
âĶ ³
12345 12345
abcde abcde
DETECT ING
bcdef bcdef
' >
) (?
B K
C RI
Ġ ],
re ctions
ame nt
Ġ# ##<
Ġ" )"<
Ġby groups
gg able
Ex c
Ġover written
og us
Ġour selves
mon key
App ly
Keyword s
ĠOpen API
Lazy Descr
Run ner
into sh
ĠInteger Field
SetConsole CursorPosition
Ġguarante ed
Ġeffective ly
foc us
factoring Tool
A ES
F Compiler
G REEN
L ite
N umpy
[ %
re structured
Ġs z
ri ch
() ``<
ĠB O
ĠUn iversity
fn match
Al g
ĠendTag Html
FC LASS
ĠMe dia
ĠReg ression
SA FE
Ġpers ist
ĠEL F
Tz Info
ATTRI BU
M IME
] "),<
Ġb ogus
Ġdef inite
__ `
Ġto ggle
Ġ: -
Ġme asure
Ġpre ss
ĠPython s
man ual
Ġover head
][ +-]?\
ĠDistribution NotFound
Ser vices
ob served
Ġsum mer
Ð° Ð½
Ġparticular ly
serial ized
ĠWheel Cache
expi re
ĠLocation ParseError
Ġden se
ĠCar riage
EMP TY
uny code
. ),
s id
in arily
st re
Ġs pect
ĠS ize
Ġu crtver
Ġpy c
Ġun ified
Ġca ption
cache able
Pro duce
Ġ() ))<
Ġident ified
ven ient
=[" \']
BU TTON
Al most
ĠHash Mismatch
52 80
Axis Error
ĠLib raries
pie ce
Ġ36 00
autos cale
$ %
$ \
+ \.\
C ATE
ç ½
Ġm t
get Name
Ġex pose
ĠE DIT
ĠN at
fig ures
Ġurl parts
ĠEx clude
arch itecture
Ġ6 125
Ġ/ <
open id
si ded
gin ary
ĠPro gress
dev null
Ġwidth s
dis k
255 19
('/ '):<
Document s
Ġinv ocation
AG AIN
OFF SET
Ġspell ings
Cmp Key
' '.
f atal
Ġw orth
ss ql
Ġ1 50
class ifier
Ġu ow
Ġpro d
red acted
In tel
=" #
ĠG o
Ġ4 05
ph one
bin omial
The se
DI V
Ġform set
cent roid
Py Access
Ġclose st
Ġord inarily
ĠFI RST
Ġtermin ating
access or
Net Fx
TLS Protocol
hi dex
Ġtransl ations
lon gest
cas cade
Ġsdk dir
= .
L inux
W T
e ither
Ġdef er
Ġ== ================================================================
([ ]))<
Ġun i
Ġun needed
ument ation
Ġsub query
Ġfilter false
ident ifiers
true div
ĠMake file
Ġ30 7
'^ \
STRE AM
* (?
H o
l ps
er ation
al ert
Ġif d
Ġm andatory
ath an
type codes
Ġv rp
ĠP illow
py tz
Ġbu ffered
Un less
Ġexc info
Ġfail ing
velo per
ĠReg Error
Ġ<< =
Qt Core
Ġdeclar ative
Ġscrap ing
restructured text
S hape
d ote
w f
ä ¹
Ġ ÏĥÏĦÎ
in file
al ic
he cked
Ġw erkzeug
ĠT IFF
Ġ% }
ĠRe nder
us ion
EN O
Ġdoc umented
sl ashes
Ġref s
Fun ctions
39 86
gu ide
OB JECT
silent ly
dote nv
/ _
U V
_ ()<
e ven
t ts
x FE
y ellow
Ð ¼
Ġre start
Ġn py
Ġin creasing
fi gs
Ġst ra
dir path
ĠRe present
Ġl atter
ST AR
MP LE
âĸ Ģ
As sert
[[ ],
Ġsli der
ĠAnsi ToWin
Ġgl orious
éĽ Ĩ
Almost Equal
3 000
Z Y
h iding
v a
Ġo id
as ible
(" ^
ĠC ast
(' '.
ĠA SGI
Ġy ork
Ġsup posed
start up
LE ASE
check out
pi log
Ġ'- ')<
Invalid Version
wn am
Ġdecor ators
au gment
Trans late
ĠHel lo
)* (
Den ied
# \
$ "))<
> ################################
e quiv
f number
h h
k de
re start
set err
pre di
oc us
Ġun installation
parse No
Ġclass ifiers
err check
Ġdis content
make Tags
block ing
ĠComp at
Start ing
down caseTokens
secure transport
Ïĥ Îµ
convertTo Integer
Mis matches
Ġcut off
fut ures
ĠCmd Help
STO RE
Ġasy nchronous
Literals Using
parseNo Cache
) }")<
D ig
E ach
E valuate
H idden
K ivy
U ATION
Ġ' ~
Ġ' ...
([ [-
ĠRe fer
Ġvalid ated
save point
active state
------------ ---<
SO CKS
tick labels
Ġclause s
extent s
ĠINST ALL
D JANGO
P UNCT
S ort
r ks
x C
Ġc rop
Ġe ig
ck nowledged
ex clusive
sp r
mm er
comp any
Ġcheck ers
') ],
11 1
ĠJ apanese
âĶ »
Ġbegin line
condition s
Ġsentence s
Vis itor
ãģĤ ãģĤ
âłĢ âłĢ
Mix In
B RIGHT
G ENER
V i
l m
x ls
Ġp aper
__ "):<
li days
ul ating
ad j
Ġco variance
ĠP R
lin estyle
pre t
mo ke
ĠB box
Ġwh l
Ġcontext s
En v
iv ar
Ġcontin uous
Ġitems ize
Link s
:] ):<
ĠConnection Pool
ĠHandle s
ĠCur sor
Ġcycle s
GROUP ING
Ġthink s
effect s
ĠRemote NotFoundError
ĠParam s
! ",
an ned
(" {}
class name
Ġde vices
Ġg ain
ha ves
Ġ4 4
Co erce
ĠCon sume
Ġdis p
File Lines
zip import
Comp ile
Ġ", "
("/ ")<
Ġdebu gger
Ġoptim ized
Ñģ ÑĤ
Ġagg reg
Public Key
orient ation
ĠLim it
sph inx
. '.
1 30
C ha
P op
S ample
m utation
x path
ur b
ĠP romise
im read
RE SERVED
ĠEx ceptions
Ġ| |
Ġdir path
ci pe
Ġsign er
gr nam
ĠGEOS FuncFactory
Legacy Specifier
Ġessent ially
LObject Type
) ").
2 50
3 14
H ER
M AND
W ORK
] },<
_ :
g name
p dist
x E
å ¯
se mi
in omial
Ġn umpys
ge nce
Ġm transforms
un split
set Level
con struction
ĠS un
ca pt
ĠL ABEL
Ġcomp liant
count ries
RI DE
Comp arator
Ġfill ing
ĠNo Return
Ġview values
Ġview items
rag ana
soc kets
Ġcould n
aa aa
RIPT OR
Null Provider
hyper parameters
Ġlb nd
Recursive ly
Ġrefe rencing
ĠDESC RIPTOR
) [::-
D ists
à ¤
Ġ ]:<
in ferred
Ġe li
co lour
Ġdi stribute
(' ~
bu s
Ġr f
__( _
Ġcol on
Con venience
Ġloc ally
add info
Ġro le
Ġhe nce
SE L
Ġiter ated
new bytes
)) ).
sent s
Ġlib dir
Spec ified
bind param
Ġ"/ "<
ĠSome times
Hash Error
Ġful fill
arc name
P N
t ip
Ġ lifetime
in tr
de cay
Ġa io
pt hs
di fy
Re verse
Ġdi fficult
en glish
ic er
Ġma int
Ġindex ed
Ġ5 9
ne th
To Many
si mp
meta var
upper case
ĠName space
ĠMe moized
fic ations
Cre ation
Def ect
Internal Error
tot ype
ĠCRE ATE
N F
T ask
x min
é Ģ
get attribute
ĠS can
). "<
iter ations
AT OM
sub scri
install ing
Ġmax iter
Ġlink age
Ġtri angles
Ġreal m
ä¸ Ń
Rel ated
Pack rat
Ġmim ic
C MP
h dr
u lo
u li
} ",<
de creasing
Ġin file
ser ving
Ġfor get
ch own
ĠI mplements
py mongo
Ġget grnam
os x
Ġpre tend
RE MOVE
Ġcomp osed
Ġno tes
"] ],
") ],<
:// ',
DE ST
stat istics
ĠPro perties
Ġ'' ),
change s
ĠBy tes
chunk size
Ġdec ision
resolve lib
Ġ[] ):<
Metadata Provider
tol erance
bz tar
onal d
ĠFigure Manager
Ġdesc r
ĠSearch Scope
//////////////////////////////// ////////////////
Ġgetp wnam
* ",
. -
S ame
V al
W R
h u
h mac
i map
s ider
Ġf c
te ch
Ġw k
ĠP UT
ĠF all
ĠD WORD
min imize
Ġro les
Ġsub folder
List Filter
Ġsp ans
Ġcor ners
cat alog
RUN TIME
COL ON
tool manager
Sign al
Ġ'\\ '
Ġboot strap
ĠEl se
Ġequ ation
consist ency
I ns
P lot
S ummary
U ns
n itude
s al
er ial
Ġp unctuation
as anyarray
ter ms
init y
comp liant
AT ORS
"] ):<
Ġbuild sys
Ġsome how
ero id
AS H
Ġcmd class
HTTP Exception
Comp ute
bit size
ĠCol lect
uplic ate
lex ers
ĠID s
DIST UTILS
Ed ge
Ġcs rf
Ġscope s
åı ĸ
Ġtab ular
yy yy
Ġ99 9
Ġestab lish
declar ative
âĸĦ âĸĦ
ALIZE D
ĠMis cellaneous
Kivy MD
: \\
t c
w anted
y er
Ġp en
Ġp ts
ad jacent
ĠT otal
ĠS um
ĠC lick
ĠRe direct
ĠN umpy
ĠN othing
Ġpy version
im ately
'] ):<
Ġ(' %
err ing
Path Metadata
scope s
avig ableString
cas perteam
< =
A K
B GR
G zipFile
_ ')<
Ġn arrow
ch k
file ids
00 02
ĠM ouse
ĠL EN
Ġun available
Ġparse All
Ġfail ures
Ġcast s
Ġmulti index
ipy nb
Group er
some thing
Ġfall ing
GRO UND
Ġsm allest
MULTI LINE
ĠREQU I
' ``.<
D el
} %
Ġp c
ro ck
Ġs quares
ra ct
ĠĠĠĠĠĠĠĠĠĠĠĠĠĠĠĠ ĠĠĠĠĠĠĠĠĠĠĠĠĠĠĠĠĠĠĠĠĠĠĠĠĠĠĠĠĠĠ
Ġle ts
ĠO nce
Ġsub classed
Ġdis plays
can ParseNext
Ġ-- -
width s
{} ]
Ġ201 9
pers on
TA GS
Ġpin ned
Construct or
Ġpub lished
Password Hash
ĠExec ute
æĸ ĩ
Ma intainer
Ġinfix Notation
al d
pe t
mp math
Ġm er
Ġpre pended
loc ity
cs r
cmd help
Module s
ale s
Candidate Result
Ġnan ops
ĠAbstract Distribution
Ġfi xtures
Ġbroadcast ing
urlencode d
Ġsv n
Http Response
DOT ALL
" \\
1 10
; ')<
Ġa al
ur ope
Ġin sensitive
IN I
config ured
Ġselect able
Ġndarray s
Up load
ĠResponse Error
87 65
Ġcomm as
ĠRaw ConfigParser
PUNCT UATION
4 56
; ',
` ")<
k m
o led
ge bra
Ġst ale
Ġpro tect
text ure
Ġy err
Ġz file
sent inel
ĠX P
upt odate
post fix
(** {
TIME STAMP
Ġinsert ion
Ġsl ashes
ĠDef ined
ues sed
ĠExpression s
trunc ated
Math ML
("* "):<
Ġconfirm ation
> ))<
> ###
A CT
D id
h ib
i ri
Ï į
å °
Ġ ath
Ġ .__
Ġf air
Ġf reed
Ġu json
ĠP K
to bool
Ġ% {
ĠD IST
Ġme ss
`` :<
ĠB atch
ne ighb
dd l
Invalid RequestError
web p
Ġlimit ation
ALI Z
Ġlate x
ĠTyp ically
12345678 9
Aut hentication
Ġguarante e
Ġt c
Ġin p
Ġd ct
il de
(" .")<
Ġar ches
version control
mo id
Ġpy config
lic ted
make Time
ĠY ELLOW
ĠVersion s
Ġfreq s
Ġcalcul ation
ĠWork er
Ġmechanis ms
Ġ39 86
Ġstra ight
B AR
z f
ŀ ¥
Ġb rackets
Ġm v
um ably
00 7
Ġg ate
ĠO k
col on
Ġk m
Ġiter lists
Ġhelp ful
pare n
ĠHTML InputStream
Dis patch
PO INTER
edge color
surf array
ĠContext ual
IF Y
ELE MENT
getE Tree
Pixel Array
' ")
C ENT
I gnoring
_ `
o v
Ġ[ {
Ġh ot
Ġv olume
Ġcomp utes
Ġca ught
Ġsy nchronous
En code
App Data
ĠUser s
ĠLoc ate
Process or
Ġinv olve
nat ural
Ġsatis fies
ĠSpatial Reference
A cknowledged
K MOD
Ġ ,<
al phanumeric
Ġre ward
Ġf ancy
Ġp fx
te ts
Ġs cen
ate xml
ol ving
Ġex cluding
Ġ3 45
ĠIn formation
Ġne ar
Ġuser data
Base Command
ĠJ on
clear StackToTable
ascii Upper
An not
chunk Offset
ĠCol lection
[^ /
ĠSSL Transport
Tra ceback
ĠCF Dictionary
RC Data
Ġremaining Bytes
Ġadjust ForeignAttributes
sa mpling
Ġqual ified
endTag P
temporary Buffer
Ġmonkey patch
Ġrecogn ize
*: *
>.+? )-(?
Ġnest ing
ih atexml
selfClosing Acknowledged
ĠmoduleFactory Factory
= (-
C V
G reater
R ight
h at
pe ak
Ġ' ))<
Ġ' ==
ma j
Ġstr tobool
pro blem
ic ip
=' ',<
for ge
ĠCo uld
su cc
ĠDe v
tag Format
56 6
ĠOpen ID
Ð° ÑĤ
From Clause
ume xpr
ĠQt Gui
Ġrc data
Ind ic
!!!!!!!! !!!!!!!!
ĠFeed Parser
: ]))<
D uration
Y our
Z MQ
g an
v v
v max
Ġ venv
Ġp ull
el t
par quet
() '.
ĠD rop
ou ght
Ġpro ceed
Ġcol lation
ĠG ame
Ġcor relation
Ġref Node
Al ter
ĠÐ ´
ä¸ º
(", ")
ĠWh ile
Ð¾Ð »
ĠCH AT
heb ang
Mutable Array
aal ine
accur acy
+ ,
A ccum
F MT
M argin
d h
h stack
s d
y outube
ur ations
Ġin stru
Ġw ave
set Text
ĠS S
Ġde precations
Ġ3 60
data structures
In completeRead
Ġun quoted
ĠG ive
'] ),<
fe rer
Ġup stream
files ystem
Context Manager
\. )?
RA G
Ġcons isting
Ġauto commit
Of Data
Ġtermin ated
ĠHTTPS ConnectionPool
Ġdetect s
Ġleave s
ĠEOF Error
Period Index
sli ces
wildcard s
satis fy
ĠLEN GTH
m al
u de
v l
å ¹
or sel
ar able
Ġd d
ch t
get TreeBuilder
Ġv ers
00 000
Ġon error
ite sh
ER IC
Ġk ing
lock s
her ical
Ser ialize
App Config
Ġvis itor
Ġmod ern
Ð¾ ÑĢ
short cuts
mitive s
A nsi
A lign
h ig
Ġf lexible
Ġn u
ge ne
ver lap
() }.<
Ġst ops
put header
pr ints
Ġen closed
OR IG
Ġsub s
datetime like
Ġinit ially
Ġblock ing
the n
cent ral
ish ra
COM MON
Ġhand shake
SHORT CUT
ĠCache ControlAdapter
Ġ199 6
Ġintro duced
Private Key
, ...
. {
D DS
] ><
] ",<
] ].
b es
t bl
v or
y a
} .)<
py win
RE LEASE
oth ers
[: ]+[
Ġparse String
10 5
ess Than
trans Data
cor ner
Ġparsed ate
sql types
ĠAl ternative
}) '<
ĠComp ression
ĠInst alled
Ġmult iline
Ġsubscri ber
Ġcurs ors
nav ig
' (?:
) ==
> ',<
G UI
O VER
R PAREN
V EL
] =
b slash
t ornado
at tention
Ġw a
(' >
py openssl
Ġde tailed
Ġ% .
ĠH itesh
Ġmo vie
Request Field
position al
Ġstrip s
Ġangle s
Success fully
ĠIde al
ĠCSR F
ĠJon athan
' [\
3 01
Ġre ferred
Ġb unch
el ve
Ġdi vided
ĠP IP
per ms
ure au
assert AlmostEqual
fix es
Ġnew est
ĠJ IS
ĠBase Command
Module Test
ĠstartTag Head
execute many
xml rpc
Ġvis ual
commit ted
separ ators
Ġexit ing
rm dir
AG ENT
W arned
[ ,
d um
e agers
s rf
se mantic
in serted
Ġp atches
Ġs pr
Ġin verted
Ġw kt
00 3
Ġma cos
mo ment
head ing
test ed
ĠIn tel
Char DistributionAnalysis
zip ped
At temp
SER TION
STR UCT
Ġinher its
Certificate s
ĠSp ace
ĠProxy Manager
BACK GROUND
74 851
Ġrelationship s
Append er
ObjC LazyModule
ĠDependency Warning
MID DLEWARE
: /
P acific
c gi
Ġn th
Ġe f
Ġm map
ith read
Ġdefault Value
Ġcomp aring
der ivative
Ġcall ables
Ġj edi
Un ary
ĠHTTP Exception
LS B
URL Fetch
ĠRequest Field
free type
works heet
Ġba z
SetConsole TextAttribute
ĠTri e
D one
E UCJP
L BRACKET
h d
nd type
get size
get timeout
ol vers
ĠP E
Con trast
'] })<
Type d
Ġover load
ĠX DG
=[ ],
Install ing
Ġ) [
Ġmod al
Of Line
ĠWH ITE
Ġgui Event
ĠResolution Impossible
ĠEncaps ulates
- ',
/ (?
3 90
N K
W raps
_ ,<
i B
j amin
l c
par s
ĠP ress
(' "')<
py asn
Ġget Logger
Ġ3 7
Ġ`` #
OR ITE
Ġpass ive
sub query
ant iali
]) ),<
Ġdis allowed
ped Socket
sign er
ĠstartTag No
Ġsplit s
ĠK ernel
Tra ck
Exec utable
Ġcomponent Type
CRE AT
(', ')
interface s
Handle s
ĠTarget Python
Ġgreet ing
ĠSetuptools DeprecationWarning
ALPH ANUM
Exists Error
ĠNat ural
T RO
] ?<
æ ŀ
Ġ orm
re ma
de nsity
Ġto day
from s
ĠA ctive
Ġst ray
Ġpre ce
Ġun register
so lete
12 1
** (
Ġsp line
ĠBase Cache
ĠString End
Copy Error
EXT RA
SetConsole Title
margin s
Ġrg ba
ĠLike ly
inher it
ĠÎ¼ Îµ
ĠNetwork ConnectionError
t tf
Ã £
in Alg
Ġp ic
Ġthe me
lo ud
Ġh atch
ĠN avigationToolbar
Ġun registered
Ġat least
Ġcomp osite
Ġpo ss
Ġ(' \
prefix ed
source forge
be g
sum s
ĠHTTP BasicAuth
Ġ... )<
OS Status
Ġ'- '<
CA ST
HTML Page
ĠPre serve
ograph ic
Per mission
irt ual
Could n
tw elve
* ").
; '
D ROP
b lp
e fficient
in creasing
re striction
me try
Ġo set
Ġw anted
class property
ĠA g
pre vent
ta u
ĠD own
out line
Ġset Default
ha red
line Start
default Exception
Ch inese
Set Anchor
Ġoper ating
Ġopt imal
Get Certificate
Ġcert data
ĠCommand Spec
Ġperform s
ĠLink Collector
INE SE
white list
SecTrust SetAnchor
SecTrust GetCertificate
Ġobtain ing
ĠProxy Error
ĠTLS v
Ġmanage d
SSLSet ProtocolVersion
Ġcoerce d
ĠCH INESE
tod o
æķ° æį®
Enabled Ciphers
CFData Get
Cipher Suite
radi ans
Ġ.- .
Vi olation
SecTrustSetAnchor Certificates
/ "
F IN
U D
p ace
| -
Ġf riendly
Ġb ureau
lo sses
Re moving
ĠS ite
ĠC atch
ĠP art
Ġ` (
ĠF il
ĠA LI
ĠM utable
Ġpy win
Ġ4 1
lit tle
:// %
stat istic
Ġexp onential
Ġskip s
Ġproject s
drop out
ĠCON TENT
ĠLine End
Ori gin
Ġmem map
Ġsdk ver
assertNot Equal
8 50
I ID
R ANGE
x D
Ġf x
Ġ[ ]))<
ĠF LAGS
Ġde ploy
fo Cache
inst yle
ĠN ext
ĠB ot
node Type
Ġscript ing
ĠDistutils InternalError
top ics
'\ <
Line End
Categorical Index
ĠSparse Dtype
interpol ation
Ġsaf ety
Ġmicro seconds
ELE MENTS
Fi foCache
! </
( (),
u a
å ½
Ġt au
Ġa pos
Ġn idx
Ġd c
di d
ĠS upported
ĠF lat
ĠA A
line End
Ġl r
Ġmatch obj
num ba
max int
tag Class
lect ric
TH OUS
ĠBase d
imp orted
Ġ30 8
Ġperform ing
ĠData Source
ĠIO Loop
CR TS
Ġut ili
iline ar
ĠUnlike ly
BaseSpatial Field
THOUS AND
CRTS dk
F LI
G TK
M ARK
p ur
v in
Ġof fe
ĠF in
pro cesses
ĠW ITH
String End
vide os
gra ft
Ġ9 7
pol ar
Ġverify ing
Ġord inal
Bu iltins
Ġ} [
js df
ĠOper ation
Ġ'| '.
ĠAL PH
mesh grid
ĠUt ility
Ġgd al
Ġhor se
Ã£ o
* ]|
` "<
c ra
p item
s r
z ily
Ġo auth
ĠT w
(' =
Ġpro xied
gg led
art ley
Ġlist dir
ĠH artley
Ġcomp uting
Ġpo pen
andl ing
Ġrun Tests
var name
Get ting
Ġ9 8765
cast ing
30 3
Ġlin estyle
atal og
ĠSp rite
Unicode Text
Wheel Filename
Over flowError
Ġfur thest
ced ure
ANN EL
/ ))*
B CS
C PU
i mplemented
j ected
l ks
l jsdf
n ghi
s ans
Ð Ŀ
as Keyword
Ġ" >"
Ġnot Chars
Ġnot chars
ase pitem
(" .*
Re port
Re qd
ĠA T
Ġwith Attribute
list ing
Ġst reet
am ble
Ġfrom Token
Ġset Debug
Ġresult list
Ġpre Parse
string End
string Start
pon sor
Ġad j
Ġall Results
Ġmatch Order
default Start
default Success
Ġarg name
Ġj kl
spec ially
Ġiter ating
max Specified
Ġadd to
Ġapp arent
match White
To Column
Parse FatalException
Ġmin Elements
lp ha
Ġremove Quotes
plot ting
Ġopt Elements
ĠNot Any
cre dential
make HTMLTags
Ġtable NameList
Ġexception Action
body CharsOrig
Not Matched
first QuoteChar
Ġcolumn Spec
Ġcolumn NameList
Ġnext CR
Ġnext Level
Ġident Chars
block Statement
the se
Ġ12 101
ĠNo Match
Ġselect Token
last CR
convert WhitespaceEscapes
ĠString Start
No Match
Ġfinal Results
For Framework
Ġsum marize
Ġtmp Reqd
soc sec
:- (?
Ġsimple SQL
Ġverify Col
Ġsuccess Action
Line Start
dk ls
optional NotMatched
Ġreset Cache
Ġnested Expr
Open Tag
ĠBe fore
Ġpat s
)? ').
Ġph rase
utc now
lite ms
dl Name
ĠLine Start
ĠToken Converter
\* (?!
\* (?:[^
Null Token
XML Tags
cpp StyleComment
Close Tag
comm asepitem
unquote Results
AG ON
HTMLE ntity
endQuoteChar Len
Ġrgb Face
CFArray Ref
Part s
quoteChar Len
__' ).__
Ġlocated Expr
"/ \*(?:[^
ĠSingle ByteCharSetModel
kj j
repl Str
Ġobserv ation
dj jf
Ġcounted Array
sb charsetprober
Ġindented Block
parseElement Trace
modal Results
lk kjj
dbl SlashComment
ĠnamedItems Only
Ġaccident ally
ĠRecursive GrammarException
lsdk jf
BOO LOP
Ġwk ref
Accum Names
Ġking dom
defaultException DebugAction
*]| \*(?!
/))* ")
lks djjf
defaultStart DebugAction
defaultSuccess DebugAction
ĠnextLevel Indent
socsec no
"/\*(?:[^ *]|\*(?!
"/\*(?:[^*]|\*(?! /))*")
M ARY
a TT
t abs
å ľ
Ġ* /
Ġlo oked
ĠM od
comp ound
Text Field
round s
SH ARED
Loc ate
Ġdetermin es
dl g
He aTT
attrib s
MI COLON
SY STEM
Spe ech
Cent ral
heat R
HeaTT heatR
" },
: {
U GH
m arily
de scri
Ġb other
Ġw all
__ "
nd s
fi re
ex clusions
(" )").
__( [
comp iling
ĠR ot
write line
Ġ\ .
Ġ'. ')<
Ġ& &
Ġext Lst
Ġreal path
MO USE
dot s
Ġob vious
ĠInvalid Marker
Ġ[- _\.
ĠPeriod Array
Ġtermin ate
Ġclip ped
expi red
Ġgu ard
ĠUndefined Comparison
ĠUndefined EnvironmentName
ĠLog ical
ĠWarning s
_\. ]?
("== ")
("(" ).
Conf licted
kivymd doc
ĠALPH ANUM
Ġ[-_\. ]?<
" ([
+ [
? "<
M aker
s anitize
y namic
ç Ĥ
Ġ æ
re at
de cls
Ġ# ################################################################
__ '<
Ġex if
Ġget list
rap olate
ĠCon verts
ong odb
del t
UN CTYPE
pop left
ĠFile ExistsError
Ġaccept ing
Ġenc rypted
Ġbel ongs
Ġpredi ction
) ::<
R ot
R ed
\ ",
g ca
Ã ³
re strict
Ġo mit
Ġis math
Ġimport able
ĠS I
Ġ* ,<
Ġ. ._
Ġsh uffle
Ġman ual
Ġunder stand
ĠPy CMSError
Ġ... ],
real m
Path Set
Ġfact ors
Ġmost ly
Ġ"{ %
Ġph ysical
("_ ",
contin uous
swap axes
Ġesc aping
________________ ________________
Ġsens ible
ĠâĢ ľ
Ġopp osite
> ================
E nc
S aver
[ ()]
c py
l work
u k
w ho
Ġ# :<
ĠS TO
ĠC LI
Ġ* :
() ;
Ġst y
inst ead
Ġ4 01
") ],
Ġlog its
table space
ĠPro b
Ġ'< <
ĠNote book
13 5
HTML Parser
Match ing
Stat ic
Dist ance
Load s
Ġexpand ing
HA VE
Ġenc losing
des cending
RES SION
unic ate
WA IT
ĠDiffe rent
C lr
D N
T C
T X
T XT
r ature
u ity
x put
z ed
in cluding
an aly
ex istent
Ġnot done
ĠP op
(' &
Ġ3 14
Ġy outube
Ġpre trained
Ġall files
pos al
check box
ari ate
Ġho pe
ĠKey Transform
Ġissue d
ĠPre tty
ĠExtra ctionError
(': ',
ĠEd itable
Ġmanip ulate
Ġtechn ique
c rop
Ð ĺ
in verted
he ss
Ġf ire
ra xis
pro bs
ĠD EP
ĠCheck ing
Tra its
=% (
indi c
ĠRead er
PAR A
tex tarea
Ġevalu ating
Ġeps ilon
inAlg Error
) ]))<
: ]]<
= __
H and
I m
O INT
P ort
U BLE
` ::<
j p
Ġf r
Ġp res
Ġb oo
Ġw elcome
is closed
Ġy data
ĠM ET
time gm
Ġen ables
ust ers
Ġint rospection
part ment
CF Type
Ġsepar ating
SH GetFolderPath
Inter pol
bind s
Bu iltin
TRI ES
Ġscan ning
ĠDO CTYPE
ĠSW IG
PasswordHash er
! =
C LI
P Q
a ix
t an
Â ©
lo oks
co erc
is space
from file
ĠI F
da pt
Qu ick
ĠCall ing
multi variate
For bidden
ĠPackage Index
("- ")<
WHITE LIST
GH I
definit ions
ĠRel ated
Ġcoerc ions
ĠGraphQ LObjectType
3 11
= ")<
b p
j k
w alker
er mitian
ing w
ul y
ad v
ĠT ho
Ġu a
to s
Ġ: ],
() ["
Ġun compressed
01 0
OR ITY
SE P
level no
Ġblock size
PAR SE
ĠBad Request
mult ithread
Bound s
Ġmargin s
embedding s
Ġreli able
æł ĩ
C lean
E AGAIN
S lice
ç Ľ
as ide
ch er
ĠF ake
Ġg cc
Ġpre fers
Ġl c
ĠG PL
ps f
ĠDe code
ĠDist ance
Ġdifferent ly
IG N
ĠExit Stack
Ġupgra ding
ĠPytest Tester
TRO L
8 000
A ct
D eep
H ex
c ube
d atal
Ġa ffected
Ġi ms
Ġn path
Ġ" **
ĠT iff
ex plo
key file
fo ur
lib objc
Ġpro vMac
ĠE GG
ĠU Int
tern ate
Ġne ighb
Ġj na
Ġsu fficient
RL ock
Ġsp l
distribution Impl
Ġ100 00
multi path
require rs
Default Provider
EE E
Ġut ime
Schema Editor
ĠÏĦÎ ·
Zip Manifests
ĠNull Provider
>[^ -]+)
Egg Provider
ĠUnknown Extra
Ġswap ped
IResource Provider
IResource Manager
Ġâ ŀ¥
ĠINT O
ĠContextual VersionConflict
Ġmacos VersionString
çĤ ¹
% )
C LEAN
T erm
] ")
a ff
b locked
ing Circle
lo ok
Ġ' ['
---- -<
ss ize
Ġx path
Ġun matched
pp f
10 4
Base IE
extra cted
ick er
Ġreg ression
Ġdest roy
dot ted
+) ',
Ġnull s
VAR IABLE
Ġ'* ',
des ktop
Ġnone xistent
Ġ-------------------------------------------------------------------- --<
Ġadapt ers
L a
l just
t weet
Ï ī
re cursion
de sired
Ġre quote
Ġp orted
path ForFramework
iz ations
Ġst em
ĠM iddleware
Ġwe ird
Ġpre load
Ex act
bo ss
') ],<
DE VELOP
ĠDe termines
are r
mode s
Ġexist ence
ĠDist InfoDistribution
Ġtri angle
grid spec
sv d
single ton
ĠÎ µ
AC CESS
(.* ?
ĠRequires Python
è¡ Į
? ')<
H ow
S leep
S mall
f ort
Ġc args
te ardown
Ġb urlap
__ ',<
Ġm r
Ġ" ).
Ġas Keyword
Ġh mac
Ġr cond
ĠO FT
mis matches
Ġsingle Arg
25 4
Check ing
SC REEN
ĠFile Metadata
At tempt
Trans fer
Reg isters
ĠSp inner
Ġesc Quote
xFFFF FFFF
Ġeager ly
CLO SE
INCREMENT AL
ĠsingleArg Builtins
C D
[ {
e valu
m ix
p ix
s z
Ġ ?<
de velopment
le ans
Ġm it
ab br
ĠP l
Ġpar ty
Ġme sh
ĠRe nderer
Ġlist ener
ĠW arn
ĠH EX
Ġsub titles
log its
)) ),<
Ġper f
Ġback up
invalid ate
CA PE
Float ing
ÏĦÎ ±
Ġtimestamp s
DER R
integr ity
artic le
Es caped
' ><
* "<
< <
L ICENSE
s chemas
z ing
Ġa ffine
me l
Ġp url
con soli
Ġco vered
", ".
iz z
int ro
Ġl argest
ĠB ody
ĠG ENER
ĠIn c
Ġla pack
10 6
\. [
PA dd
Read Func
CS P
Ġassoc iation
take s
Ġph oto
expi ry
Write Func
ĠSimple Namespace
Raw ConfigParser
calcul ate
ĠSH ORT
ĠInstance s
="" ):<
Ġmer ging
j ump
p seudo
Ġc ard
__ ']
ĠS PD
(' {}
py venv
ap in
Ġal though
ĠL INE
St andard
Ġsy nt
ref erred
Ġfind all
Ġreg istration
Ġtra it
Ġ7 5
AD D
Se ed
bit wise
Ġrel path
drop ped
Ġ-------------------------------- ---------<
Ġev p
ĠAss ign
Ġunlike ly
ĠIncremental Encoder
ĠIncremental Decoder
JK LM
Ste p
hemat ical
Ġabbre vi
: '<
> ########
A lt
E val
N s
W atch
W XYZ
s cl
s quares
Ġa ug
Ġi python
me ss
Ġf ps
Ġs r
Ġin form
ĠT wo
and y
per seg
po licies
IN ED
') "
De leting
Ġcontain ers
Ġper mit
Ġsp in
ĠDe bug
replace ments
parent Children
ĠSe mantic
CA PS
('. '))<
CS V
unique s
factor ize
fragment s
Valid ation
Ġsock s
Ġsl ug
Ġtell s
ĠTool kit
fut urize
Ġshorten ed
Ġima ginary
ĠSPD X
$ {
C ap
V ari
t di
Ġt arg
Ġp lots
Ġfor bidden
is son
set opt
ed y
Ġcon venient
(' $
en ough
if ts
Ġcomp ilation
Ġclass ifier
EN UM
Ġprocess EndTag
Command Error
ĠHTML Page
ĠGet s
PO INT
Spec ial
Open State
Ġsdist s
PU RE
ĠLO AD
SV G
Ġke eps
Ġsuggest ion
åħ ¥
Ġsim ulate
æµ ĭ
I FT
L ow
S ix
b m
u ss
Î ³
Ġi se
ĠT op
Ġu ndo
ig lob
Ġal one
Ġget opt
Ġy es
== >
Con sume
Ġyield ing
Ġcontin uation
Se lection
Ġpoint ers
ĠAn other
Wh at
('. ')[
Ġgra b
Content s
Ġcontrol led
addr info
ĠPAT CH
Ġev icted
pin ned
ĠIndic ates
uest ion
âķ± âķ±
M TIME
Q R
a ked
b ank
j na
l or
at on
Ġc e
Ġd bl
Ġ" )"
Ġg ray
Ġg uessed
Ġpy plot
") ("
Ar row
Ġhash ing
Ġgroup er
ĠY ork
Build ing
Config urator
chunk Size
Model Form
Meta Path
Ġ"/ "
ALP N
ĠFuture Warning
ĠMan ager
) [:,
W RAPPER
a ux
g ly
g auss
m ute
Ġc j
Ġs he
Ġto string
Ġcon versions
Ġu funcs
Ġ0 2
Ġ` %
bu gger
ifi able
Con crete
sub mit
gener ative
]) :
char Encoding
File Handler
Ġman aging
bit depth
Response Mixin
Py Qt
Read s
specific ation
("/ "):<
CR T
RST UV
Ġprovid ers
Ġsuc ceed
GraphQL String
Ġintention ally
ĠSim on
' *
+ =
. ]+',
D ashComment
I mplement
P OS
f fill
g pu
j ython
n f
Ġt icket
de ad
Ġn y
un register
get member
ĠS apin
ĠP RI
ĠF ragment
Ġname Rest
ĠD om
Ġpar dir
), (
tri angles
Ġen gines
im ing
Ġ5 1
no op
not na
state ments
process EOF
Ġprefix len
Ġ{} \
Se q
0000 000
(?: [
Ġunique s
ĠAt tr
EndTag OpenState
ĠUnsupported PythonVersion
prev Num
jace ncy
Ġ'{} .
Row Group
ĠAllow s
ĠCre dentials
Ġvoid Elements
Xml ns
Xml Name
Recursive TreeWalker
Double DashComment
TextIO Wrapper
Î¸ Î¼
IntegrationPoint Elements
Ġdefinite ly
RCData Rawtext
PAdd ress
DoubleDashComment s
s caled
t i
an im
Ġ' '),<
ĠA li
pre ad
IN CLUDE
ST DERR
like s
Ġnumber ing
trans lations
ĠIter ate
Ca iro
ĠAn not
pk l
language s
44 8
ĠOR DER
jo ystick
Called ProcessError
ĠUN C
Ġ{}) ".
Ġcha pter
gramming Error
Prepare r
ABCDEF GHI
( ~
= ?
= (),<
G RA
T IN
lo red
.< /
Ġnot na
ĠS hape
Ġde precate
oc tet
line sep
ĠB essel
Ġhas Children
Ġab sl
Ġmax val
################ <
vis ited
Ġform ula
Ġ{} ))<
Ġparent heses
rel ations
199 0
fic ial
Ġbasic ally
ĠWork around
ev p
ĠEN V
C lick
_ ((
b um
i ating
er d
Ġt ro
Ġa ch
Ġa md
Ġi ll
al th
Ġp rom
Ġ" ]"<
Ġ( ".
is quare
ĠP attern
Ġse m
ĠL I
ĠN UL
Ġun def
np z
base dirs
Ġcode point
Ġvalid ating
ĠĠĠĠĠĠĠĠĠĠĠĠĠĠĠĠĠĠĠĠĠĠĠĠĠĠĠĠĠĠĠĠ ĠĠĠĠĠĠĠĠĠĠĠĠĠĠĠĠ
... )<
Ġ{} "<
und ament
Ġenum s
Ġthrough out
Ġgra ce
Ġpair wise
Resource s
Argument Error
ĠTraceback Type
Redirect s
suc cs
TRANS PORT
I ES
N ative
R ank
h it
é Ĺ
in files
Ġs us
Ġb f
Re pair
Ġbe haves
Ġu i
ĠC R
ĠF raction
qui ring
Ġx code
read s
ĠG CC
ts libs
Ġso on
Ġ4 3
ep isode
File Attributes
den om
ĠJ OIN
Se quential
pl ate
Al ways
SU C
INT ENT
Query Set
comb ined
Ġrecent ly
ĠFloat ing
character Tokens
ÏĢ Î¿
aal ines
stre rror
PQ RSTUV
Six MetaPath
SixMetaPath Importer
' &
/ ")<
? ',
C PP
J son
T op
a ab
a mpler
y our
í ķ
Ġre construct
Ġf ac
Ġo y
Ġco uple
ĠD I
Ġpro mp
ĠE li
RE PL
Ġk ill
Ġhe ss
user id
sub tract
(( ?:
Ġab ility
Ġac cent
Ġexp onent
ĠX Y
Ġbreak ing
14 0
ĠY outube
NO W
Install ation
Ġdecimal s
Ġassign ing
Ġtyp ical
Ġlock s
Ġnt path
Ġinterpre ters
Ġ'? '
('\\ ',
ĠPage Element
ĠMongo DB
Ġexhaust ed
Batch Norm
Ġnumpys f
Ġach ie
= "<
O WN
R aster
T ar
c am
d buf
h w
} -%
ct l
Ġ' ('
Ġ" ..."<
ke s
Ġas anyarray
(" !
ĠP erson
># ------------------------------------------------------------------------------<
Ġ4 80
'] ])<
') (
Ġoper ands
Ġho spital
target path
si a
17 222
"), ),<
cent ly
Ġ200 2
aut ore
Ġsuccess or
("% (
Ġep isode
ĠCache Controller
REG TYPE
Ġdeal ing
LONG NAME
LONG LINK
ABCDEFGHI JKLM
}-% {
" -
F W
I PP
W elcome
\ ""
{ :
re ward
Ġi c
Ġre cons
ul ary
Ġfor med
cl amp
ile s
Ġbe have
ĠC FAllocator
ĠP PC
Ġde viation
file type
ĠO TH
ĠRe verse
ĠR untime
fe v
ari o
pop ulation
SH E
Method Error
------------ <
ĠRE D
ĠÎ º
Ġ(% (
Run Loop
Ġleg al
Î¯ ÏĥÏĦÎ
ĠFigureCanvas Base
CFAllocator Default
mplo y
PQRSTUV WXYZ
ĠCFAllocator Ref
( #
> `,
A m
D TYPES
T iff
c kets
e X
g ap
o ice
Ġs iblings
ma gn
from timestamp
ĠF i
Ġde serialize
per form
ĠB lue
Ġout line
ĠH O
Ġurl unparse
ĠReturn ing
"] ].
inter pd
iv ariate
=[ (
FO L
ob serv
CON N
Ġpl ane
ĠConfig ure
Tra it
Ġstrict ly
Param Type
ĠNew ConnectionError
activ ation
Work ingSet
**************** ****************
âĶģ âĶģ
ĠLim its
Ġ################################# ################
ĠVAL UES
Ġexam ine
gene ous
descri ptions
c rl
e li
o le
r fft
__ ))[
is scalar
ĠI EEE
to bj
ode tic
Ġpro tected
ok u
"] ],<
Ġj ump
EN CE
log pdf
Ġdis connect
Ġ6 2
:: /
Cache ControlAdapter
ĠÐ ¾
Ġgre yscale
DIST RO
Qt Widgets
ĠRetry Error
ĠGEOS Exception
IM UM
Ġ'{} '
INDO W
LIB R
feat s
"} :<
Ġsk learn
ĠVAR IABLE
ĠInline Keyboard
?:// (?:
(".* "):<
" [^
W M
_ ][
ë ĭ
in complete
re peated
at las
Ġs ays
Ġm X
ĠU ns
Ġpy rogram
Ġun wanted
ĠB OT
Ġpo les
') ),
Ġab sent
]) ')<
new byteorder
Ġinstall ations
Ġ-- ,
stream ing
ĠSt d
Ġop name
draw ing
ĠInvalid WheelFilename
Ġpad x
Po ssible
modi fication
les ky
ssib ilities
task s
semb ly
ĠAppEngine PlatformError
Ġdeep copy
SECURE TRANSPORT
$ "<
) =
C urious
D DL
V ISUAL
n ex
t utorial
v ile
z s
Ġs ilence
Ġs coped
ame d
Ġb tn
str ategies
Re al
ĠF INAL
ag nostic
oin crement
ĠH igh
Ġsub scribe
cre ase
Ġinit ializer
DO M
Qu ant
Ġpost process
Ġweb driver
nam ing
ĠBuild er
VAR CHAR
ĠSO UR
ĠRequests CookieJar
Label s
defer rable
Based Compare
Ġfoot er
Î¯ÏĥÏĦÎ ±
BasedCompare Mixin
+ |
+ ))?
B est
T ables
n ight
s as
t type
} ;
ç ®
ç ī
Ġc rypt
Ġ# #<
is suer
ĠS TR
la uncher
ĠI tem
py datetime
Ġle v
== =
Ġun link
Ġro unded
Ġsub string
ST AND
token list
HTTP Warning
oper ate
Call s
ĠComp utes
ĠInvalid URL
Ġappend ing
ĠBasic ally
ĠHttpResponse Redirect
IMP ORT
Ġpropag ated
ĠCFData Ref
ABCDEFGHIJKLM NO
= """
? ([^
A ffine
E UC
N UL
N erd
R ing
k ana
r ating
s os
Ġc data
li ance
co urse
Ġ" ]
fo x
url unsplit
ĠRe quire
iter ation
ĠR ation
Type Registry
Ġinter rupt
ble nd
ĠPy OpenSSL
Ġpri ce
CA P
Ġclose s
Al ready
DS A
Ġsuffix es
OK UP
SUPP RESS
Ġfew er
Ġidentify ing
ĠStruct ure
Ġrand int
Geo Func
åĽ ¾
Curious Nerd
. "),<
9 84
D Y
d w
d ating
m ises
y ms
} ').
er ator
Ġt ty
de tection
Ġre lies
ro les
ce p
Ġ( \
ch i
Ġ2 50
Ġy m
Ġun ordered
IN F
ĠR ow
for warding
AL TER
Set uptools
Lo gging
Ġmin us
MA IN
lag uerre
Ġtri angulation
KEY DOWN
cp bot
Ġunpack b
([' --
ĠPath s
ĠTimedelta Array
Ġmut ually
ĠInternal Traversal
rub berband
Execution Context
Stub ImageFile
ĠVis ible
3 10
C RL
k CFAllocatorDefault
re levant
an el
""" ,<
ĠF ull
ance s
bo oks
sub titles
Ġper haps
struct s
ĠDe bian
we ak
Ġstat istic
Ġwin api
block size
Ġrel s
ĠSt orage
200 3
full path
termin als
Sub stitution
Platform Warning
ĠConnection Cls
Ġexpi ry
INST ANCE
blank s
Ġblack list
ĠMin imum
conj ugate
ĠEUCKR DistributionAnalysis
ĠBuffer Proxy
0 64
b ile
r ation
z order
{ \
} |
Ġt tk
al ters
Ġe ye
Ġin cr
Ġd um
ĠP ad
ĠP open
Ġwe ighted
comp arator
Ġat oms
IN IT
32 2
LE TT
gener ation
ĠCo ord
\\ ]:
fill factor
Ġ'' ',
Ġali ased
dev release
Ġpl anes
pk cs
Extension Array
Qt Gui
Ġactiv ation
lab eled
ĠNull Handler
Ġcred s
integr ate
("+ {
ABCDEFGHIJKLMNO PQRSTUVWXYZ
5 37
: **<
N ested
w or
Ġ' )
Ġ" ="
able Exception
00 6
Ġg ran
ĠM OD
Ġpy arrow
ĠB or
ĠB RIGHT
Ġ.. ."""<
Ġj ax
]) ):<
sy n
tag ged
ĠAl gorithm
End point
30 9
]* \
math text
ĠBy te
coord inate
âķ ¯
Ġdialect s
('_ '):<
multip rocess
ĠObject ive
IST S
Ġannot ated
Ġsm art
consume s
Ġapprox imation
Ġmaint ained
Ġtro ub
" (
2 231
M et
T imer
T ermin
W eek
m ssql
s mooth
x ed
al abel
ch ard
ĠI M
Ġr r
ĠD ay
Ġle arn
Ġpath names
Ġpre fetch
Ġch k
string filter
ĠH DF
:// ...
Ġ6 5
Ġarch iving
DI FF
=[ ]<
sql parse
FA IL
bit bucket
lice nce
Ġ20 4
Ġimp ly
Table Dict
mul ate
AC TION
CFArray Create
floor div
ĠGeo IP
aco bian
Ġincre ase
Visual Studio
clic ked
TomlPreserve Comment
rewind able
LIBR ARY
D imension
E EXIST
M sg
g ates
| \.
å ¾
st ash
le a
al ternative
Ġf src
Ġn cols
Ġw f
li day
Ġto pology
ers per
un wrap
pro bers
ĠE V
ĠRe store
Ġit alic
Ġdata sets
ER R
ĠG lobal
'] ],<
LE VEL
Co mm
ari a
]) \
ĠCon tact
Un available
surface s
Py Side
Config urable
Ġedge color
ĠSub Class
COM PI
transp arent
Ġmag nitude
pens ive
cend ant
Ġ"* "),<
ĠCandidate Lookup
Ġinterpol ate
cycle s
ä» ¶
KEYWORD S
calc size
ĠCFArray Ref
ĠUnp ickle
Would Block
ĠAg reement
SUC CESS
ersper sed
' ``,
* -
G PL
i ma
Ġc pp
Ġc adata
Ġc nx
Ġp ing
di scri
di stribute
is hes
set WhitespaceChars
ĠS ound
version Time
Ġset ResultsName
Ġuse Regex
Ġk SSL
Ġsub strate
ĠPar ses
32 6
)) ),
sh lib
Ġinter mediate
do Actions
work book
Ġfunc Def
Ġfunc Decl
SSL CipherSuite
Ġinit iator
Ġ... ,<
HTTP Message
Ġali ve
Command Handler
Sec CopyError
Message String
ĠÎ ķ
ik o
standard s
Script Writer
ĠRetry ing
Î¹ Î±
accum ulate
SSLSet Certificate
SSLSet Peer
pub lish
BIT S
Ġoccurrence s
mapp ers
Oc tet
ĠUnpickle ableException
SecCopyError MessageString
L R
d ri
j y
r value
¡ æ
Ġ ortho
ar di
Ġb po
di ence
class ic
con cern
ĠS at
Ġst udent
Ġr pc
ĠW idget
mb ic
Ġcomp act
cur ious
end or
select ors
ĠURL Error
wo uld
ĠMulti Dict
Ġtransform ations
au d
Ġpreserve s
Ġ"* ",
Unsupported Operation
Ġ"{} "
76 8
Ġfall s
rece ived
sk i
anon ymous
ĠBroken Pipe
ĠBO OL
SetConsoleTitle W
S m
T ARGET
V A
a ur
t x
Ġb an
is close
th umb
ĠT ensor
Ġv ol
bu st
Ġr ing
sp ines
out side
ir p
Ġcomp licated
Ġk er
cur rency
arg partition
12 4
ep hem
cre ator
ID NAError
include s
QU IT
ĠOption Group
ĠÐ ¸
Ġdetect ing
Length Validator
Const ant
ĠHash Missing
Ġast ype
ĠOP EN
urro gates
star map
Separ ator
ben ch
Ġestim ator
pcolor mesh
" (?:
e verse
l stat
w ant
Ġt ight
de legate
co co
Ġex clusion
Ġcon tact
ver tex
Ġan g
`` ::<
IN TEGER
Ġdist info
Ġcopy right
11 7
Ġq op
Sec ureTransport
ĠK nown
Ġhtml decode
('/ '))<
]+) ',
([^ <
)+ "
ĠSu bject
MODULE S
ĠEl lipsis
Ġcum ulative
everse en
> \\[
L NK
d v
e mb
f ord
v ol
re cogn
Ġp f
Ġe ta
Ġd up
__ ']<
fi a
Ġ== ================
Ġun iversal
fix up
Ġsub commands
EN TER
List Item
Equal s
Base DownloadProgressBar
Ġcor outine
NO TE
ĠAr row
mit ting
und ay
ĠTO KEN
ank s
Date Field
ĠRequirement ParseError
ĠPre vent
ĠData set
Ġlock file
bi di
Character A
Ġsv g
Vis ible
Ġdri vers
FillConsoleOutput CharacterA
147 48
ĠSS LS
Ġposs ibility
B reak
G o
L ATED
L atin
R ad
W STR
a ic
d args
t gz
x F
or ph
ar se
Ġb right
Ġcon current
ĠS imp
ĠRe porter
tes ian
ĠW raps
Ġso le
user prog
ars on
ĠEx tras
Ġ9 8
VER IFY
40 3
Ġvis ited
Ġcons ult
------------ -<
ĠCF UNCTYPE
ERROR S
agg reg
ĠSub Mask
CU BE
ivers ally
Ġcap abilities
Ġfi gsize
ĠWin Style
Ġinv oking
Ġinterest ing
Last Version
Writ ten
ĠExtras Candidate
F lat
R DD
s With
s Bar
u cli
ä ¼
Ġre produ
Ġre stricted
Ġc ython
Ġs queeze
co x
co ur
is y
Ġan si
Ġget mask
sp i
Ġy aml
ff mpeg
ĠL F
Ġpy pa
Ġk TLSProtocol
pos ing
count ers
Ġvari ants
vis or
comple tions
normal izer
ater al
Pre tty
Object s
Num bers
custom ize
############ <
Ne gative
Sdk Version
ĠNet Fx
Î· ÏĦÎ
Boolean Field
hyper geometric
swap ped
ĠUniversal Detector
arith m
ĠNamed TemporaryFile
MEDI A
Ġmal formed
. .<
E urope
S F
f rag
p len
ï ¸
Ġ que
se ns
Ġt ot
Ġf uzzy
is subset
un ction
Ġex plain
py d
pro totypes
AT L
Ġ4 8
") ]
Ġback ports
Ref Sys
ĠÎ »
decl arator
ĠLine String
rout er
stand ing
Archive View
ToOne Descriptor
Ġdenom inator
5 35
= [-
N C
P lay
] ").
c ms
g aussian
â Ĺ
ê °
Ġ ðŁ
ar cs
Ġo ct
con vent
ĠS to
ĠM ON
Ġ** __
ir is
ĠIn completeRead
Ġpo oled
ĠPar sing
Ġla zily
Ġstart up
Ġinter act
... "
Ġprocess ors
Time Zone
Ġform er
Ġtemp d
entry points
Ġus ual
Ġimp roperly
author ized
âĶ ĵ
ik ipedia
MS VC
Ġ$ {
COM MAND
ĠWh ich
Ġgu ide
comm unicate
SOUR CES
ĠPermission Denied
ĠDownloadProgress Spinner
Corpus Reader
A sia
N ON
` \
b ird
e qu
z on
or skip
Ġf a
Ġf old
un g
get list
Ġ_ )
Ġde leg
ĠO VER
Ġen caps
act o
split user
color map
local time
cor ded
over laps
URL Error
Ġmulti variate
conf str
Ġchat s
Meta class
36 8
Ġsimilar ly
ĠTrans action
Size Constraint
Ġindic ator
Ġintegr ate
ĠNumeric Property
ĠSci Py
owns ample
ril lic
ĠBrokenPipe Error
$ '<
- {}
- (\
P unctuation
Y ELLOW
g ai
r func
u ard
Ġ ÑĤ
de an
Ġp b
Ġe insum
Ġb locked
up loader
ĠT erminal
ĠP UR
() )))<
Ġde legate
Ġ== ========
Ġon clause
Ġy o
:` \
Ġz dir
Ġla unch
SI D
File Loader
find var
Ġ10 5
Ġ"" )
({ },
non central
contain ers
Invalid Marker
Ġmodi fications
ĠÐ Ł
cer tain
As n
ilent Bar
Ġproduct dir
ĠRaise d
mult iline
ĠTemporary Directory
cep hes
' ([
C BC
d ana
} :<
Ñ Ĩ
è ¾
Ġc py
to ggle
ip ient
ĠA ffer
ĠA vailable
list a
ĠD D
ou b
ĠN D
:` /
min us
fe asible
ĠPar allel
Ġtext ual
AL G
CH ANNEL
ick labels
Ġprefix ed
Or d
client s
Ġencode s
HE IGHT
Ġdimension al
Sub classed
ĠDis patch
ATI BLE
ĠHTTPS Handler
=", ",
Ġcs r
super set
DEF LATED
ĠSu spicious
ĠThread Pool
ĠCho ose
Ġ'^ '
ĠAffer o
B I
l zma
y data
def aul
Ġdef acto
un squeeze
ata kana
Re tain
la m
`` '
Ġ< ==>
error bar
ĠW IN
ĠW ould
po logical
op ub
ref er
Ġrandom ly
freq str
Ġfe at
RA INT
Str ategy
Ġbl as
Ð° ÐµÐ¼
umb el
Ġpickle able
ĠCO MP
mysql x
Ġmut ated
Ġconv olution
TZ Dtype
Ġ'" ':<
Regexp Matches
Ġsandbox ing
Wait For
("</ %
ĠOri gin
ucli dean
' /
- ")<
9 86
C hecked
Ġp ract
an ford
Ġd a
Ġ( _,
ex if
Ġan s
Ġg over
ĠM c
In tent
Ġlist a
im gs
ang led
us iness
Ex tend
"] +)
ĠR ed
Ġup loader
]) ])<
new lines
sy nchron
ĠDe codeError
16 0
Ġcmd line
ĠIter ates
ker as
([" \
Py Py
^^ ^
Ġpop ulation
Ġrece ives
assertIs None
Sequence Of
Ġmis s
jo instyle
EM B
Post gres
ĠControl s
perm utation
Ġdead line
rich let
N B
] ``.<
b pp
h am
t g
re mo
at he
Ġf get
-- >
an imate
Ġas List
Ġas king
ĠF inal
ĠA ffine
os name
Ġcol type
ĠH andler
=' %
'] ),
TI GU
Ġ\ \<
Ġ(" __
LO CATION
Ġfull path
Value SizeConstraint
bot s
Ġ', '
xml ns
termin ate
Default s
sen code
ict ure
CODE S
ĠPass ing
ĠWork ingSet
Ġrot ated
LOG IN
HOST S
ĠUS ING
Has Traits
Choice Field
Ġ#---------------------------------------------------------------- ----------<
REPLACE MENTS
DEPRE CATED
ĠMutable Set
ingCircle sBar
undament al
ĠMOD ULE
14748 364
ï¸ ı
TIGU OUS
M ay
M asked
i at
v ocation
} >".
¦ ģ
Ġn ans
ro om
co o
Ġex pensive
ĠP a
ĠP AR
url unparse
import orskip
Ġal gebra
parse WithTabs
iter ate
len ge
add ition
ĠR O
app lied
Ġmax Matches
ĠUn ique
Ġfull Dump
Ġlast Node
US AGE
imp lies
clip line
rs a
Ġappend Child
ĠTra ck
'^ (\
Ġround ing
Html Element
tt info
COMP RESSION
semb les
Ġesc Char
ĠEasyInstall DeprecationWarning
ĠDirectUrl ValidationError
å¯ ¹
Î¸Î¼ ÏĮ
$ $
A v
I MetadataProvider
P ure
S ection
U B
\ (\
b d
f riendly
} }"<
» åĬ
è ´
Ġ ×
type d
Re LU
Re factoringTool
ĠP G
py arrow
ĠA F
ta fter
ĠD el
Ġun iversally
sub path
SE M
ide os
CH R
reg istration
Ġinter cept
Un recognizedFormat
Ġnon zero
ten coding
Ġtar obj
Ġext reme
gt k
(** {<
Ġop posed
Ġ"_ "
Candidate Info
vo ice
fft w
]+) '<
Ð½ Ñĭ
ĠFound Candidates
ĠABC Series
ĠCre ating
SY M
ĠCalled ProcessError
ĠRequirements File
POOL SIZE
O id
P layer
P DF
a max
i co
co pied
Ġm c
ul lets
ad jacency
qu arter
Ġ[ {<
id om
Ġcon traction
ĠS mall
res olvers
() )).
col lapse
tent ative
ĠEx pect
char map
Field Mixin
Module Error
ĠPer haps
('. /
byte array
Ġph one
pers ist
Ab ort
Ġobserv ations
liptic Curve
åľ ¨
indic ator
> ``.<
A MD
C ast
H OR
I TER
m ies
æ ³
è ½
Ġc ame
ĠT F
() ['
Ġassert Raises
Ġ{ (
oc ked
IN D
Ġcomp uter
Ġz order
sub stit
sh allow
Ġover lay
ID s
ran lib
}) -(?
CON TIGUOUS
Invalid ELFFileHeader
SU RE
ĠDate Offset
Ġ~ /
BE GIN
inc ip
Mac Version
åı Ĥ
COMP LE
Î¯ Î½
Ġnice ly
ĠEL FCLASS
ĠAddress ValueError
ĠTk inter
âľĵâľĵ âľĵâľĵ
ĠELF DATA
ĠMON TH
+ .
: (
H H
S ibling
d B
n ment
é ĥ
de veloper
Ġd ta
set timeout
Ġh a
type str
key log
Ġtype str
ns wer
Ġse mi
out of
Ġy dl
Pro b
CH O
De tect
ach ing
Ġargs ort
Ġpkg name
sort ing
Ġpassword s
}) ;
Ġdocument Class
Ġaut ode
Ġrv a
CON TA
Ġcomment Class
Ġinsert Text
go v
First Child
iso format
ĠEX ISTS
mar ke
Comple ter
Ġfut ures
Ġlab eled
#]* ))?
Ġance stor
> ...
Z ero
j is
} """<
on mises
Ġs mooth
ce ded
Ġb all
Ġd ro
ser vices
is alpha
ol ded
Ġex posing
Ġ- (
(" :
Ġg r
Ġx size
Ġx box
art ists
ĠB A
ĠG rid
Con straints
ang er
Ġnew bytes
Ġsub domain
Base Cache
Ġafter ward
ident ities
ia Lite
CF LAGS
Build Meta
HE ST
SQL ite
SO CKET
View er
View Middleware
ĠPre Post
ĠLink Evaluator
OUT PUT
Ġsimp lified
got s
Code s
enc rypted
ĠCandidate Evaluator
Ġfs decode
ĠElement s
multip lier
Local Type
ĠLegacy CmpKey
ĠSource Distribution
Ġstub s
ĠSupports Int
Cmd Help
Ġconj unction
Dev Type
Ġadministr ative
åĮ ĸ
srf ViewMiddleware
ĠPrePost DevType
+ )<
D ST
R ate
` \<
m otion
t idx
} ),<
ve y
od ger
ĠS andbox
ĠS unday
Ġde lims
Ġpro gramming
data class
sc i
Ġdo g
Ġ4 6
Ġ4 25
port ion
Ġhe lps
main loop
File Name
ĠUn it
Ġ{} :
Ġtree builders
Ġref erring
CHAR SET
TR UNC
hex lify
77 5
Ġtermin ation
UP LOAD
ud ge
ĠEnvironment Error
Sh ift
deg ree
Ġface colors
direction al
Comple te
ĠSign ature
artic les
Ġseg fault
E A
H Z
L essThan
M ar
P ending
S w
g uild
h n
x bf
Ġ ].
al ternate
Ġre build
Ġn icer
Ġo gr
Ġs al
Ġ' `
Ġm arshal
Ġis atty
con t
Ġor i
Ġstr m
() [-
bu gging
version predicate
put mask
ĠN ano
loc ators
ĠG zip
:` ._
RE E
no frames
Ġbuild up
Ġ6 6
ĠType s
ĉĉ ĉĉĉ
LO GGER
DI CT
ĠY ear
current Token
ĠVersion Predicate
Path Name
QU AL
strict ly
ics Context
}} .<
ĠReg OpenKeyEx
ret ch
Pos itive
Ġsel dlg
ĠSub class
âķ °
ĠForm atter
Var int
Imp lied
CCompiler Error
ĠOP TIONS
Ġcomm only
Ġcollis ion
^^^^^^^^ ^^^^^^^^
ĠAb solute
åĽ ŀ
Ġanaly ze
LIC ATION
- *
: ])
C TED
F ULL
P s
k v
n ist
} ]*
re vert
Ġt ts
Ġp ressed
an chors
Ġe of
di g
ĠP ick
file types
Ġ== <
Ġg b
ib ull
ĠE very
ĠU I
Ġun recognized
lic ity
10 9
raw text
opt group
element Class
Ġfull Tree
Ġskip rows
exp lan
33 3
CON TEXT
ĠCh unk
[^ -]*
Ġigno res
36 0
Rect angle
ai ser
tw itter
UI Resource
Ïģ Î¹
rece ivers
ĠShort cut
Compat ibility
ĠSECU RITY
I mmutable
U TE
\ )
m le
re loader
re stricted
Ġ' ')
un ately
ĠT runc
ol in
Ġv an
ĠC ent
ĠD OS
Ġle arning
ty ler
data model
data State
len e
tribu ted
12 01
Ch unked
Ġsh all
Ġelement Class
To Read
=[ ["
Ġwrite ln
NO TI
Ġ9 5
ĠBase Environment
over lapping
Ġimp lies
Ġdisplay ing
ĠHTML Serializer
dest file
ĠK orean
aT eX
omat ic
ABC D
high light
ĠLe af
Include s
ĠEgg InfoDistribution
Assign ment
Perform ance
INI TI
ĠInstalled Distribution
B old
M ult
V oid
c te
h ases
p resses
p romise
z pk
Î ®
at ypes
Ġf ault
Ġp db
Ġw b
ra dio
Ġm igrate
name Tuple
is inf
get info
Ġco vers
() ')<
Ġname First
__( ))<
form Pointer
Ġpar a
ib ly
ĠE verything
Ġdata vars
parse RCDataRawtext
char Stack
ref use
struct or
be hind
Ġbytes ToRead
cor ners
Ġscript Data
ĠJ o
DO UBLE
pri mitives
Command Mixin
Node Details
namespace URI
End Tags
Ġaut henticate
]* ?
PAT CH
Ġsrc alpha
Ġbuffer Offset
ĠID N
Ġpatch ing
ä¸ į
Count ry
ĠGE OM
Unicode InputStream
ĠNode Builder
ĠThere fore
We ak
ĠCO ORD
serialize Error
Ġascii Upper
Non RecursiveTreeWalker
ĠPo licy
report Character
Imp ly
ĠAL PN
HASH ES
buffered Character
ĠSpat iaLite
Ġfraction al
>################################################################ ##############<
GIS Lookup
sentence s
Ġheading Elements
rcdata State
........ ........
Î¿Ïħ Î¼Îµ
ignoreEndTag Colgroup
Ġwsgi ref
ĠFi xture
Implied EndTags
reportCharacter Errors
- ]+
/ ')
2 23
G ive
S ent
V andermonde
c rit
f type
Ġs it
Ġb read
Ġw v
Ġto ld
en neth
Ġde scriptors
bu sy
ĠD type
Ġy size
ĠN avigableString
back fill
Index er
Ġdir url
_( """
Ġtrans ient
io loop
spect rum
stri ded
Optional NamedType
ĠÐ ·
lex sort
Ġord ers
Ġ~ =
Ġdescri ptions
WORD S
ĠSer ialize
JSON Field
Ġintern ational
Ġms gs
Gra dient
ĠState ment
}- [
}- {
Sparse Array
HIG HEST
Cha pter
ĠTw itter
1 33
M IS
S PARSE
T MP
t all
w all
re te
Ġf cnt
Ġe pilog
Ġb ars
one ous
th resh
Ġex pla
Ġex ceeds
(" //
ĠC D
int illa
Ġdefault ing
RE TUR
ree k
new er
Ġver b
exec uted
Request Warning
Ġparent hesis
Ġexc p
exc info
Ġrv s
+) '<
ĠFile Cache
mk fifo
ĠInter n
cv t
Ġplay back
ĠQu ick
Construct s
Password Validator
ĠOb tain
ĠExp and
âĸĪâĸĪ âĸĪâĸĪ
ivariate Spline
Ġfcnt l
> (?
P od
S imilar
\ (
` *:*
b el
p il
è ¦ģ
in ion
Ġs licing
Ġs hebang
Ġm app
Ġfor ces
par ty
ip p
ĠD an
Ġg unicorn
ĠO UT
ag le
Ġset default
RE AL
") }
SE LE
fore ver
tz str
14 8
ran ks
exp m
ĠSt ata
ĠZ ERO
Ġ'_ ',
TO P
clause element
Whe ther
ĠIN TER
pair wise
Ġassign ments
ĠTrans late
embed ded
ANG LE
insensitive ly
calcul ators
ĠStream Wrapper
Ġshare x
disc rete
Zip Provider
Ġderivative s
ĠSelection Preferences
nex tafter
6 01
D b
D arwin
H it
d z
v list
y min
â Ĥ
me s
Ġre loader
ur tle
Ġin tr
Ġb le
ot os
ch isquare
get TreeWalker
ĠT CP
(" ["
ĠC lock
ime zone
ĠF ore
Ġal go
ĠM ade
ER ATION
Ġparse Fragment
DE P
write ln
Ġinter action
=[ ]):<
ĠPro gram
ĠDistutils ModuleError
wait Key
ear u
Ġport s
Ġweb socket
ĠMo dify
ik i
under line
((' '.
ĠHash Error
decompress obj
ĠAN Y
ĠExtract Error
Ġconvent ions
Ġ'@ '
ĠMO DE
Ext File
Ġfair ly
ĠDEP RE
Ġabbrevi ated
ĠBOT LOG
# ---------------------------------------------------------<
+ (\
/ ',<
4 26
H DTYPE
K NOWN
N Bit
U Int
b urlap
k c
n umexpr
ģ ¯
re porter
Ġre members
Ġn ulp
Ġs ong
Ġin cremental
Ġthe dir
as Dict
as Match
__ =
Ġ" )
ex ported
Ġres ort
Ġr ho
Ġfile op
Ġle ak
># ---------------------------------------------------------<
ĠU STAR
Ġkey store
ust ar
us parse
ĠR ich
sub RecCheckList
Ġsc rape
gn usparse
File Descriptor
gra b
Ġlink name
Ġ"" ))<
pop ulated
ĠImport s
TH ING
first member
Ġreplace ments
Ġcom ing
non ym
ĠZ ero
fail On
imp ure
ĠRE DIRECT
199 8
lazy classproperty
sprite list
>- (?
collide dict
categorical s
sn ap
ĠAc cording
stick er
ĠRemoved CommandError
certificate s
WSGI Environment
Fi xture
\.? (\
Ġhdr charset
pag inator
Dest ination
æĹ ¶
sld kj
Ġsld jf
ĠCompression Error
defaul tencoding
ceded By
B a
C rypt
F ON
o ve
s ink
t lene
} ).
Ñ Ī
æ ¨
re directed
Ġt weet
Ġn perseg
Ġb racket
li d
ad ict
ĠT imer
Ġbe ne
ĠA dapter
Ġassert ion
ĠE S
oin ted
iter lists
Ġca path
field sets
Ġprint able
write lines
Get Value
ĠJ son
}) ")<
draw n
alen ce
Ġ"/ ":<
neg ated
tab ular
ĠPAT TERN
Ġpure ly
Login View
EXCEP TIONS
ĠSpecific ally
Ðŀ Ð
coerc ion
ĠÎ» Î¯ÏĥÏĦÎ±
E rr
F allback
R ound
W IN
j avascript
} ',<
à ´
æ İ
de sign
Ġb n
Ġco arse
Ġu gly
Ġ== ====
ĠE Tag
ĠU sually
Con n
ĠH o
Ġpo licies
build Oid
copy to
CK ER
Ġper iodic
Field ListFilter
(? :%
=[ ])<
//// <
ĠY O
ĠAl though
ĠComp osite
//////// ////<
ĠDefault Dict
ĠDis ables
(". /
Ġcv t
Bu ffered
("/ ")
writer ow
ĠWh itespace
ĠCandidate s
Ġqual ifier
Ġdeclar ations
ĠIdent ifier
unders core
//////////////////////////////////////////////// ////////////<
" |
' |
L T
b om
s fx
x n
Ã ¶
å ¸
pe ek
nd iter
Ġco o
per mitted
ĠD uration
Ġx l
ho les
ĠW ait
ĠG aussian
parse str
St mt
Pro duct
Ġover laps
Base Database
RI VER
Ġ". ":<
Value Dict
DEFAULT S
rag on
]] ),<
Ġtop level
PE M
ĠMe mory
grade s
Body Phase
Column Element
mult inomial
prob ability
Ġdes cent
Ġincorrect ly
("~ /.
============ =<
Ġpow ers
}] ".
Ġdiscar ding
Ġadv ant
Ïİ ÏĥÎµ
xls x
Hand shake
' #
' #!
/ $
F ic
e vals
h ierarchy
l ated
w ire
Ġre striction
Ġ' (%
is p
get mro
Ġnot ify
ĠD IS
sp l
sp ot
tri u
mo zilla
Ġen tered
Ġ"< ",
ĠCon st
Ġdis abling
)) :
vis itor
... ')<
Ġzip importer
11 4
password s
over lay
ĠTe legram
aut hentication
aut henticated
Of Bounds
ĠAt tach
mi rror
Ġpe ak
Ġmonth s
ÐµÐ »
}: {
Kernel Manager
FUNC TION
ĠSerial isable
ĠÎµ Î¯Î½
FON TS
7 27
> ([^<
C AT
Q uestion
f rontend
w his
Ġc bar
Ġe quiv
en tered
ĠA pi
Ġx data
Ex pi
ĠPython Version
Ġsy ms
ĠDataFrame s
freq s
ĠCh art
Ġpoly val
ĠÎ ĳ
center x
epoch s
ĠMac ro
Ġcy gwin
Syntax Warning
ai ry
ĠQuery Dict
Ne got
pm f
Î¯ Î¿
Ġcent roid
ĠComple tion
foc used
æĪ Ĳ
>~~~~~~~~~~~~ ~~<
PK CS
âķĲ âķĲ
Ġunnecess ary
Eval Context
ALG OR
ĠÎµÎ¯Î½ Î±Î¹
A ble
C l
Y ES
i fft
{ "<
ç İ
Ġb w
Ġb io
un ichr
ma cs
tr uth
() (
py x
pro of
xt icks
comp anion
Ġ** {
Ġindex ers
sh ip
ĠĠĠĠĠĠĠĠĠĠĠĠĠĠĠĠĠĠĠĠĠĠĠĠĠĠĠĠĠĠĠĠ ĠĠĠĠĠĠĠĠĠĠĠĠĠĠĠĠĠĠĠĠĠĠ
Ġtrans lat
idx s
stri ctions
Ġlib path
Ġfig ures
escape s
Ġop inion
termin ated
ĠRequest Error
ĠFile s
++ <
]+) |
Ġput s
PAR T
sig moid
sm art
ĠQu artz
Ġnb format
Ġagg func
ĠSession CommandMixin
green let
LIB DEST
riend s
ĠInclude s
Bound ary
Ġjob lib
Ġsyn set
ĠNUM BER
3 77
8 40
] **
^ -
d tree
f olders
v n
} _{
¡ å
at able
Ġp ys
Ġn sp
Ġb are
Ġcon trast
ĠS A
Ġ`` --
Ġen hance
Ġl l
Ġ** `.
link age
Di gest
float s
): ',
Col ors
Qu otedString
Ġcomple tes
ĠAn imation
ĠCommand s
exe mpt
seek able
ĠCON ST
âķ ®
Multi part
Ġpub id
ĠLook ahead
Ġwhite list
MEM ORY
ĠstartTagTable Other
ĠMany ToMany
('; '):<
Ġassump tions
ALIZ ABLE
antiali ased
discri minator
tlene ck
) },
, )).
A I
S ING
S ince
e mit
q FileLines
å Ĩ
er ical
sel enium
Ġre write
Ġc al
te le
Ġd oub
ve x
Ġex ceed
Ġh ar
from buffer
Ġcon tributed
00 10
Ġme as
ind ptr
ĠRe qFileLines
ĠU pd
Ġdata path
Ġkey ed
Ġpy compile
ĠB RO
Ġurl split
Ġurl conf
") ["
ide s
Ġinter rupted
AS SIVE
Se cond
Ġsplit ting
ait ama
USER NAME
Output FieldMixin
cap style
Process ing
(", ",
ĠSkip Test
Ġ\\ **
ĠLoad er
ĠOut OfData
ĠRequirements Conflicted
è¡ ¨
Ġcas cade
Ġau gment
Ġinstru ctions
tagClass Context
ĠFin ally
ĠSTO RE
ĠMET ADATA
COMPI LED
Ġmapp ers
( ([
E v
F amily
G C
M ASK
S olver
S uch
` -
e moji
m aries
} /{
le arning
Ġe vi
as px
Ġ( "",
par k
to file
en ces
Ġan alyz
ic c
ib ration
ĠH ermitian
Ġcomp liance
Ġno verlap
Ġpass wd
back port
ĠCo mmon
sh aring
disp osition
AS SIGN
20 4
Token Types
Ġlong name
dis cover
SO CK
Ġworks heet
MARKER S
Lookup Mixin
ational Error
Ġ17 0
Try ing
={} ):<
bat im
Ġlowercase d
åĲ İ
æľ ī
Ġhyper geom
ĠComple x
ĠDisable Able
cipe s
Quick Element
9 26
J an
J ust
M od
T urn
d ct
m ixin
p ct
y acc
Ġ Ù
re curse
Ġf rac
(" \\
ĠD LL
Ġget Name
Ġpro tection
"< {
ĠO l
no se
Ġz ones
Ġcurrent level
Ġsp h
inter pret
Ġreg ions
bin om
CT X
Ġext ant
CF GetTypeID
ĠGener ally
Ġ"_ ")<
tmp file
ĠK D
Color map
Ġwarn ed
PRO TO
Ġpop item
45 1
Ð¸ Ñı
got o
Ġsa id
Ġ'â İ
Ġmut agen
Ġ": ")<
disc ord
Ġrecom me
PLA Y
ĠMan age
Dest roy
åıĤ æķ°
outof data
F in
b ak
f ds
i ou
j it
o ses
s co
ç ¾
Ġ Ø
st age
an imated
set Up
(" (
Ġ: :-
ta ches
Ġal phanumeric
># ----
ĠL inAlgError
im ized
ĠH KEY
mat erial
Ġne at
Ġsub dirs
ST ER
Ġla ck
Ġman ner
dd dd
CO PY
Qu arter
Ġlocal ized
Ġfill value
soft max
Stream Reader
Ġig lob
Ġedit ing
FE ATURE
ĠUnsupported Operation
increment ing
="" ,<
ĠSIG N
Ġtrip le
ĠVerify ing
ĠPRE FIX
ALGOR ITH
W ay
x max
ŀ ĭ
sel e
Ġi NaT
he l
Ġin ds
ĠT aken
ex plain
', ))<
Re curse
ĠI CC
lib erate
Ġl iter
ĠW rit
Ġ4 44
=' #
Type Engine
Ġdf den
sub module
Ġser ves
Ġ"< /
)) /
Ġ[" __
bin op
({ })".
Request Methods
Array Like
the re
CF Retain
Ġyour self
ðŁ ĵ
âķ Ń
APP LICATION
}. ".
ĠDatabase Features
legend re
Ġqual ify
rected Graph
ĠServer Proxy
Ġdll s
Ġinteractive ly
Many Redirects
ĠLay out
+" -
MY K
ĠNT LM
Ġff mpeg
pres umably
dispos able
Ġce il
Octet String
CUBE MAP
(["\ '])
$ "):<
/ ~
I ssue
T F
U X
g un
k i
t cp
u ary
y cle
de letion
Ġa f
al o
pe tition
Ġ' ):<
fi ers
un ordered
get defaultencoding
ĠT ARGET
Ġas serted
Ġ[ {"
ĠI ts
lin er
Ġcl utter
Ġl u
Ġl atin
read ing
IN EL
RE CUR
=' $
Ġac comm
File System
sh ifted
Ġent ropy
host mask
'. *
Ġ'% '
Ġident ifies
}) \
full argspec
CHAR ACT
SO LU
66 6
Sub classes
Open ID
document s
Th ree
Ġescape s
("< %
ĠAd apted
(.* )
ĠModel Admin
ĠOGR Geometry
Ġmaintain s
Ġsn ip
declar ation
yo lov
Coord Seq
SENT INEL
ĠAlternative ly
Ġpract ice
' [^
, .
D M
W I
{ "%
} >"<
İ ·
Ġt pl
Ġ= ",
he uristic
Ġc df
Ġc ube
Ġe ff
Ġb ranches
di sh
ĠC Y
ĠC RL
res name
() '<
() ."""<
file post
ĠRe trieve
`` ."""<
ine q
ard s
") ),
ĠEx pr
Ġcode base
Ġmax Exc
Ġ/ *
UT ABLE
Ġtag Set
ĠParse ElementEnhance
Ġ... ]
Ġ'' }<
Ġerr oneous
over ridden
No Recurse
Ġfinal ized
Sec ure
ĠPer forms
Ġsample d
pick led
Per cent
Ġcat s
dialect s
{' +
activ ity
Forward NoRecurse
Ïģ Î¿
Pri mary
Comple ted
Lib raries
åĪ Ĩ
>################################################################ ######<
SIG INT
ĠLocation ValueError
Month End
FLO OD
Ġ"+ _
instr len
(":", "
åŃ Ĺ
"+ "".
ENTI TY
dum mies
revert Class
ĠmaxExc Loc
/ -
A ng
C ases
E moji
S n
] ')
^ \
a ug
f val
w an
å Ģ
å ī
Ġp ointed
ss pec
Ġh key
Re moved
(' ('
00 4
Ġ{ **
ĠM aps
ĠB E
im mediate
Par sed
dict Entries
Ġnum ba
Ġsub mit
ĠEx port
Di v
ste vent
plo aded
Ġ[" _
Ġcolor bar
Ġlike lihood
stri pe
CHECK ER
ĠAny thing
real file
ĠString Property
19 1
Ġbehavi ors
ĠFile Mode
Ġ"- >",
dec ref
ĠRead Timeout
eps ilon
ĠArray s
([^ "]+)
ĠSh ift
UNI X
edu ce
ĠAppEngine Manager
pipe line
stab lish
ÐĲ Ð
ĠDown grade
ĠFileMode Warning
' '))<
5 20
G oogle
T P
a o
h andling
k urt
l bl
n gettext
r w
de coders
ar man
Ġf o
ge nshi
ame file
ul se
di strib
Ġ: **
key board
init ializer
ĠRe itz
ĠM SD
ange s
comp s
comp ilation
ĠV ideo
Ġout come
Con firm
=' .
Ġca iro
ĠCon flict
ket ch
100 000
FA V
]+ "
Connection Cls
pkg util
Ġselect ors
Pre processor
}) {
Ġfinal sub
TO O
SO L
('/ ')[
Ġord inary
alg os
ĠPeriod Dtype
train er
serial isable
pers istent
ĠEmpty PoolError
baz file
ĠSOCKS ProxyManager
pc build
ĠTimeout StateError
NTI TY
Ġcr ashed
Too Deep
Security Warning
Ġremain s
lu de
('.') [-
ĠFreq Order
Ġhyphe ns
SECON D
fort unately
mploy ee
7 49
I ON
M AT
S quare
b atches
p od
u u
er ro
de vel
Ġi a
me t
Ġre plied
Ġf ir
nd led
Ġ( .*
ul ators
ĠS HO
pec ified
() ",
Ġan im
ord ot
Ġy lim
ĠL ead
test er
IN SERTION
LE SS
group prober
Ġmax split
Base Adapter
win certs
Get CString
env s
ĠSec Keychain
Ġinvalid ate
vc runtime
Ġkeep db
(", ")<
virt ual
Ġaccur ately
amb da
CFString GetCString
ç» ĵ
VS InstallDir
BCS GroupProber
aria DB
Defaults HelpFormatter
B ert
P LE
W INDOW
c nx
e a
f ly
f lex
s amp
v p
Ñ Ħ
re trieve
Ġi reqs
Ġc sc
Ġc trl
Ġo paque
Ġin set
Ġis scalar
Re mote
py lab
ĠG AE
IN VALID
ĠH KEYS
add QuickElement
Ġsys id
lit ude
ME TRY
ST S
Ġtext s
row id
Ġper ms
Ġgener ators
Ġhash func
100 0000
TER M
Ġindent s
UR UM
Ġra ce
Group By
Ġrs a
fd open
Ġintern et
mem map
ĠWrap pedSocket
imag ing
frozen set
Geom Type
Ġremo val
Ġdecomp osition
ĠRot ation
cvt Color
sele vel
FAV ORITE
URUM I
( ""
- ",
4 22
7 55
D uplicate
I ANT
T ransp
V NA
f to
g f
n unique
x S
é Ļ
re he
st o
he size
Ġre corded
as a
and oc
Ġpro vision
ĠO bj
min ate
Ġdis cri
Ġneed ing
inter vals
be at
CT RL
round ing
comple ter
socket ios
ĠString s
ali en
ĠComp uting
SO LE
nom ask
compress or
>" .<
Import Export
LEN D
Script s
}' ")<
9999 9999
ĠEd it
Ġrespon ded
Tri e
Ġalphabet ic
listen ers
similar ity
Ġ"? "
Ġ'{}. {}'.
lea selevel
Ġbread th
URUMI BOT
) `.
+ `
- ')<
B P
C lock
C aching
P thDistributions
V ATE
j np
k Sec
n adata
p unycode
or ated
Ġf type
ur tos
def ining
Ġb d
Ġ' ]'<
---- --<
ul abel
Ġof ficial
set Seed
Ġv data
am big
ĠD river
ew m
Ġun buffered
[" __
Ġcomp ose
add Widget
Ġnew int
Ġfunction al
ant iate
like lihood
Di vision
Ġ(' _
Ġend rec
EN DS
ĠUn rewindable
Ġho lidays
Ġid nadata
AN SI
Un ique
Ġreg paths
old s
rid ge
ĠSet FileAttributes
Ġerr Sec
cert data
block ers
Ġblock ers
top ic
Ġtri vial
ĠString Builder
Ġ'_ '.<
velo ped
Tests Mixin
.* .
Ġforce x
rev ctrl
ĠSSL Connection
ĠSSL Protocol
assertRaises Regexp
ĠCF TypeID
Ġfix es
================================ ================
Body Error
ĠContent Checker
Like lihood
DAY S
Ver dana
VALID ATORS
Min imum
ĠMat hematical
Ġmp atches
Ġclo sure
Scheme Unknown
Supported Ciphers
ĠCFString Encoding
Callback View
Ġtransition s
SSLGet Number
SSLGet Negot
errSSL Internal
errSSL WouldBlock
aul ted
ProgramFiles x
FER RED
QUO TE
NetFx SdkDir
endor Importer
Ġang ular
EMB ED
ĠUnrewindable BodyError
SSLGetNegot iated
1 34
> ================================================================
J ohn
` ;
b rotli
c ant
j w
k ml
p w
v nd
z er
Ñ ħ
æ Ń
é ¢
Ĵ Į
Ġi ri
Ġc ritical
Ġf ro
Ġf rm
Ġs os
Ġd ok
ut s
Ġ1 10
ĠP lace
__( ):<
Ġg row
Ġpy mongo
Ġun quoting
ĠB Z
ec ycle
Ex tras
Ġdis covery
Ġac c
Ġav ail
win error
Ġ7 8
EX E
ĠAl ter
the y
Id x
Ġ'_ ').
66 9
Ġmon itor
Extra Data
([^ \
Ġqui rks
tk inter
Ġ199 9
ĠBack ward
Socket Error
Ġroll ing
ĠZip Info
Assoc iation
stu dent
"[ {
åº ¦
ä¿ ¡æ
ĠAnonymous Observable
addinfo url
CRTSdk Dir
Already Installed
ĠSandbox Violation
ç¾ ¤
) {
5 000
D ML
g raphene
p db
r le
Ġ ÏĢ
Ġre ent
Ġs kew
ge odetic
Ġas var
ĠI mmutable
Ġ0 8
Ġ+ -
to String
ĠA PP
Ġpro of
out f
([ ['
Ġpath list
ĠV ar
format ters
not ice
Res olve
Ġvari ation
Ġ"" ""
Ġcre dential
Ġ'' '\<
Ġrepresent ative
Comp osite
(- (?
Py CMSError
25 3
ds a
19 6
ĠSQL ParseError
Ġge ometries
month s
web socket
Protocol s
Package Name
ĠModule Type
Ð¾Ð ¼
ĠRequests Dependency
too litems
Ġjar aco
Ġaffect s
tre nd
ĠUninstall PathSet
ili ary
åĩ º
ATTRIBU TE
WR ONLY
ĠALI VE
ĠGzip Decoder
Ġadvant age
ĠRequestsDependency Warning
) //
> |
A p
G F
R atio
S ig
b xp
e uc
Ñ İ
Ġ ult
re serve
Ġp il
Ġo pens
as c
nt ype
di ted
get Data
get peercert
id at
con tract
ĠC ell
ĠF ire
ĠA lign
Ġle ap
([ ]),
ĠRe ce
Ġun suitable
dist name
us ually
ĠUn ary
Ġsame file
inter cept
be low
PI O
trans actions
pass phrase
Ġafter wards
Ġ9 1
eric a
ident ical
CF MutableArray
"\ ''<
ĠK URUMIBOT
PO L
PRO B
Ġsym metry
âķ ĳ
Ġder ive
Byte Size
ä¸ ĭ
ĠAd ding
TRI C
Ġhist or
Ġtreat ment
Ġappear ance
blue print
>################################################################ ###############<
Ġguarante es
hyp ot
/? #
Ġanalog ous
Bind ings
SecKeychain Ref
FillConsoleOutput Attribute
Dig its
aur ant
Extend s
ĠMSD N
ä¿¡æ ģ¯
) },<
4 000
E ggs
M ysql
N ER
_ ')
b cc
k os
q p
} ):<
ur y
ro te
Ġs lope
di es
Re tries
Ġde limited
pro tect
Ġ== .
Ġel lip
Ġget peercert
mo othing
ĠB ond
Ġad option
######## <
=' /
Ġcur rency
32 0
Ġopen id
Ġval or
ĠĠĠĠĠĠĠĠĠĠĠĠĠĠĠĠĠĠĠĠĠĠĠĠĠĠĠĠĠĠĠĠ ĠĠĠĠĠĠĠĠĠĠĠĠĠĠĠĠĠ
CO RE
Get Short
rel s
ĠK ind
TR C
ĠApp Data
Ġauto complete
Ġbit size
(?: \.[
omat ically
Lazy Object
Ġspe ak
Ġpe er
Ġ"! "<
ĠWeb Driver
cal ing
Ġ{}) '.
ĠOpt imization
Ġ'.. '
Ġ'! ']<
Ġbus iness
dns name
amel Case
éĽĨ ç¾¤
850 99
ĠEli za
( ())<
* |
B lack
H IDE
M QT
P andas
S um
h an
j ack
de serializer
Ġc ro
ur ally
nt ly
ul led
ve st
._ -
che by
Ġde leting
Ġget proxies
add Condition
Ġ5 18
module name
LE AC
Base Fix
Field Descriptor
ĠJ un
Ġdest inations
Not HTML
Requirement Command
(- [
ĠWindows Error
+) -
ĠInter active
29 4
Ġws char
posix path
Conflict Error
Note book
"/ ><
Ġmanip ulating
(?! \
Ġlisten ers
cra cy
MQT erminal
: "<
> --------<
C lasses
E DIT
I AL
S PE
d rain
r rule
w ave
x range
Ġ roman
le ad
Ġc flags
Ġc atalog
Ġn dtype
Ġin structed
as semble
Ġb lin
Ġb alance
ut ral
ĠT ell
ri cs
Ġas gi
Ġ[ ".
Ġth rows
Ġh h
Ġcon t
type code
pre amble
ĠD ouble
Ġg athe
Ġx d
Ġos crypto
assert List
ST D
Ġsp urious
Ġconstruct ors
ĠLo op
Stream Writer
mk time
ĠTh ings
Environment Error
ĠIN TEGER
Function Type
Comple tion
Ġclo sely
Getopt Error
ĠÎ± ÏģÎ¹
cred s
REQUEST ED
ĠUNI X
ĠRepresent s
("^ "
ĠFil ters
PARA MS
ĠXY Z
Ġclutter ing
GetShort PathName
Ġgathe red
G O
K EL
r ss
re ly
re ally
re amed
Ġs mar
__ =='
all ing
path list
um ing
ip o
dex p
In compatible
ity Error
word chars
FI ED
CO DER
Ġrepresent ations
ĠCh ars
ãģ Ĭ
Ġcover age
sock opt
From String
("' ")
He uristic
Ġadvance d
ĠResource Manager
Ġunquote Results
Ġconv olve
ĠMeta Data
AIL ABLE
Ġ------------------------------------------------ <
Ġprodu cing
Universal Detector
Requirements Error
ĠÎ¼Îµ ÏĦÎ±
aitama Robot
__==' __
! )?
M ixed
Q P
b st
e ous
g ist
h oc
ç ¬
re write
re leaselevel
st udio
al locate
Ġc compiler
Ġin struction
Ġfor bid
tr f
ĠS M
la unch
ĠC ross
res net
int erspersed
Ġde activate
># ----------------
ĠM asked
ĠL PAR
ĠL XML
In consistent
Ġ`` -
ĠG cf
Ġiter bytes
De precation
To WaitFor
strip ped
Comp ileError
Ġident ification
Ġtri ck
Ġ200 7
Ġsend all
ĠData Loader
)? (?
Ġhigh bit
ĠField DoesNotExist
('_ ',
ado op
PL U
ĠSimple WheelCache
Non Null
Algorithm Identifier
Ġ"~ /.
Incremental Encoder
Incremental Decoder
ç½ ®
xmlrpc lib
ĠSSLS ocket
Way ToWaitFor
Ġsmar ter
WayToWaitFor SocketError
' ')<
, #
3 15
B ANG
e very
n loc
s range
z i
ç §
re tain
Ġf val
Ġb es
__ (),
un compressed
get Attributes
set Debug
Ġ- (?
Ġres olving
() *
pre pend
ĠD id
Ġpro posal
ĠM ath
attr name
ĠL V
mo bile
parse All
ON S
tra versal
Ġro om
Ġprint Results
Ġany CloseTag
Pro blem
has keys
Ke ep
lock file
Ġend if
max Matches
max Mismatches
Ġstart loc
Ġmax args
copy Default
)) .<
Parse BaseException
[- _.
strip per
cor p
view values
view keys
save list
Ġconvert WhitespaceEscapes
sort er
PP ING
pert urb
Ġlin space
setdefault timeout
Ġclean ing
stop On
Ġdrop out
generator Type
tran eous
revision s
Lock File
ĠHe brew
inline LiteralsUsing
COMP ATIBLE
Ġfit ting
Ġfailure Tests
Ġnat urally
Ġnumer al
Ġsk ipt
ĠCaseless Keyword
ĠExec utable
Replace Pattern
WA Y
White Chars
escChar ReplacePattern
determin istic
éĩ ı
æŀ ľ
Ġise qual
Ġ"] ..."<
Mysql x
ĠEliza Robot
ĠChars NotIn
copyDefault WhiteChars
Ġskipt o
, **
A Y
I V
J U
O RE
T ab
W rites
h ybrid
t test
ç ±
Ġc file
Ġf loor
Ġn oscript
ra ce
Ġex pec
ĠI mplement
ĠC UR
Ġres ume
() }
() )):<
Ġde compressed
Ġal located
Ġ3 8
Ġx lim
ĠL ANG
Ġun modified
if act
Ġout msg
ĠG libc
Ġhe av
md ll
back slash
List ener
be cause
ating FileHandler
ĠDistutils GetoptError
Ġ100 0000
Ġpri marily
ĠComp arison
Build Environment
ĠMulti ValueDict
ĠReg EnumKey
ffici ency
alg o
Ġcp bot
kernel s
manifest s
Iterable View
44 3
Code point
Sh l
Ð¾Ð ´
ĠPo ssible
hand led
Soup Equals
push button
EV P
Ġdll wrap
ĠCode Type
Ġinc dirs
dic ated
ĠUninstall ationError
Big AutoField
ĠÐ½ Ð°
UPDATE S
Ġbureau cracy
ploaded File
ĠGlibc Version
D ERS
O nce
V irtual
b log
z ation
z ier
me ga
Ġre call
__ "]<
ĠT ornado
con sumer
() `.<
() )[
Ġde man
Ġde tections
Ġy p
Ġset item
Ġpre serving
min max
SE ARCH
ep hes
Ġsh ip
trans formed
ĠJ ohn
cent ery
BA UTH
]] ).
SQL Alchemy
mk nod
UM N
Ġmis c
Ġseek able
Ġ"$ ")<
è¯ ·
ĠDes criptor
ĠLinear Ring
ĠCho ice
+)? )
âĶĪ âĶĪ
Ġpen alty
Ġdeman ded
> %(
C ython
D ot
D HE
J PEG
S core
[ .
` +`
y i
he n
Ġc od
ur a
def n
Ġd z
Ġm ro
Ġu cs
Ġu math
ĠI Resource
Ġde letion
Ġde dicated
Ġx err
ho o
ir ation
nce stor
Ġclass Dict
ax s
"] ]
") ;<
use tex
:// '
config urator
Index CandidateInfo
are house
hash Cmp
11 5
Requirement Set
CHECK OUT
ear ly
Ġli ves
Ġresolve es
medi um
ĠQ Name
Ġmulti dimensional
Empty Provider
Ġrequire rs
ĠUser Model
SET UP
ÑĢ Ð°Ð
ĠAbstract MethodError
ĠEmpty Provider
Ġcollect ing
ĠDatabase Error
Ġcompress level
ĠST AT
ĠInterval Array
Imp Importer
startTag Head
Too Short
Req Extras
ĠZip Provider
Ġthumbnail s
ffff ff
za ar
ĠEgg Provider
Ġcancel led
Incremental Bar
Ġspell ing
Ġtrip les
instr ument
ĠConverting Tuple
Ġamp ers
Available Distributions
README S
Ġconcaten ation
bus day
ĠMemoized ZipManifests
Setuptools DeprecationWarning
Ġtroub le
://... ``)<
+)- (.*)")<
Shl Obj
BAUTH ORITY
ĠIResource Provider
TooShort Error
. ]))<
3 34
G en
V ec
b ullet
l able
n cols
o ct
æ Ģ
in compatible
Ġt a
de nd
de prec
Ġre cur
Ġs urrogate
ass ume
Ġv id
lin ing
Ġres ampling
Ġde pths
ĠD IR
Ġal ts
># ----------------------------------------------------------------
Ġma intainer
ĠL aTeX
time d
assert Greater
CH ANGE
AN K
PI X
ID C
gin f
transform er
ET WE
Ġra vel
Ð¸ ÑĤ
XML RPC
PACK AGE
tre ew
cancel led
3333 3333
Ġ---------------- <
Sys Font
Ġjo ints
NORM AL
ĠAct ually
SHE BANG
Ġeff ort
ETWE EN
' ``<
1 56
F Y
H z
] '),
e lect
h ull
m arshal
n est
n lp
s at
v onmises
å ĴĮ
Ġt x
st ors
Ġa w
Ġf ortran
lo oking
__ ]
get Attribute
ĠT ransport
Re moves
ĠC lause
Ġget Document
Ġget Fragment
Ġget FirstChild
our s
Ġch ance
ĠW ORD
po les
pp le
Ġ4 7
Ġnew str
Ġpr une
sub surface
ĠEx ternal
DE LI
max len
De tail
Ġ"< !
cmd s
Ġcopy fileobj
Ġ7 7
view items
AS CA
exp onent
ĠAr chive
LA ST
No tes
ĠDE V
ĠRequirement Tracker
Ġfragment Class
Ġbit depth
slice d
complex obj
)( .*
âĢ Ļ
COM MIT
Ġclone Node
decor ated
ALI VE
ÐµÐ ´
DEF INE
Release d
ues ses
Traceback Type
Am erica
ĠDisableAble CommandHandler
fto ver
assertList Equal
ç± »
B IO
I WRITE
R D
W INDOWS
b as
j wt
p ic
| |
Û Į
in compatibilities
Ġc rt
an ji
un able
ab la
ĠS w
ĠS pe
Ġ: (<
Ġ2 24
en velope
Ġde trend
Ġpar alle
#### ###<
ĠM orsel
assert SoupEquals
Ġcomp anion
char array
new str
File Object
Ġ\ (
Ġtrans actions
Ġtag ger
Ġ{} ,<
src dir
24 9
]* (
ered Updates
Ġtermin als
ĠChar set
ĠSpec ifies
Ġ*_ :
BUIL T
67 49
Ignore Area
ĠCode c
Ġcar ry
Ġquad rature
ĠassertSurfaceFilled IgnoreArea
("+ ",
Ġpag inator
ASCA DE
> !
A ncestor
G M
P acket
S ta
W ER
d os
p format
s hop
Ã ¤
le ak
Ġs id
Ġe levation
Ġw arns
nd all
il bert
is recursive
th ickness
Ġex perimental
set Data
od ay
Re quire
ĠC losed
ĠP LAT
ap it
Ġr values
Ġpar as
># :<
assert RegexpMatches
ĠW rong
Ġk appa
ĠR SA
'] ).
ast imezone
(_ ("
ĠUn recognizedFormat
Ġsp ine
ĠDi rectedGraph
temp d
Ġ[" -
trans Axes
sign atures
du pe
Ġsave s
Ġsave fig
ĠImage Draw
SH OW
ĠAdd s
ĠOption ally
ĠRequirement Parts
Empty Tag
Po ints
alt sep
29 6
Ġround trip
ĠWheel Distribution
System Details
endTag Colgroup
ĠDownload er
1111 1111
BRE AK
Domain BasicAuth
ĠBest CandidateResult
EXPORT S
('@ ',
Align ment
Ġoffe nders
ĠCent OS
ĠUpd ating
/ >`_
> -------<
C MYK
D om
N P
T runc
a iter
k df
w m
Ġ .<
Ġre written
Ġre curse
Ġo x
Ġ( "<
ers cript
get reader
Ġex traneous
ab eled
Ġcon tribute
ĠS elf
ĠS aitamaRobot
Ġfrom list
Ġme l
Ġse mantic
ĠRe cursion
ys ize
Ġen glish
01 00
Ġclass method
ĠR ank
:// /
item getter
SS ING
pack er
'. "
tag type
TER S
MO TE
ĠCh rome
Fun cs
ĠRE SET
77 77
Ġ"- ":
Ġvisit ors
ĠTrans lation
sprite collide
Ġ64 0
comm unity
Ġrepeated ly
Ph oto
('/') [-
(\. [
ae mon
æĸĩ ä»¶
ç® Ĺ
TimeZone Error
' """<
4 20
S DO
V IE
\ -
d ark
m ongodb
u med
Ã º
Ġ ////////////////////////////////////////////////////////////<
Ġt bl
Ġre names
Ġf data
Ġs quared
as d
Ġd vi
Ġ1 11
ĠC ert
Ġst age
Ġget Parent
sp ite
Ġx id
Con version
Ġbu gs
op acity
Ġover all
level name
are n
Class ification
No Dists
66 0
af k
track s
)( :
ĠBuild Tag
ðŁ į
.% (
ĠDatetime TZDtype
Ġplot ted
dat atype
Ġtr uly
assign ed
arm v
BL K
BL IC
ĠDocument Type
AF TER
Aut henticate
YY YY
ĠStruct ured
ĠPerform ance
âĶĥ âĶĥ
Rot atingFileHandler
ASSIGN MENTS
ĠOl der
" \.?
; &
C enter
\ ]
n i
re nd
Ġd u
Ġ" )")<
is null
get pid
ĠC S
ĠF lag
Ġde compress
qui ck
). ",<
parse Exception
Ex tent
Ġsub scription
lif ecycle
Ġsc i
Ġlog arithm
reg ating
Ġac cel
av atar
Ġ". /
ĠPro mpt
By Name
Ġretry ing
Bu ilt
comment Class
'^ [
CR YP
Ġproduct s
Ġimmedi ate
Ġdoctype Class
Ġmanip ulation
ĠMask s
Ġspect rum
Ðĺ Ð
Alt Name
magn itude
Quant ity
dri vers
Ġalgebra ic
(["\']) (?
# ----------------
. :<
@ @
C IP
F req
F mt
P erson
e levation
o ader
t series
å Ŀ
in Select
Ġre install
Ġre process
Ġc ra
pe z
il legal
un ck
get ChildNodes
ĠS creen
ĠI tems
en se
Ġget next
Ġget NodeDetails
sp herical
array type
kw s
Ġun indent
// (?:
Ġinst dir
instance check
read Stream
Ġ5 2
cache str
cache points
AR G
Name State
arch iver
Key Transform
ĠCon venience
new int
new args
ible Mixin
replace Cache
Ġcopy tree
encode Strict
Ġcolor key
000 9
insert HtmlElement
Time zone
Me ter
EP S
Form Feed
Info setFilter
Ġoriginal Phase
24 1
Ġnet works
Ġext rapolate
namespace HTMLElements
ĠHTML UnicodeInputStream
ob ile
Ġsite map
19 4
Wh ich
Ġexact Node
Ġcast ed
Ġrecord ing
Ġcommon Ancestor
Line String
Sub plot
generate ImpliedEndTags
Ġdrop Xmlns
EndTag NameState
spe ech
flush Characters
Ġanything Else
ws char
Ġenc ryption
Formatting Element
([^ }]*
('- '
System Id
Ġdistance s
Loop Counter
Hash Unsupported
Operator Lookup
vector ize
SSLSet ALPN
Ġgeom space
ĠNormalized Version
buffered Data
Insert FromTable
>[ #
Ġer ase
Public Id
Chunk Length
Ġfore ground
Split ter
Ġsubscri bers
ĠCSV Reader
Ġmysql x
Ġbom Dict
GDAL Exception
ĠLE GACY
scriptData State
Pub id
formatting Element
ENO UGH
MathML Attributes
getETree Tag
Ġrcdata Elements
prevent DoubleDashComments
delt as
ĠnameRest Output
ALGORITH M
Ġ"</ "})<
ĠgetParent Node
FormFeed Characters
SSLSetALPN Protocols
E asy
G T
H S
Z MQTerminal
b son
d ashes
o gra
r is
± Ĥ
å ·
in y
on line
Ġc ffi
ur andom
Ġp romote
Ġe mul
ge nder
lo gn
li ers
li ca
Ġm dates
ĠT AR
Ġex cel
Ġcon cer
ver ifiable
ĠA rea
Ġst o
pro vision
ĠD a
ĠD ig
ĠD ATA
xt icklabels
lic ations
Ġindex bytes
Ġser ving
ĠCon sole
)) ],
Ġ10 2
Ġ'. /
ĠĠĠĠĠĠĠĠĠĠĠĠĠĠĠĠĠĠĠĠĠĠĠĠĠĠĠĠĠĠĠĠ ĠĠĠĠĠĠĠĠĠĠĠĠĠĠĠĠĠĠĠĠ
000 8
EX CL
du cer
Ġentry point
CON TROL
VERSION S
ĠRegex Lexer
pk s
Ġplace ment
Input ObjectType
STR ONG
gon al
ĠAd just
nn z
locale s
sn ip
Ġrespect ive
Ġtab ulate
pub lished
haust ed
Writ ing
predi ction
pez oid
' `.<
) `.<
a A
Ġc pl
def path
Ġb zip
__ ['
Ġ( ["
is upper
ĠC ategories
ĠP df
Ġ2 40
en g
Ġr isk
tri angle
`` ;
col l
ĠW idth
us hed
ME N
Ġend for
tp l
Ġconfig urations
dd y
bin count
FO O
Ġsort er
PA X
posit ories
dis joint
Up dating
lex sorted
Ġ"{ !
ĠÎ ´
Import s
Ġgraph ics
alk ers
ja co
dat adict
Ġplay ing
sin ess
Ġeigen vectors
SUB TYPE
Chart Base
ĠParsed Line
åŃ ĺ
makeTime DataFrame
Typed Dict
Ġaccomm odate
Ġasgi ref
) >
2 14
> '.
B en
P lain
S cheduler
] ][
_ ",
` '
` ):
g ible
or ange
al gorithms
Ġf undamental
""" ,
ot rans
il it
ve cs
ri st
Ġcon strained
Ġu nd
py dist
py odbc
ĠA ction
pro xied
Ġan chors
ĠD ynamic
ns on
ĠE p
ĠRe name
tri angular
parse Fragment
ĠR outines
Ġ5 000
sub domain
Ġline sep
map ho
Ġper manent
close hook
Ġ'. '),
Un recognized
ĠURL conf
CT OR
Ġ... ])
Se g
ĠWord s
Ġjoin user
Ġstop ped
PA GE
BO X
Ġscale s
digest s
ĠGe om
Ġmultip lier
Template ResponseMixin
contiguous array
ĠColor Property
Ġclo ud
ĠON LY
kj d
ĠFixed Offset
Ã§ Ã£o
[^/ \\
Ġapparent ly
ĠEV ENT
' ",<
+ ([
+ [^-]*
, )))<
7 08
= $
> ----------<
G lob
G NUTYPE
X HDTYPE
k CFType
} ]"<
Ġ ^^^^
re dis
Ġi ou
al loc
mp o
Ġe moji
as GroupList
is reg
get members
get newargs
ment ions
', ',
Ġv ideos
ĠC HE
ĠP atterns
Ġnp hases
Ġget TreeBuilder
Ġget TreeWalker
ĠM ode
ĠM ag
data path
data sets
ĠL R
Ġcl usters
comp arable
Ġun initialized
read write
ĠH AND
Ġmatch Previous
Ġcur val
ĠEx FileObject
lob ber
log it
Ġdis ables
Ġpa y
Lo aded
YP I
TI FI
): (?
Ġwhere as
Ġzip ped
FA CE
Ġtemp path
ĠVersion Scheme
mon str
Ġlow links
ĠstartTag Input
------------ --<
ĠDo main
clip ped
OK U
Dist libException
Ġinternal s
go al
formed Hit
subplots pec
seq s
Ð¸ Ñģ
LIST FIELDS
product dir
IM IT
Cursor Result
Ġmac ver
ĠPo ints
ĠLe ft
BL P
Pri vile
ĠResource Finder
ĠBL P
ĠWAR RAN
[^> ]*
Ġfore ver
ĠRecord Path
ĠParsed Requirement
Ġextent s
mut ual
Ġreli ably
Ġ([' .
Ġstick y
GEO METRY
Ġ'~ '
subscri bers
ELEMENTS FIELD
Ġoauth lib
denom inator
Ġchk sum
-{} -
Pending Skip
Ġanalyz ing
ĠÎ±ÏģÎ¹ Î¸Î¼ÏĮ
abla j
"\.? (
regating Locator
B AN
C srfViewMiddleware
N L
R outer
T ok
e qui
g ar
n z
Ĭ Ĥ
pe ps
as m
Ġm f
Ġ" *.
ers ist
ch a
ĠS IDE
la place
to array
ĠF ed
ĠA V
ĠD ue
ĠD ir
ĠD imension
Ġpar ametri
Ġset color
tri ed
art beat
equal ity
Ġz i
end s
new buf
Ġsp ot
ĠDe pending
open apit
Ġfind ers
Ġcre ator
Class Error
Ġport ions
Pre cedence
Al ternative
]] ),
Ġcanonical ized
ĠRE TUR
ĠOpen api
Ð¾ ÑĤ
09 6
Named TemporaryFile
IME Text
Package s
Ġmis sed
Ġunset color
Ġdirection ality
accept s
Ġextend s
ĠPool Error
"^ ([
'} :<
Ġpercent age
fraction al
ĠPr ints
âĸĳâĸĳâĸĳâĸĳ âĸĳâĸĳâĸĳâĸĳ
Ġconj ugate
Ġprodu ctions
âĸĢ âĸĢ
tagFormat Simple
İ· åıĸ
openapit ools
/ \
2 0000
B R
G aussian
I Z
b fill
t put
ç Ń
er ated
st ops
le mbic
Ġc ext
Ġc words
ge th
un zip
from utc
con structed
ĠS cale
Ġbe nch
ĠC ER
ĠA mbiguous
#### <
Ġse quential
ĠH i
ST RI
md d
') ]
:// {
Key Dictionary
]) )[
Ġ6 7
Ġsy nchron
iler plate
pect ive
kg Resources
bytes wap
ph ysical
Ġroot dir
ĠPy Side
Ġ... "<
und le
An other
fail Unless
ED ERATION
Ġdown stream
85 7
Ġbind param
tool kits
Ġprec ise
jo e
Back ground
`_ .<
("[ {
ĠUN KNOWN
Ġfinish ing
Timedelta Index
FOR CE
è¿ Ľ
Ġincrement ing
Ġquad ratic
Ġ('- '
ĠIdent ity
ATTR S
Ġrefe rer
Ġ"@ "
ĠINST ALLED
ĠTH IS
Com bin
ĠDEPRE CATED
kgResources DeprecationWarning
G ithub
I PAddress
P ASSIVE
d raft
f ro
h store
s iz
s iblings
æ Ŀ
or i
de coding
he ap
Ġc nonce
ĠP C
bu siness
ow els
Ġpro files
). \<
ĠRe al
Ġby passed
Con sider
=' ')<
Ġro u
12 6
Ġformat ters
Tag Set
run cate
Ġdis connected
sh rink
ĠSet Console
ĠJ acobian
ĠPy game
Ġchange list
ĠPro grammingError
exp anded
Ġlib futurize
ĠZ ONE
Ġ200 4
CON STRUCT
Ġ'- '.
ĠK enneth
ðŁ ¤
Ġdescri bes
ND Array
ĠExtension s
ĠWh ite
free desktop
âĸĪ ')<
tw op
Ġtransp arency
Ġut s
mor ized
Ġenco d
ĠConstruct or
Ġrepeat s
ðŁĮ ķ
æľ ¬
Bad Request
ĠNORM ALIZED
Ġschedule d
attach ment
Ġquantile s
Ġindirect ly
Ġgran ted
ogra mdd
$ '
- {
8 11
; \
H ub
N AN
R oll
U ploadedFile
[ ['
m rec
Ġ ]+
Ġt il
Ġi deg
Ġf ilt
te arDown
Ġd ts
Ġ( ('
Ġ""" '
il s
ch op
tr il
Re parseException
ĠS K
Ġde structor
am i
Ġy d
kw doc
ĠL ex
AT AL
fe ac
Ġne gate
Ġ(' __
df num
source file
Un iform
:: -
56 52
AD CAST
Ġ{} )[
ose cond
Py Asn
TO DO
Ġ16 384
ĠendTag Imply
UR ATION
extract all
ĠSSL v
At taches
ug gest
PO SE
Spec ific
Ġserial izing
aa a
ym metric
roy den
tt l
NAMES PACE
Bot tom
REF COUNT
general ized
ĠstartTagTable Cell
ĠendTagTable RowGroup
Ġ"| ".
Ïĩ Îµ
Ġaio gram
ĠstartTagNo frames
CLI ENT
8 01
= (",",
C ard
F ake
S ync
h ar
i mplements
v string
le igh
Ġre create
Ġre lying
Ġn pt
ro k
Ġs lot
Ġin spection
Ġb ub
ut ations
str path
ex tarea
Ġdi rected
ow ski
Ġpro cedure
ub y
Ġma chinery
Ġare as
ĠB ug
ĠG ood
Con verting
ix or
ĠH z
Tag ger
ne kos
Ġho mo
local ized
warn ed
LO CALE
org an
Any Str
patch ing
ĠZ MQ
KE EP
ĠComp uter
Ġ201 6
pat ient
PO SIX
Metadata Error
af m
ffective Level
gb an
}' "<
Î¹ Îº
Geometry Field
LOG ICAL
Max imum
Ð°Ð »
ĠSpatial RefSys
åĲ ¦
inher its
ĠÎ± ÏĢ
sph eroid
ĠBU F
Ġassump tion
GENER IC
Ġath lete
ĠÏĦÎ· ÏĤ
éĥ ¨
, _
G n
R Y
_ (_
` ),
e per
g al
h b
j kl
s lot
Ð ·
Ķ åĽŀ
in fix
Ġi py
Ġre order
Ġp unct
as df
Ġb ail
ex clusion
Ġ[ --
type def
ĠS witch
to urf
Ġ` --
ist ed
ĠD ROP
os ing
ĠE xt
Ġ** _
string like
ir th
=' '
Type Var
Ġwork book
Ġtra iler
sign ing
Ġnormal izes
non linear
Ġali en
mon o
Ġpool ing
Ġdecode s
CON NECT
ĠTO ML
Tra ining
ĠSub plot
cap abilities
Ð¸ ÑĢ
Ġ"{} ".
Hash Algorithm
ĠMySQL db
Ġcatch ing
cd rom
Web Agg
Ġrespon d
Ġsn apshot
confirm ation
è¿ ĶåĽŀ
ðĿ ĵ
Ġpiece wise
Ġanaly se
ĠMongo Client
âĶ³ âĶ»
Ġaal ine
ABCDEFGHIJKLMNOPQRSTUVWXYZ abcdefghijklmnopqrstuvwxyz
åĢ ¼
twop hase
" ?
# ------------------------------------------------------------------------------<
. """)<
F ri
F low
L ight
S witch
[ ("
er ase
st ored
Ġi mt
al tered
al ks
Ġf ld
as cade
Ġw ont
li fe
ad a
un escaped
form ula
ca iro
ĠN ON
ĠN PY
01 2
lat itude
ĠIn verse
ĠR ad
Ġpr inter
end points
plo rer
'. ')<
ick name
db name
Ġcopy file
\\ '
of lush
hes ized
Ġ{} .
15 7
namespace d
bound aries
download er
Ġ"\ "
User name
pat s
90 9
Ġxml ns
Valid ate
tens ity
comb inations
recursive ly
Ġface s
El lipsis
Ġconsider ations
ðĿ ķ
Corpus View
BK DF
ĠPl ugin
. ).<
B MP
B ook
K nown
S aving
T W
U ndo
V OID
c ElementTree
h ms
Ð ±
Ġt iming
Ġn full
def inite
Ġd h
ra b
Ġm si
---- --
is superset
val sh
and o
ĠI ns
ip address
Ġ2 14748364
00 20
lib Encoder
Ġal locate
ĠE sc
ĠE PS
error handler
Ġpy CMS
Ex tended
mat lib
"] }<
Ġsub script
") ;
start s
Ġ"< =",
File Cache
Base Distribution
tag Set
Ġ(" *",
datetime s
Dict Encoder
Array Separator
istr ies
}) '.
Path libEncoder
Cache Control
Ġinitial izing
('. ')))<
sw eep
Ġtorch vision
gre edy
pad x
Link Source
From Page
Ġcoe ff
Be autiful
So cks
ĠAbstract Provider
Ġenc rypt
product s
ĠCandidate Version
Pr ints
inc r
Toml Decoder
ĠEnt ity
Ġ'â ¡
ĠFloat Field
feed ing
ĠIssue s
Ġretain ed
Inline DictEncoder
Ġreject s
ĠInline TableDict
Ġbus day
Ġbrow n
Numpy Encoder
Ġaddto retval
Ord inate
ĠObj C
ĠRecursion Error
TIFI CATE
ArraySeparator Encoder
- ":<
3 128
A nswer
y n
at o
Ġs ponsor
ra per
Ġis ort
ol erance
ab if
set flags
ĠS uch
par agraph
ĠP ID
ĠP ending
ĠF x
ray leigh
ĠE ven
tri eval
Con tact
ĠH aving
Ex clude
ĠR BRACKET
ĠR uss
for bid
op name
Frame s
To ggle
call params
ak a
return ed
non yms
]+ ")<
ĠImage s
For ce
ĠLo gger
down cast
Ġdown cast
Ġsel l
ĠPackage Set
He brew
BE HA
Sign er
Ġide al
Ð°Ð ¿
Ġshare y
getE ffectiveLevel
Ġ================================================================== ===<
éĹ ´
mapho re
ĠGeom Output
ĠÎ±ÏĢ ÏĮ
abif lags
" `
` .)<
h f
h ls
t win
| [^\
â ĺ
è §
er cing
st uff
al an
ur ther
Ġp ep
Ġp ulled
Ġe type
Ġb m
li que
li ze
ort ion
ĠT ick
py w
pre loaded
list like
Ġpro totypes
ĠE lectric
Ġx xx
Ġ`` /
po isson
ĠV T
ĠG MT
ĠH ave
ĠH ell
Ġup cast
check sum
ari an
Ġcase d
Ar ch
cmd name
Test ing
ĠTest DataFrame
ID DEN
CO DERS
FF SET
Ġzip f
Qu artz
GE vent
dt d
entry point
Ġpost al
ob serve
URL CONF
const s
Ġresolve s
dis allow
Dis covery
:- [
Ġdetermin istic
Ġtick er
ä¸ Ĭ
Package Set
Ġthrow ing
My Array
Ġcy cler
Ġinstant iating
NUM ERIC
Ġrepe t
Database Error
Ġhidden imports
ĠSh orten
cm c
Ġblank s
ĠToml DecodeError
ĠAR RAY
ABCDEF abcdef
VI OR
Ø§ Ù
ĠÏĥÏĦÎ ¿
simp lify
MARK DOWN
ĠMiddleware Mixin
('$ $',
arcs in
åī į
) (<
= ([
B rackets
K ubernetes
L ang
L arge
_ '<
f lo
g rp
m X
q lite
} ),
Ġ )))<
re names
er ived
Ġt ck
Ġf ocus
Ġp od
pe ts
as contiguousarray
Ġd B
Ġm n
un ge
ol ar
Ġ_ `
en te
en tence
py obj
Ġde li
ĠA ST
Ġan n
Ġan nounce
Ġg ca
Ġpro totype
vi te
ok ay
Ġtry Parse
': ['
ump tion
da e
To Speech
Ġover writing
02 00
UN IT
node Name
wo ard
post process
ĠPro file
CF WS
+) _(
IL L
Ġpixel array
Ġlimit ations
37 6
45 4
Ġclone d
Su ffix
Ġvector ized
Conflict ing
Ġhard code
Ġpredicate s
[... ]``
ĠAuthor ization
AMP LE
EXIST S
Ġ~~~~~~~~~~~~~~~~ ~~~~
Place holder
Ġhyphe n
Ġwa its
Ġprece ding
ĠPRI MARY
Ġsole ly
Ġcod er
Tok yo
" ``.<
, @
A re
F L
F onts
[ ()],
b acked
b asis
c n
g il
p ot
v t
Ä ħ
Ġre nders
Ġw av
nd at
Ġif ft
Ġfor k
is s
ch ained
Ġth ought
ĠS ent
file thing
Ġst ay
Ġr strip
Ġget headers
ĠE mulate
ĠM ID
ĠM ariaDB
Ex cel
ber g
Ġ5 7
') "<
inal g
ĠDe al
ĠDe cl
temp file
cen ted
ific ations
Ġfin ishes
term width
Command s
15 8
Ġview er
ĠRes pon
ĠImage Font
For Key
ĠK le
Ġtmp v
Dir Error
Ġedge colors
coerce Key
ĠIN FO
serial izable
Ad just
Ġoptim izing
Su bject
account s
writ ers
Ġdat atypes
Represent ation
ĠTimeout Error
Ġ26 16
åĪ °
>{ }</
('\\ \\
Cor rect
Replace ment
AV AILABLE
LANGUAGE S
ENABLE D
Ġconcaten ated
Compat ible
Ġdefer rable
Ho oks
hib it
æ¨ ¡å
geth ost
dae mon
! ',
! '<
( \.\
) })
, ))
; ")<
_ ]<
k n
p aper
Ġe uc
ul us
un m
Ġh p
Ġde veloped
ĠA udio
Ġg rant
Ġon mt
ĠO gg
Ġsup erscript
ĠW ell
move axis
mat ic
Ġk r
ĠR aster
sub st
') }<
Ġj ava
spec ify
ari os
we ibull
gra ined
16 6
whe ther
trans formation
55 55
debug Actions
Data Source
Ġtar ball
NAME D
Ġdifferent iation
PY TER
US H
]* <
zero dim
...) "
View Set
Ġsuffix ed
Ġordered dict
Ġgre y
cr ispy
Ġaddition s
ĠArgument Parser
Access or
NODE LAY
âľ ¨
SECU RITY
Ġthink ing
Ġ'.. ',
Ġ655 35
Interpol ator
ĠSOUR CE
LETT E
" ></
$ |
) ^
B anned
C red
G uard
T ube
n fev
p as
al m
Ġp romise
it ivity
as sembly
Ġb py
""" ^
Ġ( ~
di rections
un redirected
ĠT witch
Ġco ol
Ġal ert
ĠE specially
ĠL ong
Ġen g
ĠW eek
tent ity
ĠR ound
Pro p
end if
Ġser vices
match obj
lt i
FA I
Ġdest file
200 4
Ġio loop
USER EVENT
Ent ities
Extension List
ðŁ ħ
ĠSub sequent
Ġorigin s
ĠField Error
APP ENGINE
ĠComb ined
Ġinstr ument
(", ")]<
ĠInt errupt
Null Handler
Ġ\\ [
ĠInterval Dtype
Pri ce
ban ner
ä» »åĬ
Opt imizer
ĠUnpack Exception
ĠSafe Data
ĠSci ence
Ġmal icious
Ġpostgres ql
Ġaggreg ation
uli an
å½ ķ
ĠThreadPool Executor
ĠJson Response
deprec ators
+ _
= "")<
B l
C hain
S pawn
b on
f min
Î ²
é ħ
in correct
re den
def rag
Ġw q
Ġm ist
Ġ""" *
ĠT T
ĠT RI
Ġex ited
Ġco lored
Re name
py config
Ġde reference
Ġ3 84
ĠN agle
RE TRIES
mat rices
place ment
acke ts
TT YPE
Ġ-- %
Ġneed le
Ġcor relate
ID ER
TH READ
ĠPy Socks
AS ON
NT LM
Path s
IG H
ĠInstall ation
Ġevery where
Gener ally
ĠValue Set
Ġ'{ !
Ġkernel s
Ġown ed
("< ")<
+- ]\
ĠFormat Error
TEST S
sheet s
ĠBu ffered
sequent ial
air s
ens ors
ĠWAR N
æĸ ¹
edi ted
Used Container
mv ms
ĠInsert s
Ġdri ven
Ġant iali
DATABASE S
CRI TICAL
Enc ryption
ĠGENER ATED
cently UsedContainer
CONTA INS
[...]
