{"<s>":0,"<pad>":1,"</s>":2,"<unk>":3,"<mask>":4,"!":5,"\"":6,"#":7,"$":8,"%":9,"&":10,"'":11,"(":12,")":13,"*":14,"+":15,",":16,"-":17,".":18,"/":19,"0":20,"1":21,"2":22,"3":23,"4":24,"5":25,"6":26,"7":27,"8":28,"9":29,":":30,";":31,"<":32,"=":33,">":34,"?":35,"@":36,"A":37,"B":38,"C":39,"D":40,"E":41,"F":42,"G":43,"H":44,"I":45,"J":46,"K":47,"L":48,"M":49,"N":50,"O":51,"P":52,"Q":53,"R":54,"S":55,"T":56,"U":57,"V":58,"W":59,"X":60,"Y":61,"Z":62,"[":63,"\\":64,"]":65,"^":66,"_":67,"`":68,"a":69,"b":70,"c":71,"d":72,"e":73,"f":74,"g":75,"h":76,"i":77,"j":78,"k":79,"l":80,"m":81,"n":82,"o":83,"p":84,"q":85,"r":86,"s":87,"t":88,"u":89,"v":90,"w":91,"x":92,"y":93,"z":94,"{":95,"|":96,"}":97,"~":98,"¡":99,"¢":100,"£":101,"¤":102,"¥":103,"¦":104,"§":105,"¨":106,"©":107,"ª":108,"«":109,"¬":110,"®":111,"¯":112,"°":113,"±":114,"²":115,"³":116,"´":117,"µ":118,"¶":119,"·":120,"¸":121,"¹":122,"º":123,"»":124,"¼":125,"½":126,"¾":127,"¿":128,"À":129,"Á":130,"Â":131,"Ã":132,"Ä":133,"Å":134,"Æ":135,"Ç":136,"È":137,"É":138,"Ê":139,"Ë":140,"Ì":141,"Í":142,"Î":143,"Ï":144,"Ð":145,"Ñ":146,"Ò":147,"Ó":148,"Ô":149,"Õ":150,"Ö":151,"×":152,"Ø":153,"Ù":154,"Ú":155,"Û":156,"Ü":157,"Ý":158,"Þ":159,"ß":160,"à":161,"á":162,"â":163,"ã":164,"ä":165,"å":166,"æ":167,"ç":168,"è":169,"é":170,"ê":171,"ë":172,"ì":173,"í":174,"î":175,"ï":176,"ð":177,"ñ":178,"ò":179,"ó":180,"ô":181,"õ":182,"ö":183,"÷":184,"ø":185,"ù":186,"ú":187,"û":188,"ü":189,"ý":190,"þ":191,"ÿ":192,"Ā":193,"ā":194,"Ă":195,"ă":196,"Ą":197,"ą":198,"Ć":199,"ć":200,"Ĉ":201,"ĉ":202,"Ċ":203,"ċ":204,"Č":205,"č":206,"Ď":207,"ď":208,"Đ":209,"đ":210,"Ē":211,"ē":212,"Ĕ":213,"ĕ":214,"Ė":215,"ė":216,"Ę":217,"ę":218,"Ě":219,"ě":220,"Ĝ":221,"ĝ":222,"Ğ":223,"ğ":224,"Ġ":225,"ġ":226,"Ģ":227,"ģ":228,"Ĥ":229,"ĥ":230,"Ħ":231,"ħ":232,"Ĩ":233,"ĩ":234,"Ī":235,"ī":236,"Ĭ":237,"ĭ":238,"Į":239,"į":240,"İ":241,"ı":242,"Ĳ":243,"ĳ":244,"Ĵ":245,"ĵ":246,"Ķ":247,"ķ":248,"ĸ":249,"Ĺ":250,"ĺ":251,"Ļ":252,"ļ":253,"Ľ":254,"ľ":255,"Ŀ":256,"ŀ":257,"Ł":258,"ł":259,"Ń":260,"ĠĠ":261,"ĠĠĠĠ":262,"ĠĠĠ":263,"ĠĠĠĠĠĠĠ":264,"se":265,"in":266,"re":267,"on":268,"er":269,"or":270,"at":271,"Ġt":272,"><":273,"st":274,")<":275,"Ġ=":276,"de":277,":<":278,"Ġa":279,"sel":280,"self":281,"ĠĠĠĠĠĠĠĠĠĠĠ":282,"Ġi":283,"me":284,"le":285,"al":286,"ar":287,"he":288,"ion":289,"\"\"":290,"Ġre":291,"Ġc":292,"Ġf":293,"ur":294,"--":295,"Ġp":296,"):<":297,"Ġself":298,"te":299,"Ġn":300,"pe":301,"ro":302,"an":303,"mp":304,"ct":305,"def":306,"Ġo":307,"ing":308,"Ġs":309,"Ġe":310,"Ġin":311,"ge":312,"Ġthe":313,"ame":314,"it":315,"as":316,"nt":317,"ce":318,"ĠĠĠĠĠĠĠĠ":319,"urn":320,"turn":321,"Ġ#":322,"Ġb":323,"Ġd":324,"ue":325,"Ġdef":326,"ut":327,"lo":328,"Ġw":329,"__":330,"Ġreturn":331,"\"\"\"":332,"nd":333,"Ġif":334,".<":335,"ra":336,"Ġ'":337,"li":338,"co":339,"Ġm":340,",<":341,"Ġ\"":342,"ort":343,"ate":344,"str":345,"pt":346,"fi":347,"Ġ(":348,"ot":349,"Ġis":350,"----":351,"Ġ\"\"\"":352,"one":353,"ser":354,"ke":355,"ype":356,"ul":357,"Ġto":358,"il":359,"ve":360,"ad":361,"di":362,"name":363,"Ġfor":364,"mport":365,"is":366,"ers":367,"ĠĠĠĠĠĠĠĠĠĠĠĠĠĠĠ":368,"th":369,"val":370,"None":371,"ch":372,"un":373,"get":374,"rom":375,"ass":376,"._":377,"up":378,"ĠT":379,"ri":380,"ath":381,"ck":382,"ol":383,"Ġex":384,"cl":385,"Ġof":386,"ab":387,"Ġas":388,"es":389,"ult":390,"Ġ\"\"\"<":391,"]<":392,"Ġ_":393,"ment":394,"ex":395,"set":396,"qu":397,"ror":398,"Ġnot":399,"ter":400,"ption":401,"Ġ[":402,"ss":403,"el":404,"Ġth":405,"id":406,"Ġimport":407,"Ġ1":408,"Ġand":409,"od":410,"ata":411,"ĠNone":412,"Ġ-":413,"ect":414,"()<":415,"value":416,"',":417,"ed":418,"all":419,"ation":420,"##":421,"ase":422,"ma":423,"sert":424,"ile":425,"Ġh":426,"and":427,"from":428,"(\"":429,"ith":430,"))<":431,"tr":432,"gs":433,"class":434,"Ġcon":435,"ersion":436,"path":437,"con":438,"Ġco":439,"\",":440,"type":441,"Re":442,"Ġdi":443,"ĠS":444,"Ġbe":445,"rror":446,"Ġu":447,"Error":448,"par":449,"ted":450,"um":451,"orm":452,"Ġv":453,"able":454,"Ġor":455,"la":456,"--------":457,"ĠI":458,"ĠC":459,"Ġ0":460,"iz":461,"bj":462,"ĠP":463,"che":464,"ction":465,"Ġ+":466,"Ġ*":467,"to":468,"pec":469,"res":470,"ime":471,"ĠĠĠĠĠĠĠĠĠĠĠĠĠĠĠĠ":472,"Ġstr":473,"('":474,"lin":475,"Ġ`":476,"age":477,"Ġ:":478,"ver":479,"ip":480,"ise":481,"Ġres":482,"Ġlo":483,"est":484,"Ġ2":485,"()":486,"int":487,"key":488,"Ġ__":489,"en":490,"Ġtype":491,"py":492,"ĠF":493,"Ġde":494,"ack":495,"ap":496,"rue":497,"fo":498,"ig":499,"ĠA":500,"file":501,"ray":502,"Ġname":503,"per":504,"pre":505,"bu":506,"Ġwith":507,"list":508,"Ġst":509,"ode":510,"Ġr":511,"pro":512,"__(":513,"form":514,"ta":515,"url":516,"Ġvalue":517,"import":518,"args":519,"ly":520,"ist":521,"Ġar":522,"que":523,"dex":524,"Ġfile":525,"ive":526,"Ġ%":527,"Ġan":528,"Ġ==":529,"alse":530,"raise":531,"am":532,"\")<":533,"ĠD":534,"00":535,"Ġpar":536,"(<":537,"Ġassert":538,"Ġg":539,"ns":540,"lib":541,"xt":542,"ize":543,"ic":544,"dir":545,"Ġal":546,"et":547,"ou":548,"),":549,"Ġnp":550,"eld":551,"Ġfrom":552,"ow":553,"bject":554,"Ġme":555,"Ġel":556,"Ġthat":557,"ord":558,"Ġget":559,"sp":560,"Ġelse":561,"\"\"\"<":562,"Ġpro":563,"Ġle":564,"qual":565,">#":566,"os":567,"mple":568,"Ġ->":569,"ub":570,"code":571,"')<":572,"inst":573,"qui":574,"ry":575,"vi":576,"Ġtest":577,"ht":578,"ure":579,"ance":580,").":581,"####":582,"],":583,"ew":584,"Ġse":585,"sed":586,"Ġ{":587,"])<":588,"mm":589,"atch":590,">>":591,"ault":592,"Ġraise":593,"ind":594,"ib":595,"\"<":596,"Ġ)<":597,"version":598,"ies":599,"Ġon":600,"text":601,"Ġ3":602,"ĠO":603,"..":604,"out":605,"ag":606,"Ġy":607,"put":608,"init":609,"ext":610,"date":611,"ite":612,"ca":613,"ool":614,"==":615,"ptions":616,"ty":617,"Ġset":618,"our":619,"([":620,"array":621,"util":622,"Ġthis":623,"ĠE":624,"ĠRe":625,"ms":626,"ĠM":627,"ule":628,"Ġby":629,"ild":630,"ys":631,"Ġma":632,"ĠĠĠĠĠĠĠĠĠĠĠĠĠĠĠĠĠĠĠ":633,"Ġresult":634,"tri":635,"kw":636,"'<":637,"data":638,"rect":639,"thod":640,"Ġit":641,"quest":642,"Ġx":643,"Ġos":644,"gg":645,"attr":646,"ther":647,"red":648,"ff":649,"ĠL":650,"thon":651,"mo":652,"oc":653,"Ġ@":654,"ho":655,"ĠN":656,"pr":657,"info":658,"``":659,"ace":660,"col":661,"Ġpath":662,"In":663,"Ġ<":664,"time":665,"ĠThe":666,"),<":667,"odule":668,"head":669,"Ġare":670,"ange":671,".__":672,"ource":673,"ator":674,"art":675,"ifi":676,"ok":677,"Ġ``":678,"ield":679,"low":680,"equal":681,"ary":682,"ore":683,"Ġversion":684,"ĠU":685,"ken":686,"ha":687,"Ġdata":688,"line":689,"ĠTrue":690,"Ġwe":691,"Ġcl":692,"Ġlist":693,"ial":694,"rent":695,"assert":696,"pected":697,"cept":698,"tes":699,"Ġpre":700,"om":701,"Ġkey":702,"error":703,"Ġen":704,"mmand":705,"ĠFalse":706,"----------------":707,"ill":708,"lement":709,"fig":710,"Ġch":711,"Ġl":712,"loc":713,"Ġpy":714,"comp":715,"test":716,"Ġun":717,"True":718,"ac":719,"rame":720,"pen":721,"oin":722,"ution":723,"ory":724,"pend":725,"sc":726,"Ġcan":727,"utils":728,"Ġsup":729,"Ġ**":730,"arn":731,"ĠW":732,"if":733,"//":734,"Ġinst":735,"Ġobject":736,"sing":737,"ĠB":738,"ust":739,"kwargs":740,"ded":741,"=\"":742,"ER":743,"Ġfun":744,"Ġcol":745,"Ġother":746,"act":747,"ated":748,"Ġstring":749,"po":750,"valid":751,"join":752,"ĠV":753,"cess":754,"instance":755,"Ġhas":756,"string":757,"Ġwhe":758,"read":759,"ding":760,"Ġtry":761,"quire":762,"tern":763,"im":764,"ave":765,"Ġwh":766,"ec":767,"01":768,"his":769,"Ġout":770,"index":771,"',<":772,"Ġlen":773,"Ġat":774,"ĠG":775,"}<":776,"ent":777,":`":778,"pon":779,"strib":780,"mb":781,"nect":782,"\",<":783,"Con":784,"ps":785,"[\"":786,"':":787,"ine":788,"Ġexpected":789,"():<":790,"ang":791,"ix":792,"stribution":793,"ir":794,"lat":795,"IN":796,"uld":797,"Ġuse":798,"\":":799,"ssion":800,"Ġdo":801,"fun":802,"ts":803,"ity":804,"append":805,"parse":806,"fix":807,"Ġdefault":808,"ackage":809,"dist":810,"Ġloc":811,"False":812,"ĠH":813,"format":814,"heck":815,"us":816,"RE":817,"param":818,"Ġexcept":819,"uple":820,"Ġisinstance":821,"ON":822,"ptional":823,"np":824,"['":825,"iter":826,"Ġwill":827,"Ġdist":828,"Ġcomp":829,"rap":830,"odel":831,"alue":832,"Ġspec":833,"move":834,"Ex":835,"pla":836,"ound":837,"ĠThis":838,"len":839,"Ġbu":840,"roup":841,"AT":842,"ception":843,"unt":844,"ponse":845,"add":846,"Ġ>>":847,"quirement":848,"options":849,"tent":850,"ans":851,"ĠIf":852,"Ġso":853,"ython":854,"load":855,"Ġurl":856,"ign":857,"size":858,"so":859,"Ġ>>>":860,"mat":861,".\"\"\"<":862,"Ġad":863,"nce":864,"pp":865,"tribu":866,"der":867,"ll":868,"########":869,"Ġ4":870,"ument":871,"Ġall":872,"word":873,"Ġnew":874,"ner":875,"Ġsys":876,"Ġno":877,"ĠReturn":878,"Ġtime":879,"mage":880,"arning":881,"perty":882,"ree":883,"ask":884,"ĠIn":885,"Ġ.":886,"='":887,"min":888,"ber":889,"by":890,"nection":891,"link":892,"ĠĠĠĠĠ":893,"port":894,"abel":895,"dent":896,"ssage":897,"ript":898,"lease":899,"rite":900,"ition":901,"lic":902,"OR":903,"Ġpass":904,"coding":905,"Ġclass":906,"Ġmethod":907,"bo":908,"ax":909,"base":910,"\"]":911,"lit":912,"Ġk":913,"Ġmatch":914,"ump":915,"Ġca":916,"Ġint":917,"Ġfunction":918,"ml":919,"led":920,"tain":921,"result":922,"====":923,"64":924,"ard":925,"pa":926,"Ġ..":927,"tra":928,"ĠR":929,"loat":930,"object":931,"hould":932,"dtype":933,"Ġrequest":934,"req":935,"']":936,"field":937,"fe":938,"clu":939,"Ġax":940,"Ġarray":941,"'t":942,"Par":943,"ark":944,"Ġdtype":945,"reate":946,"ft":947,"Ġpr":948,"oth":949,"Ġindex":950,"own":951,"ME":952,"ally":953,"Ġ>":954,"ron":955,"mpl":956,"adata":957,"Type":958,"Ġ[]<":959,"cur":960,"func":961,"method":962,"'s":963,"property":964,"Ġ5":965,"ork":966,"with":967,"dict":968,"Ġne":969,"ting":970,"default":971,"uth":972,"Ġro":973,"Ġcheck":974,"Ġprint":975,"Ġhe":976,"Ġnum":977,"no":978,"ample":979,"vent":980,"Ġhead":981,"rectory":982,"Ġuser":983,"num":984,"Ġused":985,"alueError":986,"Ġshould":987,"da":988,"Ġtoken":989,"place":990,"tring":991,"Ġsub":992,"module":993,"space":994,"lif":995,"ream":996,"Ġdf":997,"for":998,"Ġcur":999,"ST":1000,"Ġpip":1001,"obj":1002,"Ġpo":1003,"build":1004,"hape":1005,"cache":1006,"vel":1007,"wa":1008,"Ġbase":1009,"uct":1010,"md":1011,"[:":1012,"Ġarg":1013,"nc":1014,"Ġz":1015,"Ġvalues":1016,"app":1017,"Ġup":1018,"\")":1019,"teg":1020,"user":1021,"St":1022,"ght":1023,"iven":1024,"sub":1025,"Ġparse":1026,"Ġerror":1027,"face":1028,"Ġany":1029,"Ġbool":1030,"ars":1031,"Ġmodule":1032,"use":1033,"ich":1034,"ant":1035,"arg":1036,"Pro":1037,"')":1038,"not":1039,"ĠĠĠĠĠĠ":1040,"ail":1041,"start":1042,"arget":1043,"ery":1044,"ĠPar":1045,"ĠPython":1046,"32":1047,"Ġtm":1048,"12":1049,"ĠEx":1050,"Ġsuper":1051,"Ġdate":1052,"Ġline":1053,"LE":1054,"tadata":1055,"ango":1056,"jango":1057,"://":1058,"latform":1059,"like":1060,"AR":1061,"Ch":1062,"has":1063,"nsion":1064,"viron":1065,"Di":1066,"Ġcall":1067,"orted":1068,"inal":1069,"ters":1070,"Ġelif":1071,"op":1072,"try":1073,"ull":1074,"Ġformat":1075,"Name":1076,"back":1077,"pression":1078,"clude":1079,"pos":1080,"install":1081,"Ġj":1082,"gger":1083,"split":1084,"state":1085,"Ġ(<":1086,"**":1087,"Ġla":1088,"())<":1089,"spec":1090,"tribute":1091,"Ke":1092,"map":1093,"Tag":1094,"acke":1095,"config":1096,"right":1097,"check":1098,"Ġone":1099,"Ġgiven":1100,"((":1101,"Ġhave":1102,"release":1103,"ste":1104,"frame":1105,"Co":1106,"Ġfield":1107,"SE":1108,"Ġwhich":1109,"DE":1110,"arch":1111,"types":1112,"gth":1113,"end":1114,"lock":1115,"Ġ('":1116,"10":1117,"Ġiter":1118,"Return":1119,"group":1120,"Ġsc":1121,"alled":1122,"request":1123,"Ġite":1124,"Ġend":1125,"umpy":1126,"andl":1127,"Ġ+=":1128,"command":1129,"values":1130,"max":1131,"Ġcode":1132,"Ġonly":1133,"Ġspecifi":1134,"ĠOptional":1135,"gener":1136,"Ġfiles":1137,"String":1138,"Ġ!":1139,"ute":1140,"msg":1141,"teger":1142,"ide":1143,"Ġstart":1144,"tp":1145,"SI":1146,"Ġtext":1147,"Ġab":1148,"Ġadd":1149,"parser":1150,"Key":1151,"count":1152,"mpty":1153,"Ġ!=":1154,"icode":1155,"lob":1156,"ations":1157,"ĠĠĠĠĠĠĠĠĠĠĠĠĠĠĠĠĠĠĠĠĠĠĠĠ":1158,"Ġwhen":1159,"Ġser":1160,"other":1161,"ari":1162,"Ġht":1163,"ternal":1164,"Ġoutput":1165,"run":1166,"],<":1167,"ress":1168,"Ġpackage":1169,"Element":1170,"Ġoptions":1171,"TT":1172,"AL":1173,"lose":1174,"color":1175,"vert":1176,"])":1177,"Res":1178,"sg":1179,"Ġ['":1180,"Set":1181,"~~":1182,"ctions":1183,"Ġchar":1184,"filename":1185,"ject":1186,"Ġbuild":1187,"Ġbut":1188,"stat":1189,"lines":1190,"raw":1191,"ee":1192,"item":1193,"']<":1194,"main":1195,"com":1196,"err":1197,"CH":1198,"Ġ):<":1199,"write":1200,"ql":1201,"pi":1202,"kip":1203,"ses":1204,"tension":1205,"ĠCo":1206,"xy":1207,"cheme":1208,"--------------------------------":1209,"nder":1210,"ight":1211,"Ġmust":1212,"Ġtuple":1213,"Ġ()":1214,"gn":1215,"().":1216,"names":1217,"Ġcommand":1218,"ces":1219,"Ġmax":1220,"script":1221,"Ġargument":1222,"label":1223,"Ġapp":1224,"opt":1225,"De":1226,"Ġcontain":1227,"EN":1228,"irst":1229,"python":1230,"andom":1231,"doc":1232,"-<":1233,"Ġyield":1234,"Ġdoes":1235,"query":1236,"copy":1237,"Frame":1238,"ical":1239,"game":1240,"Ġ\"<":1241,"Ġsu":1242,"ast":1243,"Ġcurrent":1244,"didate":1245,"log":1246,"ert":1247,"context":1248,"ep":1249,"model":1250,"ormal":1251,"umn":1252,"Ġte":1253,"ĠCon":1254,"Ġdis":1255,"List":1256,"mplate":1257,"ager":1258,"ote":1259,"(_":1260,"TTP":1261,"ual":1262,"Ġmsg":1263,"Ġlog":1264,"ach":1265,"urface":1266,"reg":1267,"Ġac":1268,"char":1269,"ĠĠĠĠĠĠĠĠĠĠĠĠĠĠĠĠĠĠĠĠĠĠĠ":1270,"cond":1271,"ne":1272,"Ġ6":1273,"ked":1274,"Exception":1275,"Ġusing":1276,"cs":1277,"Ġnode":1278,"Ġargs":1279,"ackend":1280,"Ġsy":1281,"Ġcache":1282,"new":1283,"Ġoper":1284,"CK":1285,"Ġrange":1286,"SS":1287,"items":1288,"Ġpos":1289,"cate":1290,"File":1291,"idth":1292,"andler":1293,"cls":1294,"ped":1295,"ĠValueError":1296,"attern":1297,"row":1298,"table":1299,"))":1300,"Ġsh":1301,"mark":1302,"ible":1303,"Ġpa":1304,"ody":1305,"su":1306,"Equal":1307,"Index":1308,"ong":1309,"ized":1310,"ket":1311,"man":1312,"files":1313,"plo":1314,"Ġdirectory":1315,"df":1316,"Ġsource":1317,"indow":1318,"bug":1319,"match":1320,"Ġread":1321,"Version":1322,"Ġresponse":1323,"Ġelement":1324,"].":1325,"\".":1326,"ools":1327,"ĠUn":1328,"tps":1329,"find":1330,"Ġextra":1331,"package":1332,"rans":1333,"ameters":1334,"eries":1335,"RL":1336,"Ġmessage":1337,"ref":1338,"Ġho":1339,"rc":1340,"To":1341,"iler":1342,"ĠReturns":1343,"message":1344,"quires":1345,"Ġid":1346,"pect":1347,"stra":1348,"Ġ--------":1349,"raises":1350,"sy":1351,"Ġconfig":1352,"Ġper":1353,"token":1354,"ess":1355,"ined":1356,"Parse":1357,"sent":1358,"Ġmat":1359,"libr":1360,"update":1361,"prefix":1362,"Ġexp":1363,"Ġobj":1364,"Ġinput":1365,"ous":1366,"andle":1367,"call":1368,"Ġinstall":1369,"compile":1370,"Ġsize":1371,"Ġ/":1372,"lean":1373,"sh":1374,"Lo":1375,"Ġallow":1376,"Ġrun":1377,"Ġmodel":1378,"Ġover":1379,"Ġdistribution":1380,"struct":1381,">@":1382,"Ġstate":1383,"Ġfirst":1384,"gging":1385,"lim":1386,"son":1387,"Ġsp":1388,"Ġdict":1389,"ĠDi":1390,"lay":1391,"ĠDe":1392,"(),":1393,"men":1394,"Ġdjango":1395,"internal":1396,"ataFrame":1397,"Ġ|":1398,"stem":1399,"Ġinstance":1400,"Ġcase":1401,"ak":1402,"Base":1403,"ulti":1404,"open":1405,"ping":1406,"ifier":1407,"Ġmake":1408,"gex":1409,"Ġnumber":1410,"################":1411,"source":1412,"can":1413,"ie":1414,"gor":1415,"process":1416,"Ġencoding":1417,"Ġconnection":1418,"umns":1419,"Ġ{<":1420,"Ġvalid":1421,"\":<":1422,"Ġreq":1423,"ny":1424,"Ġcontext":1425,"Ġent":1426,"Ġpygame":1427,"::<":1428,"Ġ10":1429,"expr":1430,"assertEqual":1431,"vironment":1432,"YP":1433,"tin":1434,"ify":1435,"TE":1436,"egg":1437,"'):<":1438,"mplement":1439,"Ġ--":1440,"Ġfind":1441,"oo":1442,"Ġitem":1443,"shape":1444,"temp":1445,"TI":1446,"pack":1447,"prec":1448,"html":1449,"Ġinter":1450,"Ġ[<":1451,"mbda":1452,"Ġattr":1453,"uture":1454,"Ġ\\":1455,"Ġaxis":1456,"ocket":1457,"Ġdistutils":1458,"Ġopen":1459,"utf":1460,"select":1461,"99":1462,"`<":1463,"quence":1464,"ĠĠĠĠĠĠĠĠĠ":1465,"Ġexpression":1466,"level":1467,"Ġfloat":1468,"scri":1469,"Ġ[\"":1470,"close":1471,"are":1472,"lobal":1473,"Ġfilename":1474,"Ġgetattr":1475,"Ġcls":1476,"rou":1477,"ffer":1478,"output":1479,"Ġwarning":1480,"dirs":1481,"========":1482,"Ġrequirement":1483,"ead":1484,"auth":1485,"mask":1486,"ĠĠĠĠĠĠĠĠĠĠ":1487,"host":1488,"ING":1489,"ative":1490,"unk":1491,"cen":1492,".,":1493,"Ġmay":1494,"lient":1495,"vid":1496,"\"]<":1497,"Ar":1498,"Ġmin":1499,"Ġcontent":1500,"cmd":1501,"tree":1502,"Ġ{}<":1503,"ints":1504,"ay":1505,"swith":1506,"`.<":1507,"lp":1508,"Ġdatetime":1509,"nan":1510,").<":1511,"rence":1512,"'.":1513,"Ġinto":1514,"we":1515,"Ġfound":1516,"headers":1517,"its":1518,"})<":1519,"Ġnames":1520,"kg":1521,"tag":1522,"ĠSee":1523,"02":1524,"ported":1525,"mented":1526,"--<":1527,"Ġmo":1528,"Ġ'.":1529,"Ġorig":1530,"[-":1531,"lags":1532,"option":1533,"Char":1534,"Ġ(\"":1535,"replace":1536,"print":1537,"core":1538,"lect":1539,"extra":1540,"\"):<":1541,"Ġnumpy":1542,"float":1543,"fil":1544,"AN":1545,"Ġwork":1546,"fter":1547,"Ġremove":1548,"ick":1549,"Ġmode":1550,"db":1551,"okup":1552,"Ġav":1553,"disp":1554,"Ġyou":1555,"metadata":1556,"Un":1557,"Ġneed":1558,"En":1559,"fore":1560,"ML":1561,"Ġcopy":1562,"keys":1563,"bytes":1564,"plot":1565,"Test":1566,"vide":1567,"Ġsee":1568,"tro":1569,"content":1570,"Ġsame":1571,"Ġdir":1572,"':<":1573,"urllib":1574,"range":1575,"gra":1576,"inter":1577,"element":1578,"distribution":1579,"Ġorder":1580,"mode":1581,"ph":1582,"Ġexist":1583,"tributes":1584,"16":1585,"Ġpart":1586,"do":1587,"cord":1588,"::":1589,"Ġinteger":1590,"Ġman":1591,"ĠDataFrame":1592,"work":1593,"lower":1594,"Ġsome":1595,"itle":1596,"Ġgener":1597,"ĠFor":1598,"tings":1599,"ake":1600,"whe":1601,">\"\"\"<":1602,"nel":1603,"ister":1604,"gment":1605,"Ġheader":1606,"be":1607,"FI":1608,"mplemented":1609,"ĠList":1610,"Ġlink":1611,"Ġsupport":1612,"201":1613,"del":1614,"stream":1615,"Ġcreate":1616,"Ġ----":1617,"Ġheaders":1618,"Ġstat":1619,"Ġval":1620,"PI":1621,"off":1622,"Ġvari":1623,"Ġmask":1624,"ches":1625,"direct":1626,"Ġopt":1627,"UN":1628,"ĠNot":1629,"Ġbytes":1630,"Ġ'%":1631,"ont":1632,"dd":1633,"Ġwhile":1634,"):":1635,"Ġimage":1636,"Ġreg":1637,"bin":1638,"iv":1639,"curs":1640,"gnore":1641,"cre":1642,"encode":1643,"Ġtarget":1644,"trans":1645,"Ġkwargs":1646,"Ġact":1647,"_(":1648,"Ġlabel":1649,"header":1650,"Ġtra":1651,"local":1652,"ĠSeries":1653,"UT":1654,"okie":1655,"Field":1656,"Ġparser":1657,"ld":1658,"kens":1659,"Ġdoc":1660,"input":1661,"target":1662,"acters":1663,"Ġver":1664,"box":1665,"stall":1666,"Ġmetadata":1667,"asses":1668,"ĠĠĠĠĠĠĠĠĠĠĠĠĠĠĠĠĠĠĠĠĠĠĠĠĠĠĠĠĠĠĠĠ":1669,"ĠType":1670,"Ġcor":1671,"requirement":1672,"Ġload":1673,"resource":1674,"Ġoption":1675,"api":1676,"Ġplatform":1677,"ffe":1678,"sys":1679,"ures":1680,"ĉĉ":1681,"Ġlogger":1682,"vend":1683,"lass":1684,"Ġret":1685,"ĠTest":1686,"response":1687,"Ġcolor":1688,"ci":1689,"ilter":1690,"(*":1691,"Ġprefix":1692,"Ġmore":1693,"exec":1694,"UL":1695,"Ġthen":1696,"formation":1697,"lt":1698,"Ġlogging":1699,"zip":1700,"ID":1701,"strip":1702,"series":1703,"Ġinfo":1704,"length":1705,"ward":1706,"yle":1707,"Ġtrans":1708,"pass":1709,"000":1710,"Ġfunc":1711,"repr":1712,"Ġap":1713,"Ġpd":1714,"uration":1715,"SSL":1716,"ctionary":1717,"Ġtag":1718,"afe":1719,"Ġwas":1720,"Warning":1721,"return":1722,"Ġ8":1723,"Ġnon":1724,"ĠURL":1725,"root":1726,"olve":1727,"vis":1728,"Ġevent":1729,"raph":1730,"55":1731,"sum":1732,"cense":1733,"nter":1734,"trol":1735,"ols":1736,"Ġreturns":1737,"datetime":1738,").__":1739,"cale":1740,"library":1741,"ultip":1742,"win":1743,"Ġ\"\"":1744,"ero":1745,"Ġback":1746,"Ġwrap":1747,"ĠX":1748,"Ġreturned":1749,"Dict":1750,"upt":1751,"CO":1752,"utable":1753,"old":1754,"amp":1755,">_":1756,"axis":1757,"ten":1758,"Ġty":1759,"debug":1760,"Ġwhere":1761,"Ġignore":1762,"http":1763,"make":1764,"Ġpytest":1765,"idx":1766,"dered":1767,"Ġeach":1768,"vendor":1769,"bar":1770,"iod":1771,"wrap":1772,"sign":1773,"ĠExample":1774,"Ġwarnings":1775,"rid":1776,"warn":1777,"acy":1778,"LO":1779,"releases":1780,"andas":1781,"]:<":1782,"Ġoff":1783,"encoding":1784,"Ġ]<":1785,"cle":1786,"order":1787,"Ġobjects":1788,"Ġhasattr":1789,"AB":1790,"ailable":1791,"IO":1792,"iteral":1793,"hs":1794,"Ġspecified":1795,"random":1796,"ownload":1797,"Ġ7":1798,"RI":1799,"(?":1800,"SION":1801,"atab":1802,"Ġarch":1803,"gine":1804,"ference":1805,"pop":1806,"ĠHTTP":1807,"atabase":1808,"node":1809,"io":1810,">#<":1811,"Ġ>=":1812,"ttribute":1813,"Or":1814,"only":1815,"ValueError":1816,"Col":1817,"ĠParse":1818,"CHE":1819,"\"),<":1820,"Ġarguments":1821,"Ġdirect":1822,"nsure":1823,"Implemented":1824,"si":1825,"connection":1826,"Ġhash":1827,"YPE":1828,"QL":1829,"FF":1830,"delta":1831,"The":1832,"oly":1833,"foo":1834,"({":1835,"hash":1836,"mmon":1837,"reak":1838,">)<":1839,"tend":1840,"image":1841,"fields":1842,"na":1843,"Ġalso":1844,"aise":1845,"scription":1846,"ener":1847,"ollow":1848,"wise":1849,"cor":1850,"Ġexec":1851,"ĠDist":1852,"Ġ}<":1853,"\\\\":1854,"view":1855,"DI":1856,"params":1857,"var":1858,"Ġroot":1859,"ĠWe":1860,"gacy":1861,"present":1862,"56":1863,"platform":1864,"Ġimplement":1865,"iew":1866,"spect":1867,"Ġcompat":1868,"ĠNotImplemented":1869,"Ġerrors":1870,"Ġinit":1871,"tail":1872,"vider":1873,"...":1874,"Ġ<=":1875,"CT":1876,"Ġstream":1877,"gin":1878,"Ġprocess":1879,"Ġgroup":1880,"ĠImport":1881,"Result":1882,"scheme":1883,"ating":1884,"Ġupdate":1885,"Ġcre":1886,"Ġtable":1887,"nown":1888,"Ġaction":1889,"project":1890,"event":1891,"ingle":1892,"=[":1893,"compat":1894,"filter":1895,"tuple":1896,"fir":1897,"Ġthere":1898,"////":1899,"width":1900,"Ġzip":1901,"RO":1902,"uptools":1903,"Ġoperator":1904,"ze":1905,"lete":1906,"Ġunder":1907,"ĠSet":1908,"fill":1909,"Ġthan":1910,"ched":1911,"Ġattribute":1912,"wo":1913,"ready":1914,"ĠKey":1915,"startswith":1916,"mis":1917,"Ġresource":1918,"tz":1919,"Ġinformation":1920,"Ġhere":1921,"insert":1922,"surface":1923,"chema":1924,"remove":1925,"skip":1926,"Ġinclude":1927,"mt":1928,"ble":1929,"quired":1930,"Time":1931,"oid":1932,"Ġlike":1933,"TH":1934,"'))<":1935,"av":1936,"of":1937,"assed":1938,"23":1939,"TML":1940,"ature":1941,"my":1942,"expected":1943,"Ġhttps":1944,"coder":1945,"AD":1946,")))<":1947,"stamp":1948,"ync":1949,"bool":1950,"den":1951,"izer":1952,"sup":1953,"Ġunicode":1954,"fer":1955,"gh":1956,"NA":1957,"~~~~":1958,"]]<":1959,"Ġexception":1960,"Ġits":1961,"Ġform":1962,"Ġempty":1963,"offset":1964,"uto":1965,"Ġscript":1966,"post":1967,"Get":1968,"Ġqu":1969,"sol":1970,"alp":1971,"std":1972,"ility":1973,"Python":1974,"11":1975,"Ġlength":1976,"Ġtypes":1977,"Ġ\".":1978,"Me":1979,"ĠParameters":1980,"most":1981,"Action":1982,"extension":1983,"Ġcolle":1984,"hes":1985,"State":1986,"Ġ{}":1987,"ĠJ":1988,"org":1989,"allow":1990,"ĠPy":1991,"ain":1992,"EX":1993,"function":1994,"requires":1995,"Ġ...":1996,"pattern":1997,"Ġquery":1998,"errors":1999,"DO":2000,"cape":2001,"point":2002,"Ġidx":2003,"100":2004,"Ġfull":2005,"Ġbreak":2006,"mail":2007,"left":2008,"86":2009,"Ġdictionary":2010,"Request":2011,"decode":2012,"rix":2013,"ĠImportError":2014,"Ġtimeout":2015,"'),<":2016,"ww":2017,"Ġlast":2018,"Ġparsed":2019,"Array":2020,"Ġparam":2021,"lip":2022,"tras":2023,"save":2024,"ialize":2025,"sql":2026,"FA":2027,"Ġparent":2028,"json":2029,"Ġchange":2030,"ĠPro":2031,"Ġrow":2032,"Ġfollow":2033,"Ġhost":2034,"Ġdest":2035,"Ġright":2036,"future":2037,"indows":2038,"Ġparts":2039,"EP":2040,"ome":2041,"ameter":2042,"parent":2043,"Ġcontin":2044,"14":2045,"Ġlevel":2046,"ĠDistutils":2047,"du":2048,"ular":2049,"Qu":2050,"ware":2051,"EL":2052,")):<":2053,"Ġlines":2054,"thing":2055,"wait":2056,"ran":2057,"AS":2058,"ables":2059,"Ġscheme":2060,"Ġtyping":2061,"net":2062,"Ġ'<":2063,"\"])<":2064,"Ġim":2065,"body":2066,"part":2067,"Ġbackend":2068,"play":2069,"Ġsave":2070,"create":2071,"\"))<":2072,"pytest":2073,"Ġmark":2074,"Ġ{\"":2075,"Ġ----------<":2076,"Ġdon":2077,"numpy":2078,"register":2079,"Ġdiffe":2080,"Data":2081,"Ġresults":2082,"Ġpassed":2083,"Ġoptional":2084,"Ġavailable":2085,"Ġcomple":2086,"{}":2087,"Can":2088,"modules":2089,"ĠY":2090,"Not":2091,"warning":2092,"Ġcmd":2093,"Ġbefore":2094,"cause":2095,"riter":2096,"Ġsign":2097,"classmethod":2098,"first":2099,"Ġinstring":2100,"ceptions":2101,"Value":2102,"Ġframe":2103,"Ġleft":2104,"ific":2105,"opts":2106,"Ġcolumn":2107,"bot":2108,"Ġdel":2109,"Ġnext":2110,"current":2111,"Ġsingle":2112,"page":2113,"Ġhandle":2114,"Text":2115,"wh":2116,"vided":2117,"ĠIter":2118,"MA":2119,"Ġ''":2120,"Form":2121,"Ġlocal":2122,"Ġpaths":2123,"meta":2124,"Ġinstead":2125,"Ġposition":2126,"ates":2127,"Ġnormal":2128,"Ġpandas":2129,"apping":2130,"ags":2131,"search":2132,"Ġwrite":2133,"Requirement":2134,"fn":2135,"stri":2136,"ases":2137,"Ġnamed":2138,"Ġerr":2139,"Ġcontinue":2140,"lication":2141,"solute":2142,"\"],":2143,"Ġ'/":2144,"untime":2145,"location":2146,"ignore":2147,"oks":2148,"GE":2149,"__)<":2150,"ose":2151,"pende":2152,"ĠAl":2153,"Ġafter":2154,"---<":2155,"ĠTypeError":2156,"ton":2157,"][":2158,"Ġenvironment":2159,"tocol":2160,"Ġhelp":2161,"Ġbyte":2162,"directory":2163,"ORM":2164,"uild":2165,"Ġreplace":2166,"ultiple":2167,"Ġindi":2168,"itespace":2169,"NO":2170,"Ġtar":2171,"environ":2172,"Info":2173,"istr":2174,"ors":2175,"pendenc":2176,"ists":2177,"Ġoffset":2178,"ash":2179,"Ġ9":2180,"Distribution":2181,"Ġpattern":2182,"20":2183,"Ġrepresent":2184,"Ġwheel":2185,"ell":2186,"ATE":2187,"Ġpython":2188,"precated":2189,"rel":2190,"Se":2191,"idget":2192,"ĠOS":2193,"HTTP":2194,"trib":2195,"Ġstrings":2196,"Ġwant":2197,"env":2198,"Parser":2199,"ĠĠĠĠĠĠĠĠĠĠĠĠĠĠĠĠĠĠĠĠĠĠĠĠĠĠĠ":2200,"17":2201,"aries":2202,"lambda":2203,"Ġcom":2204,"Comp":2205,"Ġoriginal":2206,"manager":2207,"Ġalready":2208,"lag":2209,"bit":2210,"Any":2211,"Ġ--------<":2212,"ved":2213,"Ġskip":2214,"https":2215,"buffer":2216,"Ġwin":2217,"Ġthey":2218,"abs":2219,"``.<":2220,"Ġkeys":2221,"mod":2222,"Ġhttp":2223,"round":2224,"paths":2225,"ators":2226,"extend":2227,"proxy":2228,"Ġsequence":2229,"Ġdt":2230,"lied":2231,"Ġtemplate":2232,"Handler":2233,"Class":2234,"except":2235,"ful":2236,"Ġold":2237,"VER":2238,"template":2239,"backend":2240,"moves":2241,"Ġtemp":2242,"([[":2243,"src":2244,"non":2245,"ning":2246,"Ġsetup":2247,"Ġali":2248,"tails":2249,"ULT":2250,"buf":2251,"exp":2252,"Context":2253,"let":2254,"alar":2255,"ĠWhe":2256,"arr":2257,"resources":2258,"otal":2259,"orig":2260,"columns":2261,"Ġmap":2262,"itable":2263,"arange":2264,"Ġfields":2265,"status":2266,"ng":2267,"static":2268,"title":2269,"Ca":2270,"her":2271,"ason":2272,"Ġter":2273,"Ġconvert":2274,"cert":2275,"Ġexc":2276,"andard":2277,"licit":2278,"Ġjust":2279,"Ġident":2280,"Token":2281,"ccess":2282,"Ġcolumns":2283,"Install":2284,"Ġprovided":2285,"ĠVersion":2286,"setup":2287,"ĠIt":2288,"etch":2289,"txt":2290,"wheel":2291,"Ġurllib":2292,"Ġcount":2293,"Ġed":2294,"ique":2295,"Ġitems":2296,"IC":2297,"block":2298,"abc":2299,"Ġblock":2300,"cted":2301,"Ġglobal":2302,"ĠSec":2303,"comple":2304,"next":2305,"ĠTime":2306,"`,":2307,"losed":2308,"og":2309,"CHECK":2310,"Ġshape":2311,"ways":2312,"sor":2313,"number":2314,"]))<":2315,"sue":2316,"Ġ&":2317,"(__":2318,"Ġproject":2319,"normal":2320,"ragment":2321,"the":2322,"packages":2323,"]+":2324,"Ġfin":2325,"ĠĠĠĠĠĠĠĠĠĠĠĠ":2326,"ries":2327,"pri":2328,"top":2329,"FAULT":2330,"Ġ)":2331,"Ġcalled":2332,"fault":2333,"rop":2334,"Ġsession":2335,"ven":2336,"Ġtokens":2337,"atter":2338,"instring":2339,"aises":2340,"gest":2341,"ĠAny":2342,"Ġword":2343,"34":2344,"Ġpkg":2345,".\"<":2346,"limit":2347,"Ġmethods":2348,"ĠNotImplementedError":2349,"ink":2350,"acter":2351,"dt":2352,"zy":2353,"press":2354,"ntax":2355,"vars":2356,"Ġfilter":2357,"empty":2358,"Ġlambda":2359,"ither":2360,"Connection":2361,"?<":2362,"Ġarr":2363,"sl":2364,"Ġfill":2365,"50":2366,"Ġ100":2367,"NAME":2368,"keep":2369,"qa":2370,"Ġrandom":2371,"ater":2372,"Ġabsolute":2373,"vision":2374,"ĠWord":2375,"Ġentry":2376,"oper":2377,"ĠCheck":2378,"imal":2379,"include":2380,"Ġbecause":2381,"Ġexample":2382,"pare":2383,"site":2384,"Ġbo":2385,"Ġnamespace":2386,"Ġlocation":2387,"compiler":2388,"Ġour":2389,"any":2390,"Ġnoqa":2391,"Ġrel":2392,"term":2393,"Ġsql":2394,"]])<":2395,")]<":2396,"conds":2397,"ustom":2398,"FORM":2399,"straint":2400,"Ġthem":2401,"dev":2402,"istry":2403,"Ġbin":2404,"added":2405,"\").":2406,"Ġinstalled":2407,"pecifier":2408,"entry":2409,"ES":2410,"Ġdefined":2411,"Command":2412,"meth":2413,"candidate":2414,"issing":2415,"Ġ\"__":2416,"case":2417,"Image":2418,"angu":2419,"Ġbody":2420,"Found":2421,"gen":2422,"ĠCall":2423,"bose":2424,"anguage":2425,"24":2426,"less":2427,"Ġdifferent":2428,"password":2429,"verse":2430,"Response":2431,"Ġbeen":2432,"ĠTuple":2433,"Ġsocket":2434,"itive":2435,"global":2436,"Ġtwo":2437,"client":2438,"Ġcharacters":2439,"'],":2440,")[":2441,"ĠAr":2442,"side":2443,"ffix":2444,"icro":2445,"ĠGH":2446,"mary":2447,"vious":2448,"Ġrelease":2449,"ear":2450,"Ġlib":2451,"Ġserver":2452,"position":2453,"ublic":2454,"style":2455,"Ġ-------<":2456,"Results":2457,"Ġ12":2458,"Ġpoint":2459,"cii":2460,"spective":2461,"PY":2462,"ren":2463,"Ġcandidate":2464,"Ġchunk":2465,"Ġport":2466,"\"),":2467,"ĠSt":2468,"ride":2469,"tags":2470,"Ġ\"%":2471,"timeout":2472,"fp":2473,"Ġ{'":2474,"Ġwhether":2475,"ĠLi":2476,"settings":2477,"lice":2478,"urity":2479,"stract":2480,"eros":2481,"Ġbet":2482,"ions":2483,"ĠNo":2484,"FORMAT":2485,"change":2486,"almost":2487,"ĠException":2488,"Ġdoesn":2489,"ixin":2490,"15":2491,"sha":2492,"pter":2493,"Ġensure":2494,"ibility":2495,"xx":2496,"parseString":2497,"cast":2498,"Node":2499,"0000":2500,"mon":2501,"Ġtz":2502,"TER":2503,"ixel":2504,"Ġkeyword":2505,"Ġnet":2506,"Ġauth":2507,"ĠBase":2508,"action":2509,"safe":2510,"__<":2511,"ategor":2512,"Ġfreq":2513,"sort":2514,"ttributeError":2515,"Ġpassword":2516,"iled":2517,"freq":2518,"40":2519,"Ġelements":2520,"invalid":2521,"Ġfig":2522,"pkg":2523,"Ġrequired":2524,"ories":2525,"Ġbound":2526,"fact":2527,"Ġwithout":2528,"Ġencode":2529,"US":2530,"exists":2531,"session":2532,"pl":2533,"Optional":2534,"Ġinvalid":2535,"column":2536,"vides":2537,"Ġparameter":2538,"Ġnd":2539,"Ġselect":2540,"Ġext":2541,"Ġexpr":2542,"parsing":2543,"Ġfunctions":2544,"final":2545,"ker":2546,"flags":2547,"tools":2548,"cent":2549,"Ġplt":2550,"By":2551,"ĠIndex":2552,"gram":2553,"gt":2554,"ssl":2555,"ization":2556,"onent":2557,"Elements":2558,"last":2559,"rit":2560,"Ġwidth":2561,"asked":2562,"ffect":2563,"display":2564,"Ġconn":2565,"vc":2566,"NT":2567,"IS":2568,"Ġthese":2569,"Ġfe":2570,"ĠAn":2571,"fied":2572,"\\.":2573,"pth":2574,"Ġsi":2575,"convert":2576,"200":2577,"'),":2578,"contain":2579,"Ġcollections":2580,"none":2581,"now":2582,"tries":2583,"Ġfail":2584,"ĠKeyError":2585,"Ġstruct":2586,"This":2587,"unicode":2588,"Ġq":2589,"Ġextension":2590,"([\"":2591,"patch":2592,"models":2593,"ParseAction":2594,"exc":2595,"regex":2596,"Ġarchive":2597,"real":2598,"parts":2599,"oolean":2600,"expression":2601,"very":2602,"Module":2603,"Ġ-*":2604,"igr":2605,"valu":2606,"Ġview":2607,"ĠĠĠĠĠĠĠĠĠĠĠĠĠĠĠĠĠĠĠĠĠ":2608,"omment":2609,"Pre":2610,"imum":2611,"ince":2612,"namespace":2613,"Ġsetuptools":2614,"conn":2615,"More":2616,":`_":2617,"Ġattributes":2618,"ĠPEP":2619,"aded":2620,"(-":2621,"Repr":2622,"ĠDict":2623,"================":2624,"vice":2625,"Ġparams":2626,"dirname":2627,"socket":2628,"'])<":2629,"Ġcontains":2630,"day":2631,"ĠSe":2632,"ĠCopy":2633,"annel":2634,"gorith":2635,"``,":2636,"Ġsystem":2637,"MP":2638,"},":2639,"Ġdetails":2640,"ĠDistribution":2641,"Ġpri":2642,"Ġrequirements":2643,"tar":2644,"store":2645,"ĠZ":2646,"cope":2647,"ween":2648,"Ġrequests":2649,"eded":2650,"rt":2651,"ale":2652,"Len":2653,"End":2654,"Ġjson":2655,"late":2656,"Ġbuf":2657,"FO":2658,"Ġsuch":2659,"Ġtri":2660,"gress":2661,"Ref":2662,"RA":2663,"Ġ20":2664,"Ġprereleases":2665,"ĠRes":2666,"Ġlow":2667,"ĠSecurity":2668,"ĠString":2669,"LA":2670,"().__":2671,"Ġli":2672,"Ġpackages":2673,"Ġeither":2674,"gle":2675,"ush":2676,"Id":2677,"bound":2678,"ametri":2679,"ĠUse":2680,"common":2681,"Ġtree":2682,"CE":2683,"chat":2684,"Ġmatching":2685,"loader":2686,"binary":2687,"})":2688,"Ġversions":2689,"sep":2690,"Ġus":2691,"OS":2692,"strRepr":2693,".\")<":2694,"ls":2695,"Ġlong":2696,"ply":2697,"quote":2698,"Ġsupported":2699,"essage":2700,"eric":2701,"classes":2702,"ĠĠĠĠĠĠĠĠĠĠĠĠĠ":2703,"med":2704,"over":2705,"ice":2706,"Ġconstruct":2707,"Ġdocument":2708,"################################":2709,"Man":2710,"active":2711,"OrMore":2712,"__,":2713,"'\\":2714,"Ġcorrect":2715,"----------------------------------------------------------------":2716,"Ġcontaining":2717,"defined":2718,"Ġaut":2719,"Ġallowed":2720,"fli":2721,"Ġsorted":2722,"Ġsection":2723,"Ġfinally":2724,"ident":2725,"(**":2726,"Ser":2727,"Ġproxy":2728,"App":2729,"Ġfollowing":2730,"handler":2731,"mory":2732,"soft":2733,"__()<":2734,"transform":2735,"clear":2736,"TYPE":2737,"Ġcompiler":2738,"Ġconver":2739,"Ġlookup":2740,"multi":2741,"cript":2742,"urf":2743,"escape":2744,"ctype":2745,"abled":2746,"ĠstartTag":2747,"Ġ32":2748,"ametrize":2749,"LI":2750,"ments":2751,"BA":2752,"ĠNote":2753,"erge":2754,"resh":2755,"zone":2756,"=[\"":2757,"pool":2758,"Ġdistributions":2759,"Ġlibrary":2760,"Ġboth":2761,"handle":2762,"Ġimp":2763,"KE":2764,"Ġcert":2765,"sole":2766,"No":2767,"Ġtake":2768,"Ġ''<":2769,"ould":2770,"Ġtags":2771,"Ġindent":2772,"Ġdisplay":2773,"asic":2774,"parametrize":2775,"Ġrequires":2776,"Mixin":2777,"nums":2778,"ĠHTML":2779,"BU":2780,"Path":2781,"dispatch":2782,"DEFAULT":2783,"33":2784,"Ġpost":2785,"Returns":2786,"havi":2787,"Call":2788,"Ġsort":2789,"eq":2790,"Ġaccess":2791,"dia":2792,"Ġpool":2793,"compare":2794,"LS":2795,"sure":2796,"PP":2797,"').":2798,"Ġdescription":2799,"precation":2800,"Ġsettings":2801,"orch":2802,"=(":2803,"78":2804,"Ġreal":2805,"IT":2806,"ĠAttributeError":2807,"django":2808,"ia":2809,"full":2810,"Ġ\\<":2811,"Py":2812,"ĠLicense":2813,"ctor":2814,"ĠImage":2815,"gative":2816,"flict":2817,"Ġwithin":2818,"gorithm":2819,"ssible":2820,"Ġparameters":2821,"Ġ'__":2822,"Ġalways":2823,"Ġ200":2824,"ascii":2825,"itional":2826,"ĠCopyright":2827,"Ġflags":2828,"CF":2829,"ĠCommand":2830,"dump":2831,"Ġcookie":2832,"XX":2833,"termine":2834,"lection":2835,"rag":2836,"distutils":2837,"stack":2838,"astype":2839,"ĠĠĠĠĠĠĠĠĠĠĠĠĠĠĠĠĠ":2840,"Ġversionadded":2841,"ializer":2842,"reen":2843,"iltin":2844,"contrib":2845,"staticmethod":2846,"Ġutil":2847,"section":2848,"Ġthread":2849,"Cache":2850,"aging":2851,"mit":2852,"Ġnow":2853,"Ġsepar":2854,"scripts":2855,"Ġkind":2856,"TION":2857,"IG":2858,"plotlib":2859,"Ġbetween":2860,"rest":2861,"connect":2862,"libraries":2863,"30":2864,"logger":2865,"MO":2866,"Ġdecode":2867,"ĠTe":2868,"ĠOr":2869,"marker":2870,"Ġstack":2871,"dot":2872,"else":2873,"TypeError":2874,"SH":2875,"dest":2876,"Ġmultiple":2877,"cat":2878,"ithub":2879,"attrs":2880,"ĠGet":2881,"Ġimplementation":2882,"ities":2883,"Ġrv":2884,"(),<":2885,"known":2886,"ĠGener":2887,"see":2888,"Ġsearch":2889,"Ġotherwise":2890,"Ġ'\\":2891,"system":2892,"={":2893,"inf":2894,"atures":2895,"Ġegg":2896,"author":2897,"Ġfinal":2898,"ideo":2899,"alc":2900,"Ġneeded":2901,"For":2902,"extras":2903,"ali":2904,"Ġawait":2905,"jor":2906,"ob":2907,"Ġmeta":2908,"Ġ[[":2909,"25":2910,":`.":2911,"ĠComp":2912,"Ġpage":2913,"Ġcallable":2914,"oding":2915,"Ġjoin":2916,"Check":2917,"ĠAdd":2918,"div":2919,"Ġstatus":2920,"]*":2921,"axes":2922,"Ġabout":2923,"CON":2924,"ndarray":2925,"80":2926,"Create":2927,"\"\\":2928,"rand":2929,"Ġfn":2930,"und":2931,"Ġtrue":2932,"vari":2933,"ĠParseException":2934,"ĠĠĠĠĠĠĠĠĠĠĠĠĠĠ":2935,"Ġ'_":2936,"wd":2937,"Ġop":2938,"ificate":2939,"Build":2940,"igh":2941,"idden":2942,"delete":2943,"Ġremoved":2944,"Ġuses":2945,"Ġndarray":2946,"async":2947,"[:,":2948,"Ġenum":2949,"Ġstop":2950,"ically":2951,"Ġsix":2952,"ested":2953,"Ġ'-":2954,"Ġmain":2955,"Ġ',":2956,"requirements":2957,"tok":2958,"math":2959,"rough":2960,">__":2961,"Ġwould":2962,"Ġspecific":2963,"Comment":2964,"ited":2965,"stdout":2966,"Ġchild":2967,"CA":2968,"TO":2969,"Ġfp":2970,"Ġdirectories":2971,"ixed":2972,"Ġshow":2973,"HE":2974,"ds":2975,"Logger":2976,"integer":2977,"Ġsite":2978,"ĠAlso":2979,"links":2980,"plat":2981,"icrosoft":2982,"Config":2983,"points":2984,"ctools":2985,"draw":2986,"zen":2987,"cc":2988,"Iter":2989,"onical":2990,"Ġbeing":2991,"Object":2992,"setParseAction":2993,"ĠTo":2994,"Ġenv":2995,"Start":2996,"Ġactual":2997,"ession":2998,"PAT":2999,"github":3000,"Ġ201":3001,"Ġclient":3002,"Ġclasses":3003,"attributes":3004,"Ġob":3005,"ceback":3006,"Ġmissing":3007,"exceptions":3008,"ilt":3009,"Tree":3010,"mension":3011,"alpha":3012,"Method":3013,"may":3014,"Ġvariable":3015,"ials":3016,"Ġredirect":3017,"ount":3018,"derr":3019,"Ġbox":3020,"Invalid":3021,"URL":3022,"ouble":3023,"Ġstandard":3024,"ually":3025,"rozen":3026,"Ġcannot":3027,"bers":3028,"Provider":3029,"Manager":3030,"errmsg":3031,"Characters":3032,"pendencies":3033,"help":3034,"PA":3035,"Ġprospective":3036,"KEY":3037,"``<":3038,"ARK":3039,"âĸ":3040,"QU":3041,"19":3042,"NING":3043,"Ġsplit":3044,"Ġutf":3045,"ĠOption":3046,"egacy":3047,"TIME":3048,"where":3049,"SD":3050,"Ġag":3051,"wn":3052,"ffi":3053,"zeros":3054,"require":3055,"Auth":3056,"pip":3057,"Ġref":3058,"ĠPY":3059,"lookup":3060,"ĠCh":3061,"Ġgo":3062,"Chars":3063,"idd":3064,"ifest":3065,"({\"":3066,"ĠTO":3067,"////////":3068,"Ġsure":3069,"formats":3070,"ants":3071,"ĠInvalid":3072,"cho":3073,"Ġsrc":3074,"Sec":3075,"ORD":3076,"mber":3077,"quiv":3078,"ĠWindows":3079,"clean":3080,"rows":3081,"cro":3082,"Ġcompatibility":3083,"record":3084,"iddle":3085,"literal":3086,"download":3087,"mbed":3088,"Map":3089,"address":3090,"Ġct":3091,"ings":3092,"server":3093,"Ġparsing":3094,"Ġdatabase":3095,"Ġ255":3096,"Wh":3097,"ZE":3098,"Ġfuture":3099,"Ġctypes":3100,"okies":3101,"Sp":3102,"alid":3103,"13":3104,"Ġattrs":3105,"Ġrev":3106,"cy":3107,"exception":3108,"Ġinitial":3109,"ices":3110,"'re":3111,"ba":3112,"ured":3113,":]<":3114,"Head":3115,"long":3116,"Ġmodi":3117,"ĠPer":3118,"Ġ#:":3119,"ĠInstall":3120,"Ġio":3121,"child":3122,"Ġhow":3123,"Ġcreated":3124,"schema":3125,"ABLE":3126,"exe":3127,"Ġexplicit":3128,"six":3129,"height":3130,"Ġarrays":3131,"Ġclose":3132,"bl":3133,"Ġbehavi":3134,"ĠBy":3135,"Table":3136,":`~":3137,"vas":3138,"Read":3139,"ometry":3140,"Ġyour":3141,"labels":3142,"callback":3143,"aris":3144,"Ġexisting":3145,"ĠEn":3146,"xtra":3147,"Ġssl":3148,"Ġwhat":3149,"Ġmatrix":3150,"OP":3151,"description":3152,"ux":3153,"ĠĠĠĠĠĠĠĠĠĠĠĠĠĠĠĠĠĠ":3154,"Ġmy":3155,"An":3156,"chunk":3157,"hed":3158,"oted":3159,"velo":3160,"Ġvideo":3161,"olution":3162,"Ġconfiguration":3163,"preter":3164,"Ġbased":3165,"Ġdst":3166,"ustr":3167,"utton":3168,"Ġsend":3169,">\\":3170,"Ġcharacter":3171,"Ġperiod":3172,"oogle":3173,"ĠDE":3174,"older":3175,"Ġfont":3176,"Ġ\"_":3177,"Ġiterable":3178,"uring":3179,"Ġpoints":3180,"Ġsurface":3181,"Al":3182,"ailed":3183,"mean":3184,"Ġaxes":3185,"ystem":3186,"lear":3187,"Ġboolean":3188,"rtype":3189,"ugin":3190,"ARKER":3191,"Ġlabels":3192,"Ġprevious":3193,"ĠLo":3194,"Ġdec":3195,"pert":3196,"ĠExamples":3197,"Ġkeep":3198,"www":3199,"Add":3200,"zero":3201,"Ġreason":3202,"uri":3203,"const":3204,"ected":3205,"extensions":3206,"serve":3207,"Ġraised":3208,"ĠCallable":3209,")),":3210,"Ġpl":3211,"CHAR":3212,"ĠCol":3213,"Hel":3214,"SC":3215,"Ġmanager":3216,"setName":3217,"fetch":3218,"tmp":3219,"poly":3220,"Ġsum":3221,"ateg":3222,"Ġ\"\"<":3223,"Ġtests":3224,"admin":3225,"arison":3226,"(\\":3227,"('.":3228,"Ġequal":3229,"ĠK":3230,"Message":3231,"Ġheight":3232,"endswith":3233,"upper":3234,"Ġdraw":3235,"username":3236,"INFO":3237,"getLogger":3238,"Ġmatches":3239,";<":3240,"Ġresolve":3241,"Ġ16":3242,"\"].":3243,"Ġbuffer":3244,"fail":3245,"upported":3246,"rp":3247,"alcul":3248,"Ġunit":3249,"ĠUnion":3250,"IP":3251,"Ġevery":3252,"Ġexact":3253,"auto":3254,"Ġcoding":3255,"docs":3256,"TR":3257,"posit":3258,"atterns":3259,"Ġthrough":3260,"Ġlet":3261,"font":3262,"byte":3263,"ensure":3264,"poch":3265,"cursive":3266,"dis":3267,"execute":3268,"Ġtheir":3269,"SL":3270,"ost":3271,"Ġflag":3272,"__.__":3273,"Ġavoid":3274,"Ġhandler":3275,"Ġ\"\\":3276,"+)":3277,"itor":3278,"Ġstyle":3279,"Ġfil":3280,"ank":3281,"Ġspace":3282,"ĠSQL":3283,"alent":3284,"Ġpla":3285,"Ġspecifier":3286,"Ġinclu":3287,"__.":3288,"ines":3289,"Tests":3290,"On":3291,"Ġappro":3292,".*":3293,"Ġexpressions":3294,"Ġreference":3295,"objects":3296,"ĠUnicode":3297,"quivalent":3298,"xml":3299,"Ġmapping":3300,"prereleases":3301,"MENT":3302,"codes":3303,"ROR":3304,"Ġsince":3305,"Ġdone":3306,"Loc":3307,"Ġge":3308,"Ġasync":3309,"enter":3310,"ĠĠĠĠĠĠĠĠĠĠĠĠĠĠĠĠĠĠĠĠ":3311,"ĠIterator":3312,"cf":3313,"ĠendTag":3314,"NU":3315,"ĠMulti":3316,"Ġdeprecated":3317,"sw":3318,"norm":3319,"installed":3320,"commands":3321,"Ġvalidate":3322,"hostname":3323,"YPY":3324,"cached":3325,"resolve":3326,"force":3327,"perties":3328,"Ġvis":3329,"ctx":3330,"Format":3331,"VE":3332,"Raises":3333,"UR":3334,"uplic":3335,"termin":3336,"Series":3337,"Ġnetloc":3338,"Ġpoly":3339,"Ġsecond":3340,"ĠOn":3341,"Gener":3342,"rer":3343,"medi":3344,"control":3345,"pository":3346,"cp":3347,"changed":3348,"Ġgra":3349,"Ġretry":3350,"hell":3351,"Ġcallback":3352,"exprs":3353,"thread":3354,"Ġmarker":3355,"Expr":3356,"Actions":3357,"kind":3358,"ining":3359,"typing":3360,"Ġverbose":3361,"Option":3362,"Ġadded":3363,"03":3364,"lap":3365,"exit":3366,"specific":3367,"Inter":3368,"ĠAPI":3369,"HTML":3370,"engine":3371,"Ġinterface":3372,"Ġcast":3373,"VERSION":3374,"getitem":3375,"cursor":3376,"[:-":3377,"...)":3378,"uid":3379,"Ġwrapper":3380,"Ġrecord":3381,"ĠÐ":3382,"validate":3383,"tempt":3384,"IL":3385,"ĠQ":3386,"]]":3387,"vs":3388,"Ġpair":3389,"Ġcons":3390,"Ġbest":3391,"Ġsubclass":3392,"_,":3393,"Ġtotal":3394,"ĠIP":3395,"respon":3396,"ĠDefault":3397,"Ġiterator":3398,"book":3399,"mmit":3400,"inner":3401,"ĠNO":3402,"etadata":3403,"Fun":3404,"[^":3405,"Ġforce":3406,"Ġusername":3407,"email":3408,"ĠRequest":3409,"SIZE":3410,"Ġ'--":3411,"Ġexists":3412,"Color":3413,"Str":3414,"parsed":3415,"Ġdefaults":3416,":%":3417,"Ġextract":3418,"ATA":3419,"ategorical":3420,"Ġlin":3421,"ĠFile":3422,"proto":3423,"Find":3424,"orary":3425,"Ġzero":3426,"}\"<":3427,"Ġtmp":3428,"Ġrect":3429,"BO":3430,"Keyword":3431,"ĠWhen":3432,"Ġtitle":3433,"Pool":3434,"Dis":3435,"alphas":3436,"Tuple":3437,"Ġpossible":3438,"miss":3439,"ored":3440,"yntax":3441,"construct":3442,"ily":3443,"dentials":3444,"Ġstrip":3445,"year":3446,"send":3447,"Ġrepr":3448,"lative":3449,"dst":3450,"reset":3451,"acked":3452,"Ġaccept":3453,"ET":3454,"pol":3455,"cla":3456,"Ġdebug":3457,"Ġ%(":3458,"imp":3459,"ĠCreate":3460,"chars":3461,"18":3462,"Ġresp":3463,"used":3464,"Candidate":3465,"ression":3466,"neOrMore":3467,"Ġoperation":3468,"lette":3469,"mote":3470,"ĠTODO":3471,"redirect":3472,"RUN":3473,"hase":3474,"ĠOther":3475,"Prober":3476,"SQL":3477,"closed":3478,"Ġ[]":3479,"Ġissue":3480,"sired":3481,"Ġoverride":3482,"},<":3483,"xies":3484,"Ġcond":3485,"------------":3486,"Ġfilenames":3487,"urls":3488,"AND":3489,"Ġtransform":3490,"Ġ((":3491,"argument":3492,"soc":3493,"erce":3494,"ĠNum":3495,":-":3496,"Stream":3497,"river":3498,"(%":3499,"Ġsha":3500,"wards":3501,")\"":3502,"Ġcommands":3503,"Ġway":3504,"stderr":3505,"Compiler":3506,"User":3507,"Ġes":3508,"CS":3509,"ĠĠĠĠĠĠĠĠĠĠĠĠĠĠĠĠĠĠĠĠĠĠ":3510,"Ġdomain":3511,"rev":3512,"ĠOrdered":3513,"grid":3514,"rypt":3515,"duce":3516,"ĠĠĠĠĠĠĠĠĠĠĠĠĠĠĠĠĠĠĠĠĠĠĠĠĠĠĠĠ":3517,"Ġcorrespon":3518,"ish":3519,"Ġseries":3520,"mbols":3521,"extract":3522,"after":3523,")).":3524,"ĠApp":3525,"Ġtorch":3526,"retry":3527,"Ġfunctools":3528,"ait":3529,"just":3530,"Ġsafe":3531,"down":3532,"fy":3533,"defaults":3534,"Ġshort":3535,"Ġctx":3536,"Ġ\",":3537,"dim":3538,"ĠSSL":3539,"Ġconst":3540,"Ġsetattr":3541,"Match":3542,"Ġpresent":3543,"Ġcursor":3544,"Ġcomment":3545,"ĠName":3546,"assertRaises":3547,"matrix":3548,"timedelta":3549,"setdefault":3550,"olver":3551,"~~~~~~~~":3552,"Ġdb":3553,"ĠPO":3554,"iling":3555,"prepare":3556,"''<":3557,"Model":3558,"rust":3559,"cer":3560,"Date":3561,"ORT":3562,"imil":3563,"Ġspecial":3564,"imize":3565,"pat":3566,"ports":3567,"Ġwrapped":3568,"-%":3569,"Ġraw":3570,"05":3571,"mbol":3572,"imilar":3573,"Ġdry":3574,"Ġpixel":3575,"sume":3576,"SON":3577,"Ġmodels":3578,"ĠĠĠĠĠĠĠĠĠĠĠĠĠĠĠĠĠĠĠĠĠĠĠĠĠ":3579,"original":3580,"SO":3581,"Ġmulti":3582,"Ġpyparsing":3583,"reshape":3584,"lush":3585,"Ġhtml":3586,"angle":3587,"asy":3588,"Ġauto":3589,"Whitespace":3590,"Ġsent":3591,"Content":3592,"Is":3593,"View":3594,"ĠĠĠĠĠĠĠĠĠĠĠĠĠĠĠĠĠĠĠĠĠĠĠĠĠĠ":3595,"ĠXXX":3596,"ient":3597,"isdir":3598,"Attribute":3599,"Ġpad":3600,"Ġformats":3601,"Ġworks":3602,"istory":3603,"tom":3604,"strict":3605,"Ġdesired":3606,"cookie":3607,"Ġdecor":3608,"Ġspecify":3609,"importer":3610,"Ġnormalize":3611,"rary":3612,"22":3613,"ĠRequirement":3614,"SU":3615,"bdist":3616,"Ġschema":3617,"plied":3618,"true":3619,"tect":3620,"At":3621,"Specifier":3622,"Session":3623,"aT":3624,"Ġpick":3625,"exclude":3626,"tem":3627,"vo":3628,"Ġrhs":3629,"Impl":3630,"reply":3631,"Ġtop":3632,"Ġfact":3633,"ĠParser":3634,"hex":3635,"ified":3636,"nom":3637,"ationError":3638,"Ġcustom":3639,"Ġstore":3640,"Ġdownload":3641,"precationWarning":3642,"ipy":3643,"ĠIterable":3644,"unique":3645,"ĠdoActions":3646,"archive":3647,"Ġcanonical":3648,"Ġmod":3649,"scalar":3650,"Ġkw":3651,"contains":3652,"04":3653,"ĠRE":3654,"domain":3655,"PE":3656,"ncy":3657,"velop":3658,"allclose":3659,"nsitive":3660,"ĠMicrosoft":3661,"As":3662,"dio":3663,"tered":3664,"****":3665,"Ġsimple":3666,"aut":3667,"ids":3668,"#<":3669,"ĠDo":3670,"Ġcontents":3671,"normalize":3672,"66":3673,"Ġverify":3674,"Ġfragment":3675,"ui":3676,"window":3677,"Ġretries":3678,"31":3679,"Ġproperty":3680,"month":3681,"ĠConfig":3682,"ian":3683,"board":3684,"Ġterms":3685,"FC":3686,"ug":3687,"chemy":3688,"Ġinsert":3689,"Ġ(...)":3690,"ransp":3691,"]),":3692,"DS":3693,"stribu":3694,"lper":3695,"Ġcomplete":3696,"Ġcomb":3697,"moved":3698,"fin":3699,"Ġcommon":3700,"DATE":3701,"1234":3702,"Up":3703,"Oper":3704,"Ġstd":3705,"tests":3706,"erate":3707,"best":3708,"Ġwarn":3709,"iddleware":3710,"Ġtoo":3711,"issue":3712,"RUNNING":3713,"allowed":3714,"PO":3715,"Ġthose":3716,"dence":3717,"named":3718,"fc":3719,"Inst":3720,"Case":3721,"Ġitertools":3722,"results":3723,"Filter":3724,"Ġapplication":3725,"ĠRegex":3726,"Regex":3727,"web":3728,"executable":3729,"77":3730,"img":3731,"Ġsupports":3732,"chain":3733,"lex":3734,"show":3735,"ftware":3736,"Ġet":3737,"Surface":3738,"cli":3739,"ics":3740,"ĠMYPY":3741,"Ġsuccess":3742,"\"],<":3743,"Ġlower":3744,"Empty":3745,"}\".":3746,"cols":3747,"ĠDate":3748,"Ġrunning":3749,"testing":3750,"loaded":3751,"Ġsetting":3752,"Line":3753,"charset":3754,"pping":3755,"fs":3756,"packaging":3757,"signed":3758,"sq":3759,"void":3760,"Ġ\"-":3761,"Ġdirectly":3762,"Ġextras":3763,"Ġunpack":3764,"git":3765,"199":3766,"(['":3767,"Ġbinary":3768,"</":3769,"hent":3770,"Tra":3771,"Ġbit":3772,"sv":3773,",)<":3774,"Ġmodules":3775,"Ġsuffix":3776,"stru":3777,"argv":3778,"ICEN":3779,"Ġbehavior":3780,"Ġcontrol":3781,"indent":3782,"Ġconstraint":3783,"alias":3784,"ĠMe":3785,"Ġcached":3786,"ĠCan":3787,"/<":3788,"unit":3789,">`":3790,"Ġlook":3791,"Ġmost":3792,"vals":3793,"Ġalp":3794,"Ġweb":3795,"orage":3796,"tyle":3797,"ops":3798,"Ġ[-":3799,"Ġlimit":3800,"Ġ11":3801,"Ġgenerated":3802,"ICENSE":3803,"(?:":3804,"hentic":3805,"drop":3806,"Ġwindow":3807,"Ġuseful":3808,"abspath":3809,"au":3810,"PATH":3811,"=%":3812,"Ġlay":3813,"Ġcould":3814,"xture":3815,"__(<":3816,"Foundation":3817,"Ġaddress":3818,"____":3819,"attribute":3820,"lot":3821,"null":3822,"tokens":3823,"Ġnote":3824,"Ġalias":3825,"derer":3826,"nsupported":3827,"seconds":3828,"ones":3829,"csv":3830,"dk":3831,"ED":3832,"Ġ#<":3833,"lots":3834,"come":3835,"^^":3836,"Ġtuples":3837,"Ġentries":3838,"served":3839,"ĠSpecifier":3840,"scale":3841,"Ġ._":3842,"ĠSup":3843,"Ġclean":3844,"ĠTimestamp":3845,"gre":3846,"vate":3847,"Ġra":3848,"pk":3849,"Ġ[(":3850,"clip":3851,"}}":3852,"restype":3853,"Ġknow":3854,"ĠCore":3855,"Ġtre":3856,"basename":3857,"]],":3858,"ouse":3859,"Ġoc":3860,"ination":3861,"5678":3862,"INT":3863,"sensitive":3864,"ĠCF":3865,"Ġgot":3866,"Ġcompile":3867,"Ġunique":3868,"mplementation":3869,"Encoding":3870,"Metadata":3871,"Ġeven":3872,"Ġlanguage":3873,"Ġcho":3874,"Po":3875,"environment":3876,">]<":3877,"legacy":3878,"pad":3879,"Ġclear":3880,"ĠPre":3881,"Trans":3882,"ĠText":3883,"Word":3884,"ressed":3885,"Ġleast":3886,"stop":3887,"leep":3888,"ernel":3889,"egacyVersion":3890,"distro":3891,"duct":3892,"Ġcomplex":3893,"PRE":3894,"pared":3895,"CHECKING":3896,"Ġmatplotlib":3897,"atches":3898,"Ġstatic":3899,"pendency":3900,"vers":3901,"Ġcompatible":3902,"optional":3903,"rs":3904,"ĠPath":3905,"ferred":3906,"Ġtarinfo":3907,"uous":3908,"Ġmany":3909,"Ġexceptions":3910,"conf":3911,"apply":3912,"Ġmon":3913,"editable":3914,".)<":3915,"Ġreset":3916,"(\"\\":3917,"td":3918,"ights":3919,"!!":3920,"ĠMake":3921,"maining":3922,"ifiers":3923,"ĠĠĠĠĠĠĠĠĠĠĠĠĠĠĠĠĠĠĠĠĠĠĠĠĠĠĠĠĠĠĠĠĠĠ":3924,"Ġusage":3925,"Ġdirs":3926,"af":3927,"Do":3928,"Ġ...<":3929,"Ġsubprocess":3930,"Ġdimension":3931,"edge":3932,"Ġglob":3933,"OF":3934,"[[":3935,"uint":3936,"istent":3937,"Group":3938,"'.<":3939,"()[":3940,"MARKER":3941,"ĠTYPE":3942,"ĠLICENSE":3943,"MD":3944,"compatible":3945,"cure":3946,"phases":3947,"Ġscalar":3948,"HT":3949,"scriptor":3950,"setuptools":3951,"layer":3952,"ading":3953,"())":3954,"apter":3955,"Ġsegment":3956,"__,<":3957,"suffix":3958,"202":3959,"expand":3960,"Spec":3961,"Ġ-*-":3962,"Ġruntime":3963,"Ġ'''<":3964,"Ġrelated":3965,"words":3966,"Ġdefine":3967,"mk":3968,"Int":3969,"Options":3970,"Ġopts":3971,"tick":3972,"categor":3973,"ĠValue":3974,"Ġhandl":3975,"unpack":3976,"ĠRaises":3977,"seed":3978,"slice":3979,"ALL":3980,"ERROR":3981,"limited":3982,"()))<":3983,"Ġvariables":3984,"desc":3985,"ffset":3986,"Des":3987,"argtypes":3988,"\\<":3989,"abi":3990,"Ġdepend":3991,"Ġbl":3992,"Ġ_,":3993,"Sub":3994,"Ġetc":3995,"database":3996,"Ġ30":3997,">)":3998,"Ðµ":3999,"ptr":4000,"Ġbad":4001,"Ġfinder":4002,"90":4003,"Event":4004,"\"{":4005,"Ġequivalent":4006,"517":4007,"Ġdelete":4008,"loop":4009,"Ġmemory":4010,"mag":4011,"iated":4012,"Ġpartial":4013,"ĠNotes":4014,"figure":4015,"warnings":4016,"Ġ------<":4017,"`.":4018,"Ġmight":4019,"ffective":4020,"Ġlater":4021,"stributed":4022,"ragma":4023,"Ġig":4024,"'ll":4025,"Ġalgorithm":4026,"Query":4027,"sources":4028,"ainst":4029,"Ġnecess":4030,"ĠDjango":4031,"Ġclosed":4032,"Ġprovides":4033,"dry":4034,"complex":4035,"fft":4036,"bind":4037,"Ġdivision":4038,"Ġvia":4039,"cell":4040,"total":4041,"Ġnorm":4042,"Ġmasked":4043,"Ġenumerate":4044,"Te":4045,"Ġrule":4046,"Ġbuilt":4047,"groups":4048,"Ġdown":4049,"Ġcoord":4050,"Dir":4051,"Other":4052,"ift":4053,"INTER":4054,"bstract":4055,"alle":4056,"Ġreport":4057,"37":4058,"ower":4059,"simple":4060,"ãģ":4061,"++":4062,"Stat":4063,"!<":4064,"Ġdependencies":4065,"bove":4066,"ĠMo":4067,"Ġ-*-<":4068,"Ġrepository":4069,"Ġcover":4070,"ĠGroup":4071,"groupby":4072,"colors":4073,"ision":4074,"requests":4075,"Ġscale":4076,"Ġbot":4077,"Ġ50":4078,"Ġnodes":4079,"GI":4080,"Num":4081,"pg":4082,"Ġfrozen":4083,"ĠID":4084,"atis":4085,"valuate":4086,"ĠOtherwise":4087,"=_":4088,">):<":4089,"izes":4090,"Timeout":4091,"USER":4092,"Ġ\"{":4093,"reque":4094,"pygame":4095,"allback":4096,"Ġ15":4097,"255":4098,"netloc":4099,"priate":4100,"redu":4101,"complete":4102,"TEN":4103,"lause":4104,"Union":4105,"license":4106,"ĠInter":4107,"sorted":4108,"dapter":4109,"generate":4110,"utput":4111,"Ġwho":4112,"ĠHel":4113,"Ġedge":4114,"Ġperiods":4115,"single":4116,"123":4117,"Ġencoded":4118,"roll":4119,"getattr":4120,">}<":4121,"mul":4122,"Control":4123,"II":4124,"Ġplace":4125,"ving":4126,"Ġpragma":4127,"crement":4128,"ĠParserElement":4129,"âĶ":4130,"openElements":4131,"Ġprotocol":4132,"Ġneeds":4133,"Ġshutil":4134,"sym":4135,"(\"%":4136,")),<":4137,"commit":4138,"track":4139,"period":4140,"PRO":4141,"Ġinstallation":4142,"Select":4143,"Ġpack":4144,"ĠTh":4145,"Ġmeans":4146,"indi":4147,"Ġcorresponding":4148,"flow":4149,"gb":4150,"Ġts":4151,"Input":4152,"Ġinstances":4153,"Ġnested":4154,"ster":4155,"Ġapply":4156,"Ent":4157,"Ġdistro":4158,"Ġabove":4159,"Ġalpha":4160,"Ġappend":4161,"ĠBSD":4162,"major":4163,"Ġsyntax":4164,"----------------------------------------------------------------------------":4165,"render":4166,"Ġrender":4167,"mpt":4168,"rection":4169,"Ġgenerate":4170,"Of":4171,"Stack":4172,"Ġappropriate":4173,"Ġconnect":4174,"finder":4175,"DataFrame":4176,"scope":4177,"Ġcalls":4178,"Ġallows":4179,"Ġduring":4180,"Ġrelative":4181,"Ġsupplied":4182,"All":4183,"azy":4184,"ĠCoreFoundation":4185,"ĠThese":4186,"ĠDis":4187,"Ġperform":4188,".')<":4189,"iltins":4190,"sequence":4191,"ĠSo":4192,"chor":4193,"ĠUT":4194,"Ġchars":4195,"ĠOSError":4196,"slots":4197,"Ġtgt":4198,"libc":4199,"Ġrout":4200,"mmar":4201,"widget":4202,"('/":4203,"hook":4204,"supported":4205,"parseError":4206,"'],<":4207,"Ġwell":4208,"Ġ25":4209,"=',":4210,"OM":4211,"(\".":4212,"Ġord":4213,"compress":4214,"chine":4215,"Open":4216,"factor":4217,"card":4218,"Reg":4219,"Ġpg":4220,"rat":4221,"surf":4222,"Ġstep":4223,"Ġactually":4224,"ĠReg":4225,"Ġ-----<":4226,"BUG":4227,"ĠOpen":4228,"Ġwhitespace":4229,"Ġwere":4230,"reqs":4231,"factory":4232,"501":4233,"Default":4234,")])<":4235,"tended":4236,"Ġregistry":4237,"ire":4238,"Expression":4239,"256":4240,"Ġexecutable":4241,"sen":4242,"Ġhook":4243,"COL":4244,"isual":4245,">\"":4246,"ĠÎ":4247,"mall":4248,")(":4249,"...,":4250,"Ġigno":4251,"Ġmerge":4252,"listdir":4253,"hooks":4254,"Style":4255,"OK":4256,"VAL":4257,"Ġordered":4258,"ATI":4259,"Builder":4260,"document":4261,"how":4262,"ĠparseImpl":4263,"2011":4264,"literals":4265,"finit":4266,"Ġ,":4267,"ndim":4268,"Ġrepresentation":4269,"Ġwords":4270,"modi":4271,"Ð°":4272,"ntil":4273,"Ġcandidates":4274,"Ġisn":4275,"ough":4276,"ict":4277,"Ġimg":4278,"Ġnumbers":4279,"Ġprop":4280,"Ġchat":4281,"Adapter":4282,"Ġtakes":4283,"losing":4284,"Ġrequire":4285,"png":4286,"raps":4287,"many":4288,"Ġdecimal":4289,"arge":4290,"tegr":4291,"Ġvar":4292,"nam":4293,"ĠYou":4294,"language":4295,"Ġprob":4296,"Ġupper":4297,"OL":4298,".\",<":4299,"85":4300,"les":4301,"Quote":4302,"Ġmath":4303,"dispatcher":4304,"registry":4305,"FIX":4306,"DATA":4307,"ertificate":4308,"ĠBuild":4309,"igration":4310,"omat":4311,"ffici":4312,"Ġcases":4313,"verter":4314,"ĠConvert":4315,"]+)":4316,"27":4317,")]":4318,"Ġhashes":4319,"ĠLink":4320,"channel":4321,"Ġprovide":4322,"Ġtimes":4323,"ks":4324,"ĠMy":4325,"Ġquote":4326,"Wrap":4327,"lation":4328,"fileobj":4329,"achine":4330,"Ġworking":4331,"Ġcharset":4332,"Ge":4333,"Header":4334,"alg":4335,"verbose":4336,"Ġtimedelta":4337,"Ġ*<":4338,"('\\":4339,"cessed":4340,"eno":4341,"ĠArgs":4342,"Values":4343,"specs":4344,"initial":4345,"Ġslice":4346,"ged":4347,"Ġwrit":4348,"ĠOneOrMore":4349,"assertTrue":4350,"ling":4351,"Ġletter":4352,"Ġseconds":4353,"plots":4354,"fragment":4355,"Ġpublic":4356,"grade":4357,"Ġsample":4358,"ĠPeriod":4359,"Dist":4360,"Ġrows":4361,"ummy":4362,"Ð¾":4363,"INE":4364,"Ġhooks":4365,"ik":4366,"matches":4367,"Ġedit":4368,"Ġassoc":4369,"flat":4370,"Import":4371,"pick":4372,"Ġcv":4373,"step":4374,"Ġwait":4375,"Ġlibraries":4376,"prog":4377,"queue":4378,"ĠCategorical":4379,"appen":4380,"sock":4381,"Ġstatement":4382,"iloc":4383,"tty":4384,"cros":4385,"WN":4386,"Ġ'/'":4387,"Ġonce":4388,"Ġnull":4389,"Ġdot":4390,"Ġregister":4391,"MODE":4392,"Meta":4393,"reason":4394,"application":4395,"RC":4396,"ĠĠĠĠĠĠĠĠĠĠĠĠĠĠĠĠĠĠĠĠĠĠĠĠĠĠĠĠĠĠĠ":4397,"2000":4398,"Ġregex":4399,"Ġrs":4400,"Ġrest":4401,"FIEL":4402,"digest":4403,"Ġignored":4404,"uted":4405,"iguous":4406,"84":4407,"Ġep":4408,"pd":4409,"yp":4410,"GB":4411,"Ġdrop":4412,"Ġproble":4413,"leg":4414,"Load":4415,"second":4416,"ĠCa":4417,"cursion":4418,"Ġloader":4419,"rule":4420,"licy":4421,"Ġsources":4422,"cum":4423,",))<":4424,"phase":4425,"heet":4426,"Exec":4427,"Ġbits":4428,"using":4429,"enum":4430,"agg":4431,"Ġlhs":4432,"Extra":4433,"Arg":4434,"Ġadditional":4435,"eval":4436,"provider":4437,"Ġve":4438,"Ġloop":4439,"Ġcondition":4440,"GG":4441,"aN":4442,"fficient":4443,"Ġcp":4444,"DL":4445,"uch":4446,"Ġnan":4447,"cookies":4448,"seless":4449,"Ġgre":4450,"Ġ\"'":4451,"rl":4452,"indices":4453,"âĢ":4454,"example":4455,"Ġanother":4456,"Ġlicense":4457,"reshold":4458,"Ġ`.":4459,"sync":4460,"Ġoperations":4461,"seek":4462,"FILE":4463,"olated":4464,"Ġreverse":4465,"missing":4466,"Ġgraph":4467,"Ġcodes":4468,"MS":4469,"SER":4470,"arrays":4471,"Widget":4472,"sample":4473,"dec":4474,"ĠSyntax":4475,"subprocess":4476,"GET":4477,"([<":4478,"Ġchecks":4479,"VC":4480,"fmt":4481,"Ġimportlib":4482,"Ġindices":4483,"Ġnegative":4484,"Link":4485,"Ġcollection":4486,"Ġtimezone":4487,"().<":4488,"train":4489,"Ġ\"--":4490,"Ġrepresenting":4491,"Ġitself":4492,"DIR":4493,"Ġagainst":4494,"cut":4495,"ÏĦ":4496,"Ġfix":4497,"Ġstacklevel":4498,"Ġfeature":4499,"ointer":4500,"Ġpop":4501,"alect":4502,"Ġemail":4503,"ret":4504,"ĠData":4505,"VAR":4506,"coord":4507,"Ġtrailing":4508,"rb":4509,"Status":4510,"coerce":4511,"Ġlists":4512,"versions":4513,"Ġfrozenset":4514,"pure":4515,"Ġsurf":4516,"Ġ+<":4517,"ays":4518,"ĠFI":4519,"apps":4520,"Ġ~":4521,"Ident":4522,"Integer":4523,"Ġpreserve":4524,"Ġengine":4525,"ĠBe":4526,"gend":4527,"clus":4528,"Extension":4529,"ered":4530,"ĠAt":4531,"DIST":4532,"Ġregular":4533,"clause":4534,"lazy":4535,"ograph":4536,"tesIO":4537,"EndTag":4538,"Ġvars":4539,"ĠUser":4540,"batch":4541,"Ġnecessary":4542,"()``":4543,"straints":4544,"Ġconverted":4545,"ĠRead":4546,"nomial":4547,"issues":4548,"icular":4549,"Ġsym":4550,"26":4551,"Pos":4552,"Ġdetermine":4553,"Ġliteral":4554,"ĠAs":4555,"ĠRFC":4556,"MAX":4557,"jar":4558,"Ġuntil":4559,"Ġsel":4560,"Ġxml":4561,"Environment":4562,"velopment":4563,"InstallRequirement":4564,"button":4565,"nsures":4566,"Ġinternal":4567,"Ġrequested":4568,"With":4569,"75":4570,"Ġpat":4571,"ĠĠĠĠĠĠĠĠĠĠĠĠĠĠĠĠĠĠĠĠĠĠĠĠĠĠĠĠĠ":4572,"ĠResponse":4573,"36":4574,"Ġbutton":4575,"dims":4576,"Mapping":4577,"abstract":4578,"alt":4579,"Ġmessages":4580,"Ġ//":4581,"Ġinterpreter":4582,"ĠCON":4583,"aving":4584,"ashes":4585,"Ġexpect":4586,"Ġplatforms":4587,"ARE":4588,"udio":4589,"Ġ])<":4590,"Ġconflict":4591,"Finder":4592,"aster":4593,"double":4594,"Child":4595,"35":4596,"cmp":4597,"mi":4598,"TestCase":4599,"ðŁ":4600,"messages":4601,"Ġbind":4602,".%":4603,">'":4604,"align":4605,"NaT":4606,"lide":4607,"Ġvc":4608,"returns":4609,"Directory":4610,"reduce":4611,"pep":4612,"lack":4613,"Ġ'{":4614,"tric":4615,"cv":4616,"kernel":4617,"alys":4618,"ĠSub":4619,"ĠVisual":4620,"Ġtermin":4621,"ĠMultiIndex":4622,"[...,":4623,"Ġzipfile":4624,"Ġtrack":4625,"Whe":4626,"Cur":4627,"rot":4628,"resp":4629,"Ġconstructor":4630,"ĠIPv":4631,"manifest":4632,"Ġcorrectly":4633,"Ġkernel":4634,"yload":4635,"related":4636,"spe":4637,"Ġcurrently":4638,"ĠIN":4639,"45":4640,"ural":4641,"Proxy":4642,"From":4643,"Ġbar":4644,"Types":4645,"verify":4646,"cfg":4647,"Ġdecorator":4648,"HEAD":4649,"Ġindicate":4650,"Phase":4651,"required":4652,"ipe":4653,"sdist":4654,"Ġ<<":4655,"Valid":4656,"generator":4657,"=-":4658,"take":4659,"indexer":4660,"go":4661,"Ġproxies":4662,"alysis":4663,"finity":4664,"WS":4665,"requency":4666,"Ġcomponent":4667,"Ġ),<":4668,"omb":4669,"Ġvisit":4670,"tol":4671,"Ġdescri":4672,"Ġput":4673,"logging":4674,":]":4675,"WORD":4676,"Ġscipy":4677,"Bu":4678,"Lazy":4679,"Property":4680,",),":4681,"Ġparticular":4682,"peat":4683,"Ġmember":4684,"THON":4685,"uess":4686,"igure":4687,"Ġwidget":4688,"Ġexclude":4689,"ĠLoc":4690,"shared":4691,"ĠGe":4692,"igrations":4693,"OUT":4694,"ParserElement":4695,"Ġautomat":4696,"Ġmean":4697,"Ġpatterns":4698,"itch":4699,"ather":4700,"umb":4701,"Ġam":4702,"Ġstrict":4703,"ategories":4704,"âķ":4705,"Ġ).":4706,"Ġdocumentation":4707,"Ġleading":4708,"UP":4709,"center":4710,"setter":4711,"operator":4712,"ĠSES":4713,"wrapper":4714,"ĠSESSION":4715,"Ġextensions":4716,"road":4717,"PC":4718,"extern":4719,"'].":4720,"aw":4721,"ier":4722,"imple":4723,"'\"":4724,"timestamp":4725,"AA":4726,"If":4727,"Ġfailed":4728,"Ġpairs":4729,"()'":4730,"alker":4731,"veal":4732,"tuples":4733,"atal":4734,"gr":4735,"Ġknown":4736,"Ġclip":4737,"apt":4738,"Platform":4739,"SET":4740,"ulate":4741,"Multi":4742,"Ġdisable":4743,"ĠSer":4744,"ocument":4745,"Ġlinks":4746,"Ġunless":4747,"Th":4748,"xes":4749,"usr":4750,"Per":4751,"candidates":4752,"ImageFile":4753,"Ġpatch":4754,"Bar":4755,"Ġside":4756,"Ġcalling":4757,"49":4758,"Ġstarting":4759,"128":4760,"serial":4761,"ĠAll":4762,"perly":4763,"()):<":4764,"Ġgroups":4765,"mapping":4766,"Literal":4767,"Ġpickle":4768,"ably":4769,"ĠSequence":4770,"dicate":4771,"stats":4772,"Ġmove":4773,"before":4774,"exer":4775,"effective":4776,"strings":4777,"Ġfmt":4778,"fixture":4779,"UE":4780,"ctypes":4781,"-----------------------------------------------------------------------------<":4782,"lang":4783,"video":4784,"XT":4785,")\"<":4786,"Tags":4787,")?":4788,"than":4789,"ĠHelper":4790,"Ġ-=":4791,"asarray":4792,"initialize":4793,"mbers":4794,"}\")<":4795,"Li":4796,"alen":4797,"ĠIO":4798,"Ġaltern":4799,"ground":4800,"Ġsimilar":4801,"hashes":4802,"Ġ()<":4803,"protocol":4804,"CU":4805,"roadcast":4806,"Ġ$":4807,"formed":4808,"Ġsignal":4809,"ĠDatetime":4810,"GS":4811,"Ġren":4812,"Ġscripts":4813,"Ġsw":4814,"wrapped":4815,"ĠForm":4816,"Ġip":4817,"Ġstill":4818,"Ġinner":4819,"Mo":4820,"Ġown":4821,"Ġ'*":4822,"HO":4823,"ography":4824,"pair":4825,"misc":4826,"Ġseen":4827,"Iterable":4828,"mission":4829,"Ġcanonicalize":4830,"ITE":4831,"ransport":4832,"entries":4833,"Ġhex":4834,"randn":4835,"\"]:<":4836,"Instance":4837,"Ġcell":4838,"Ġescape":4839,"Ġexpand":4840,"Ġder":4841,"Ġplot":4842,"Ġday":4843,"Ġsep":4844,"Ġchannel":4845,"Ġchanged":4846,"Ġembed":4847,"ĠValid":4848,"toml":4849,"subclass":4850,"filelist":4851,"Ġna":4852,"dtypes":4853,"LEN":4854,"Retry":4855,"untimeError":4856,"Float":4857,"flush":4858,"Protocol":4859,"Dtype":4860,"same":4861,"ÏĦÎ":4862,"ately":4863,"Ġsoup":4864,"BASE":4865,"Ġexplicitly":4866,"prober":4867,"Jar":4868,"reveal":4869,"Ġgh":4870,"ĠOrderedDict":4871,"Ġorigin":4872,"Ġcoe":4873,"STR":4874,"ĠEnsure":4875,"ysql":4876,"ReturnEmpty":4877,"Lookup":4878,"ĠParseResults":4879,"mayReturnEmpty":4880,"deprecated":4881,"cked":4882,"cogn":4883,"Ġaround":4884,"Ġ(_":4885,"ĠColumn":4886,"canvas":4887,"Ġ14":4888,"()]<":4889,"ORS":4890,"ibrary":4891,"Ġtraceback":4892,"(\"/":4893,"Ġvals":4894,"Ġalong":4895,"ness":4896,"29":4897,"okieJar":4898,"aly":4899,"cel":4900,"API":4901,"Ġremaining":4902,"Ġprogress":4903,"ĠNe":4904,"Ġminor":4905,"Point":4906,"Ġhelper":4907,"Ġimplemented":4908,"Ġmaximum":4909,"Ġincluded":4910,"Output":4911,"Ġtb":4912,"Ġserial":4913,"Ġadmin":4914,"_{":4915,"rites":4916,"Ġmajor":4917,"ivers":4918,"tran":4919,"ume":4920,"Ġoccur":4921,":\\":4922,"eps":4923,"Ġbasestring":4924,"setitem":4925,"trust":4926,"ategy":4927,"children":4928,"NS":4929,"sets":4930,"Ġstats":4931,"Ġsimp":4932,"Ġassign":4933,"('%":4934,"Ġconnections":4935,"constraint":4936,"minor":4937,"Ġrece":4938,"features":4939,"lying":4940,"component":4941,"06":4942,"COM":4943,"Ġinitialize":4944,"Ġcredentials":4945,"Ġcause":4946,"ud":4947,"Ġ\"/":4948,"Ġtempfile":4949,"lev":4950,"Ġusers":4951,"gz":4952,"TIONS":4953,"_.":4954,"ross":4955,"Ġanything":4956,"Ġthreading":4957,"ĠUp":4958,"ĠOnly":4959,"ĠGraph":4960,"libs":4961,"Ġvariant":4962,"Ġinher":4963,"subplots":4964,"Ġlegacy":4965,"Byte":4966,"Ġcoordin":4967,"levels":4968,"Ġdump":4969,"actual":4970,"vidual":4971,"NotFound":4972,"unknown":4973,"hentication":4974,"UC":4975,"ever":4976,"epoch":4977,"short":4978,"FE":4979,"KG":4980,"home":4981,"Ġsignature":4982,"Ġunittest":4983,"Ġche":4984,"Ġ(%":4985,"First":4986,"Ġtd":4987,"utor":4988,"ence":4989,")*":4990,"Ġstored":4991,"some":4992,"access":4993,"hour":4994,"UTF":4995,"ĠError":4996,"depth":4997,"assertIs":4998,"PAR":4999,"contextmanager":5000,"onts":5001,"Ġ\"\".":5002,"Ġinspect":5003,"Ġassume":5004,"pb":5005,"ĠTrans":5006,"ĠUnix":5007,"AC":5008,"public":5009,"utes":5010,"funcs":5011,"packed":5012,"setting":5013,"ResultsName":5014,"Net":5015,"duplic":5016,"alchemy":5017,"Le":5018,"isinstance":5019,"this":5020,"Ġbegin":5021,"Ġcategories":5022,"Ġmade":5023,"================================":5024,"__(*":5025,"outputs":5026,"Machine":5027,"parameters":5028,"ĠGNU":5029,"network":5030,"ĠInstallRequirement":5031,"Ġassociated":5032,"Item":5033,"ĠHTTPS":5034,"Ġtyp":5035,"Ġcreating":5036,"Size":5037,"cap":5038,"Ġdiv":5039,"[:]":5040,"LOCK":5041,"finalized":5042,"fd":5043,"memory":5044,"////////////////":5045,"retries":5046,"custom":5047,"lhs":5048,"Ġversionchanged":5049,"allel":5050,"alk":5051,"Ġinside":5052,"Ġbounds":5053,"Ġincluding":5054,"gits":5055,"Ġeverything":5056,"vcs":5057,">\"\"\"":5058,"Ġprepare":5059,"uff":5060,"dumps":5061,"GR":5062,"Ġones":5063,"runTests":5064,"Ġsomething":5065,"87":5066,"Ġdefinit":5067,"seq":5068,"Ġhigh":5069,"separ":5070,"[\\":5071,"certs":5072,"bz":5073,"istered":5074,"pixel":5075,"ULL":5076,"isfile":5077,"ĠPOINTER":5078,"Writer":5079,"Ġclone":5080,"DB":5081,"Ġactions":5082,"pandas":5083,"member":5084,"condition":5085,"ND":5086,"Ġdy":5087,"msvc":5088,"Ġcomparison":5089,"NI":5090,"Ġnumeric":5091,"contents":5092,"Qt":5093,"_<":5094,"ryptography":5095,"standard":5096,"gon":5097,"ĠPip":5098,"sleep":5099,"Mask":5100,"Ġchecking":5101,"dates":5102,"arker":5103,"markers":5104,"Ġcalcul":5105,"serv":5106,"implementation":5107,"Ġnever":5108,"br":5109,"Ġdetermin":5110,"ĠChar":5111,"ATION":5112,"ider":5113,"IndexError":5114,"ĠField":5115,"Ġactive":5116,"merge":5117,"Ġ24":5118,"prop":5119,"flag":5120,"symbols":5121,"Pa":5122,"Range":5123,"uting":5124,"1999":5125,"reference":5126,"ndle":5127,"IE":5128,"></":5129,"Ġprogram":5130,"\".<":5131,"Author":5132,"DeprecationWarning":5133,"unittest":5134,"Ġchunks":5135,"Ð¸":5136,"Ġrecursive":5137,"Ġph":5138,"Ġhand":5139,"Sequence":5140,"Ġless":5141,"Ġmatched":5142,"conv":5143,"patcher":5144,"Ġbelow":5145,"ĠEach":5146,"Ġns":5147,"tion":5148,"fic":5149,"ĠGiven":5150,"Ġsaved":5151,"ially":5152,"Ġ[])<":5153,"Ġautomatically":5154,"Wrapper":5155,"LECT":5156,"ĉĉĉ":5157,"sprite":5158,"Ġtick":5159,"ane":5160,"ÑĤ":5161,"cos":5162,"Ġcodecs":5163,"ĠStringIO":5164,"cing":5165,"Offset":5166,"\"))":5167,"FIG":5168,"Ġidentifier":5169,"got":5170,"decl":5171,"Ġ123":5172,"Ġsdist":5173,"oreign":5174,"[:]<":5175,"Ġraises":5176,"ĠTimedelta":5177,"forms":5178,"ENT":5179,"Ġmodify":5180,"raction":5181,"cording":5182,"graph":5183,"methods":5184,"Ġ@_":5185,"runtime":5186,"ä¸":5187,"Ġfullname":5188,"toklist":5189,"cu":5190,"versed":5191,"ĠĠĠĠĠĠĠĠĠĠĠĠĠĠĠĠĠĠĠĠĠĠĠĠĠĠĠĠĠĠ":5192,"tzinfo":5193,"interval":5194,"glob":5195,"'}<":5196,"UM":5197,"rf":5198,"Ġbasic":5199,"Ġfigure":5200,"08":5201,"HAS":5202,"Ad":5203,"progress":5204,"Param":5205,"Be":5206,"olation":5207,"utc":5208,"transp":5209,"loads":5210,"Ġvcs":5211,"Resource":5212,"Ġcookies":5213,"globals":5214,")``":5215,"Lexer":5216,"ands":5217,"#!":5218,"Body":5219,"Ġtimestamp":5220,"Ġinvo":5221,"21":5222,"done":5223,"Ġtemporary":5224,"Ġdialect":5225,"interpreter":5226,"lish":5227,".+":5228,"Ġsen":5229,"tence":5230,"configuration":5231,"leted":5232,"partition":5233,"light":5234,"Ġimages":5235,"Ensures":5236,"(\"<":5237,"2013":5238,"sparse":5239,"soup":5240,"Ġ1000":5241,"bad":5242,"Ġevents":5243,"lite":5244,"Ġgive":5245,"caped":5246,"ĠDetermine":5247,"Ġklass":5248,"Ġfeatures":5249,"Ġ],<":5250,"sertion":5251,"Rect":5252,"bbox":5253,"Count":5254,"utation":5255,"edit":5256,"Column":5257,"Ġtf":5258,"tokdict":5259,"aa":5260,"embed":5261,"unexpected":5262,"appname":5263,"mitted":5264,"Console":5265,"TENSION":5266,"ority":5267,"Ġcompare":5268,"caten":5269,"Ġ----------------------------------------------------------------":5270,"ĠExtension":5271,"irt":5272,"suppress":5273,"TABLE":5274,"Ġrng":5275,"Client":5276,"editor":5277,"actory":5278,"Ġabs":5279,"constants":5280,"bing":5281,"pers":5282,"specifier":5283,"tex":5284,"ws":5285,"ancel":5286,"otes":5287,"09":5288,"Ġbasename":5289,"google":5290,"container":5291,"orld":5292,"Block":5293,"FT":5294,"Ġsuppress":5295,"platforms":5296,"setResultsName":5297,"ĠAd":5298,"Ġgoogle":5299,"Ġtesting":5300,"Ġfileobj":5301,"fully":5302,"Ġshell":5303,"Named":5304,"Ġloaded":5305,"89":5306,"Ġsubclasses":5307,"Ġeasy":5308,"ĠUnsupported":5309,"ilities":5310,"Ġplugin":5311,"ĠSuppress":5312,"44":5313,"ĠExtra":5314,"Ġhandling":5315,"prospective":5316,"Encoder":5317,"Ht":5318,"ĠSome":5319,"expressions":5320,"HA":5321,"ĠSE":5322,"intain":5323,"ĠTemplate":5324,"/%":5325,"pted":5326,"Ġmag":5327,"ipFile":5328,"note":5329,"IME":5330,"det":5331,"comment":5332,"tf":5333,"ality":5334,"'ve":5335,"Cannot":5336,"Ġstructure":5337,"PT":5338,"ived":5339,"Process":5340,"ĠQt":5341,"']:<":5342,"andbox":5343,"ĠOver":5344,"should":5345,"__':<":5346,"confi":5347,"Ġdescriptor":5348,"timezone":5349,"imer":5350,"ĠJSON":5351,"Ġcontextlib":5352,"Ġalign":5353,"driver":5354,"linux":5355,"Ġdecl":5356,"ĠAB":5357,"Ġsock":5358,"Ġmanifest":5359,"ĠTra":5360,"orn":5361,"Ġquoted":5362,"Ġprimary":5363,"Callable":5364,"QuoteChar":5365,"ĠPyPI":5366,"'^":5367,"Ġturn":5368,"ĠNOT":5369,"tic":5370,"Ġmachine":5371,"Ġflat":5372,"eek":5373,"collect":5374,"nn":5375,"Ġspe":5376,"Ġaliases":5377,"masked":5378,"]).":5379,"Ġfalse":5380,"Ġlarge":5381,"ĠDEFAULT":5382,"lis":5383,"Ġdistributed":5384,"Ġtarfile":5385,"diff":5386,"tool":5387,"39":5388,"ĠVER":5389,"Ġgen":5390,"Transform":5391,"ves":5392,"Trust":5393,"manage":5394,"DA":5395,"Analysis":5396,"Ġws":5397,"Ġchanges":5398,"Windows":5399,"war":5400,"pens":5401,"Ġdebu":5402,"oring":5403,"END":5404,"Installer":5405,"cons":5406,"Ġprec":5407,"Ġcap":5408,"APP":5409,"MODEL":5410,"ualen":5411,"quoted":5412,").\"\"\"<":5413,"hain":5414,"Ġbatch":5415,"Ġexecution":5416,"maxsize":5417,"censed":5418,"ualenv":5419,"ring":5420,"Ġoptim":5421,"ĠUTF":5422,"fname":5423,"ERS":5424,"need":5425,"impl":5426,"dl":5427,")\")<":5428,"ĠNaN":5429,"ConnectionPool":5430,"collection":5431,"Ro":5432,"Ġcat":5433,"ĠRemove":5434,"oml":5435,"numeric":5436,"sertionError":5437,"ĠGE":5438,"__\",<":5439,"rong":5440,"Ġexecute":5441,"Run":5442,"lies":5443,"Recursion":5444,"posix":5445,"Certificate":5446,"xl":5447,"cend":5448,"LIST":5449,"Ġstdout":5450,"filters":5451,"CRE":5452,"Ġcompression":5453,"pyparsing":5454,"uation":5455,"MethodType":5456,"ĠSp":5457,"ĠMac":5458,"ivy":5459,"Ġcome":5460,"entity":5461,">-":5462,"Expected":5463,"eroOrMore":5464,"ĠNumber":5465,"Ġshared":5466,"SM":5467,"nb":5468,"ignoreExpr":5469,"Ġnn":5470,"__\":<":5471,"Unicode":5472,"Ġconstru":5473,"Ġdepth":5474,"ONE":5475,"FFFF":5476,"cpu":5477,")\\":5478,"Package":5479,"Ġdependency":5480,"Ġ'')<":5481,"Su":5482,"folder":5483,"varsall":5484,"?\\":5485,"Ġthrow":5486,"abstractmethod":5487,"ĠSO":5488,"\"]})<":5489,"Ġcolors":5490,"Ġher":5491,"ĠparseElement":5492,"Serializer":5493,"Enum":5494,"Ġdecoder":5495,"Ġexit":5496,"rac":5497,"riterion":5498,"finite":5499,")'":5500,"subdir":5501,"Ġerrno":5502,"found":5503,"istic":5504,"$\",":5505,"Ġmis":5506,"codeError":5507,"tegers":5508,"pdf":5509,"('_":5510,"ÑĢ":5511,"','":5512,"framework":5513,"]):<":5514,"ildcard":5515,"Ġattempt":5516,"Ġappe":5517,"ABC":5518,"AGE":5519,"ital":5520,"rstrip":5521,"two":5522,"Ġ64":5523,"Ġproperties":5524,"Func":5525,"My":5526,"elements":5527,"login":5528,"layout":5529,"Ġweights":5530,"Ġgrammar":5531,"atisfied":5532,"ado":5533,"Ġtextwrap":5534,"Ġpalette":5535,"nonzero":5536,"patterns":5537,"Ġpe":5538,"metaclass":5539,"Space":5540,"ĠComb":5541,"onal":5542,"ĠLine":5543,"Ġ``'":5544,"Ġdestination":5545,"ĠWhether":5546,"Formatter":5547,"Ġround":5548,"Setup":5549,"gis":5550,"}.":5551,"inary":5552,"Ġwd":5553,"times":5554,"Ġprevent":5555,"Ġreplaced":5556,"backends":5557,"Ġaccording":5558,"openssl":5559,"509":5560,"Ġmultip":5561,"Ġgrid":5562,"Ġinterval":5563,"Ġ^":5564,"Ġdetect":5565,"reverse":5566,"Ġdid":5567,"ĠNode":5568,"Ġfetch":5569,"Ġdisabled":5570,"Ġnormalized":5571,"sqrt":5572,"arily":5573,"lopen":5574,"##<":5575,"Ġlevels":5576,"ĠUpdate":5577,"Ġcy":5578,"Unknown":5579,"TA":5580,"modified":5581,"Ġreplacement":5582,"based":5583,"trie":5584,"Script":5585,"basic":5586,"protobuf":5587,"Code":5588,"Matches":5589,"tens":5590,"*.":5591,"pprint":5592,"Ġloading":5593,"StartTag":5594,"gent":5595,"-\\":5596,"And":5597,"Ġ60":5598,"operators":5599,"Ensure":5600,"Ġdifference":5601,"Helper":5602,"secure":5603,"tore":5604,"Position":5605,">}":5606,"_)<":5607,"hidden":5608,"sig":5609,"dependencies":5610,"TED":5611,"ĠIPython":5612,"Ġhashlib":5613,"CC":5614,"categories":5615,"ĠparseElementList":5616,"osity":5617,"Core":5618,"urlopen":5619,"Ġcapt":5620,"HAND":5621,"EXP":5622,"Ġduplic":5623,"writer":5624,"dimension":5625,"ĠContent":5626,"sumed":5627,"Ġincludes":5628,"into":5629,"Ġadjust":5630,"Ġminimum":5631,"summary":5632,"ler":5633,"rv":5634,"Ġ202":5635,"Ġcomments":5636,"purelib":5637,"remote":5638,"ĠTar":5639,"(\"'":5640,"Ġserialize":5641,"ability":5642,"peg":5643,"Ġsymbol":5644,"ParseExpression":5645,"Ġchildren":5646,"OptionError":5647,"tected":5648,"Ġinstr":5649,"locs":5650,"ĠHow":5651,"botparser":5652,"Ġfails":5653,"false":5654,"also":5655,"origin":5656,"comb":5657,"ification":5658,"Ġdouble":5659,"Ġurlparse":5660,"Ġunderlying":5661,"Timestamp":5662,"lask":5663,"Ġhandles":5664,"criptor":5665,"ĠRuntimeError":5666,"clo":5667,"Ġinplace":5668,"ook":5669,"Copy":5670,"reader":5671,"bottom":5672,"revision":5673,"native":5674,"Ġprovider":5675,"loss":5676,"ĠSpecifierSet":5677,"Ġvery":5678,"Ġlocale":5679,"ĠLegacyVersion":5680,"palette":5681,"Ġbbox":5682,"trip":5683,"Ġblocks":5684,"Function":5685,"atial":5686,"Var":5687,"UNK":5688,"Page":5689,"PUT":5690,"Ġspecifiers":5691,"Ġsets":5692,"bosity":5693,"Ġdays":5694,"ircle":5695,"07":5696,"Decoder":5697,"RECT":5698,"ĠToken":5699,"Loader":5700,"stmt":5701,"CharSet":5702,"ATOR":5703,"bounds":5704,"So":5705,"ector":5706,"Ġ00":5707,"porter":5708,"Ġinputs":5709,"unked":5710,"Ġcertificate":5711,"hing":5712,"Ġlex":5713,"ĠArray":5714,"nal":5715,"cannot":5716,"Ġvarious":5717,"geom":5718,"CKS":5719,"Ordered":5720,"visit":5721,"hip":5722,"Ġ}":5723,"duration":5724,"Ġoptparse":5725,"Ġnothing":5726,"Ġbuilding":5727,"Like":5728,"Ġsmall":5729,"Transport":5730,"Ġsymbols":5731,"Ġforward":5732,"ĠNormal":5733,"arguments":5734,"TLS":5735,"LOW":5736,"CHARS":5737,"dep":5738,"Ġscreen":5739,"annot":5740,"account":5741,"pus":5742,"ĠThere":5743,"Raise":5744,"Engine":5745,"variable":5746,"dialect":5747,"USE":5748,"history":5749,"js":5750,"ssib":5751,"MON":5752,"union":5753,"choices":5754,"PL":5755,"Ġobjc":5756,"Ġvirt":5757,"ĠInput":5758,"ĠBytesIO":5759,"Ġow":5760,"sedVersion":5761,"ĠInteger":5762,"getter":5763,"Ġreading":5764,"optimize":5765,"partial":5766,"')]<":5767,":\"":5768,"ĠDistutilsOptionError":5769,"hance":5770,"lr":5771,"Ġfallback":5772,"serializer":5773,"bb":5774,"quare":5775,"dius":5776,"ĠAbstract":5777,"Ġalternative":5778,"Mode":5779,"Ġepoch":5780,"ĠPackage":5781,"Ġmakes":5782,"Ġasyncio":5783,"rpm":5784,"Wheel":5785,"wik":5786,"ĠConnection":5787,"%(":5788,"rhs":5789,"rowser":5790,"SSLContext":5791,"Server":5792,"Ġsl":5793,"Ġlayer":5794,"We":5795,"]{":5796,"Ġsysconfig":5797,"Ġglobals":5798,"ox":5799,"Ġwebpage":5800,"]\")<":5801,"ĠFrame":5802,"}{":5803,"Ġsoftware":5804,"tables":5805,"ĠCombine":5806,"rec":5807,"Ġenc":5808,"Length":5809,"ja":5810,"under":5811,"FORMATS":5812,"Ġexpi":5813,"aps":5814,"UID":5815,"cedence":5816,"proc":5817,"Ġhig":5818,"ĠSpec":5819,"Ð½":5820,"ranch":5821,"rm":5822,"linalg":5823,"constructor":5824,"Convert":5825,"symbol":5826,"ĠFind":5827,"amma":5828,"JSON":5829,"ensor":5830,"Contain":5831,"Ġentire":5832,"dll":5833,"Ġstride":5834,"Ġdecoded":5835,"ĠFound":5836,"sgi":5837,"Ġevalu":5838,"unch":5839,"ĠEnvironment":5840,"Ġpadding":5841,"pache":5842,"boo":5843,"oton":5844,"available":5845,"CONFIG":5846,"Formatting":5847,"ĠDeprecationWarning":5848,"Ġindic":5849,"ategory":5850,"pickle":5851,"Ġcoefficient":5852,"ational":5853,"Ġfilesystem":5854,")\",":5855,"ĠWheel":5856,"finalize":5857,"59":5858,"Ġ},<":5859,"...<":5860,"Ġyear":5861,"(':":5862,"Ġreqs":5863,"Ġtrust":5864,"iterable":5865,"SA":5866,"phan":5867,"Factory":5868,"Ġenviron":5869,"ĠKeyword":5870,"ĠDatetimeIndex":5871,"ĠTry":5872,")],":5873,"SGI":5874,"Ġ[],":5875,"''":5876,"/#":5877,"alog":5878,"robotparser":5879,"generic":5880,"limitedList":5881,"\"\",":5882,"roken":5883,"Ġrather":5884,"DEBUG":5885,"Ġposix":5886,"builtins":5887,"callable":5888,"ĠEmpty":5889,"TYPES":5890,"missions":5891,"Ġmime":5892,"Ġdirname":5893,"ĠPyInstaller":5894,"identifier":5895,"SHORT":5896,"Ġenable":5897,"Ġcer":5898,"Ġcenter":5899,"properties":5900,"Converter":5901,"rouped":5902,"Ġ17":5903,"Ġhome":5904,"->":5905,"gments":5906,"ĠRetry":5907,"negative":5908,"Button":5909,"Ġabi":5910,"Ġseparator":5911,"writ":5912,"Ġapplied":5913,"correct":5914,"ĠTemp":5915,"Ġpyproject":5916,"distributions":5917,"TagToken":5918,"des":5919,"processor":5920,"nodes":5921,"Ġqueryset":5922,"Ġfiltered":5923,"Ġpur":5924,"duces":5925,"FIELDS":5926,"tb":5927,"('''<":5928,"ĠASC":5929,"screen":5930,"Dec":5931,"llo":5932,"AX":5933,"DF":5934,"Ġclosing":5935,"Ġcollect":5936,"way":5937,"Ġprecision":5938,"RIPT":5939,"sa":5940,":])<":5941,"LegacyVersion":5942,"clone":5943,"Ġ[('":5944,"Ġrtol":5945,"ĠMay":5946,"feature":5947,"ĠValues":5948,"(\"_":5949,"ĠApache":5950,"Ġzeros":5951,"Ġoutputs":5952,"identity":5953,"andlers":5954,"which":5955,"Ġ(-":5956,"days":5957,"Ġfinalize":5958,"Ġdimensions":5959,"gd":5960,"ĠPost":5961,"Ġgeneral":5962,"normalized":5963,"Ġnone":5964,"ordered":5965,"Ġbdist":5966,"(\",":5967,"matplotlib":5968,"rename":5969,"ĠModule":5970,"Ġdists":5971,"TY":5972,"Ġei":5973,"Ġthings":5974,"([^":5975,"Ġattemp":5976,"ĠVERSION":5977,"Tool":5978,"litext":5979,"argin":5980,"________":5981,"Ġqui":5982,"Ġfname":5983,"Ġest":5984,"expi":5985,"ĠOR":5986,"EXTENSION":5987,"EE":5988,"pypi":5989,"tach":5990,"Ġnewer":5991,"Ġpixels":5992,"ĠIOError":5993,"UND":5994,"Descriptor":5995,"traceback":5996,"makefile":5997,"sm":5998,"scan":5999,"Ġ19":6000,"Ġunknown":6001,"********":6002,"CR":6003,"Identifier":6004,"bits":6005,"decimal":6006,"etree":6007,"Ġclause":6008,"ĠDatabase":6009,"ixer":6010,"Ġremote":6011,"Ġunset":6012,"Ġ-->":6013,"otonic":6014,"ĠNA":6015,"mapper":6016,"ĠDevelopment":6017,"torch":6018,"insertElement":6019,"decor":6020,"aming":6021,"cwd":6022,"Ġmi":6023,"formatter":6024,"usage":6025,"ĠContext":6026,"Ïĥ":6027,"rpc":6028,"Ġcc":6029,"xis":6030,"Ġfunctionality":6031,"[::-":6032,"vance":6033,"linspace":6034,".\"":6035,"cret":6036,"Ġprobably":6037,"Names":6038,"ĠOpenSSL":6039,"Ġcontainer":6040,"Fe":6041,"ĠCO":6042,"Font":6043,"Ġcompute":6044,"implied":6045,"ĠOrderedSet":6046,"hi":6047,"tems":6048,"Ġmonth":6049,"ĠĠĠĠĠĠĠĠĠĠĠĠĠĠĠĠĠĠĠĠĠĠĠĠĠĠĠĠĠĠĠĠĠĠĠ":6050,"ANG":6051,"Ġdirection":6052,"Ġ31":6053,"OT":6054,"storage":6055,"NORE":6056,"Ġboundary":6057,"Scope":6058,"fullname":6059,"(',":6060,"Ġreturning":6061,"unct":6062,"('-":6063,"ĠNow":6064,"locator":6065,"Ġ13":6066,"ĠMapping":6067,"UTH":6068,"ĠCache":6069,"ueue":6070,"metric":6071,"([-":6072,"plugin":6073,"Ġcontained":6074,"Graph":6075,"Ġeffect":6076,"builder":6077,",\"":6078,"tiguous":6079,"Ġ\"*":6080,"Ġ128":6081,"Ġprocessing":6082,"ignoreExprs":6083,"=['":6084,"]})<":6085,"curity":6086,"OPTIONS":6087,"Ġcmdoptions":6088,"mq":6089,"ALP":6090,"TEXT":6091,"Ġdocstring":6092,"Ġnotation":6093,"ART":6094,"CHEME":6095,"mysql":6096,"ï¼":6097,"Only":6098,"Source":6099,"Ġagain":6100,"Ġdue":6101,"comparison":6102,"Ġisolated":6103,"tk":6104,"ĠMS":6105,"lem":6106,"appengine":6107,"aken":6108,"ilent":6109,"riteria":6110,"âĸĳ":6111,"gory":6112,"parsers":6113,"Ġpp":6114,"enc":6115,"translate":6116,"assertIsInstance":6117,"lineno":6118,"Ġpreferred":6119,"ĠGEOS":6120,"decoder":6121,"device":6122,"Ġtool":6123,"PlatformError":6124,"gres":6125,"ĠInt":6126,"counts":6127,"crete":6128,"locals":6129,"bundle":6130,"mmutable":6131,"Sh":6132,"48":6133,"Ġregistered":6134,"bitrary":6135,"baz":6136,"Ġconstant":6137,"28":6138,"duced":6139,"Ġred":6140,"Tokens":6141,"Ġxy":6142,"collide":6143,"fx":6144,"System":6145,"product":6146,"CESS":6147,"Ġfi":6148,"verage":6149,"READ":6150,"PREFIX":6151,"Ġdistance":6152,"shift":6153,"60":6154,"TRI":6155,"dy":6156,"ĠWh":6157,"Ġinstant":6158,"CASE":6159,"Ed":6160,"]),<":6161,"jo":6162,"leave":6163,"gether":6164,"proxies":6165,"tempdir":6166,"ffered":6167,"ĠSyntaxError":6168,"Params":6169,"He":6170,"shell":6171,"Ġdigest":6172,"Ġanchor":6173,"pendent":6174,"ube":6175,"ALI":6176,"ĠDon":6177,"You":6178,"undefined":6179,"Ac":6180,"phanum":6181,"Unsupported":6182,"DIRECT":6183,"diffe":6184,"Ġdim":6185,"Raised":6186,"Ġimporter":6187,"(\"\"\"<":6188,"category":6189,"cending":6190,"multiple":6191,"Ñģ":6192,"diag":6193,"Ġgreater":6194,"boolean":6195,"Write":6196,"sidered":6197,"ĠASCII":6198,"Ġfixed":6199,"images":6200,"AppName":6201,">\"<":6202,"deg":6203,"BE":6204,"wer":6205,"}'":6206,"Ġfoo":6207,"anked":6208,"Ġcompress":6209,"Debug":6210,"Ġbackwards":6211,"conflict":6212,"Ġlock":6213,"success":6214,"PYTHON":6215,"Provides":6216,"adapt":6217,"Progress":6218,"white":6219,"Ġaccepts":6220,"Cre":6221,"ava":6222,"rfc":6223,"Ġ})<":6224,"Ġproduct":6225,"Ġapps":6226,"Ġupdated":6227,"Ġrevision":6228,"Ġconsidered":6229,"windows":6230,"Ġimplicit":6231,"NUM":6232,"Document":6233,"dat":6234,"Alchemy":6235,"ĠCandidate":6236,"\"'":6237,"yper":6238,"Const":6239,"refs":6240,"\\*":6241,"free":6242,"Ġproblem":6243,"high":6244,"=\":":6245,"Null":6246,"Ġmagic":6247,"kets":6248,"CAL":6249,"Ġsparse":6250,"prev":6251,"'``":6252,"Ġpax":6253,"Ġatol":6254,"Attributes":6255,"nor":6256,"qd":6257,"Ġmixed":6258,"trace":6259,"frames":6260,"rgb":6261,"Ġ{%":6262,"Ġintern":6263,"previous":6264,"Ġgc":6265,"ARY":6266,"ationship":6267,"king":6268,"mpath":6269,"]],<":6270,"Ġterm":6271,"ĠFIX":6272,"ned":6273,"Ġyet":6274,"RITE":6275,"inel":6276,"cture":6277,"Ġlocations":6278,"#!/":6279,"tle":6280,"Ġgenerator":6281,"Ġcryptography":6282,"Ġrenderer":6283,"counter":6284,"Ġ'''":6285,"Reader":6286,"Ġprints":6287,"ssibly":6288,"lstrip":6289,"Ġpackaging":6290,"ĠGeometry":6291,"*,":6292,"support":6293,"venv":6294,"NE":6295,"isting":6296,"Ġinstrlen":6297,"DAL":6298,"Download":6299,"parameter":6300,"Ġsecure":6301,"']]<":6302,"Ġadapter":6303,"Ġnamedtype":6304,"################################################################":6305,"Ġnt":6306,"Ġlogic":6307,"Ġtrain":6308,"ĠSoftware":6309,"lists":6310,"dflags":6311,"Ġgu":6312,"encoded":6313,"SecTrust":6314,"Try":6315,"insum":6316,"Ġfrequency":6317,"threshold":6318,"Enhance":6319,"ĠFIXME":6320,"IDE":6321,"Î¿":6322,"Ġfs":6323,"Ġseealso":6324,",)":6325,"fit":6326,"Ġduration":6327,"troll":6328,"Ð¾Ð":6329,"Î¹":6330,"Ġresources":6331,"Ġcompiled":6332,"CODE":6333,"Html":6334,"CUR":6335,"imation":6336,"Ġformatted":6337,"ĠXML":6338,"=\",":6339,"ĠInit":6340,"Ġnamedtuple":6341,"Ġrepe":6342,"Ġtele":6343,"repeat":6344,"without":6345,"Ġ\"{}":6346,"xxxx":6347,"\"})<":6348,"Pr":6349,"wb":6350,"ridden":6351,"IGNORE":6352,")\"\"\"<":6353,"Ġdebugging":6354,"Pass":6355,"Ġhist":6356,"utableMapping":6357,"Ġobtain":6358,"inc":6359,"Ġwildcard":6360,"ĠSimple":6361,"Missing":6362,"ym":6363,"DAY":6364,"ĠDec":6365,"maxLen":6366,"Syntax":6367,"ĠĠĠĠĠĠĠĠĠĠĠĠĠĠĠĠĠĠĠĠĠĠĠĠĠĠĠĠĠĠĠĠĠĠĠĠĠĠĠ":6368,"ltk":6369,"platlib":6370,"((\"":6371,"score":6372,"Ġlocator":6373,"Ġcapi":6374,"cluded":6375,"Loop":6376,"Ġbottom":6377,"46":6378,"Axes":6379,"unc":6380,"handlers":6381,"suite":6382,"Ġ|=":6383,"Ġmarkers":6384,"renderer":6385,"catenate":6386,"ĠElement":6387,"OD":6388,"+-":6389,"Ġ%<":6390,"impliedTagToken":6391,"IM":6392,"arwin":6393,"events":6394,"Ġadding":6395,"Ġexprs":6396,"Dispatcher":6397,"Ġcli":6398,"als":6399,"()),<":6400,"Hello":6401,"]])":6402,"9999":6403,"1000":6404,"serialize":6405,"pyxl":6406,"Ġentity":6407,"Cursor":6408,"SpaceCharacters":6409,"whitespace":6410,"hist":6411,"ĠMessage":6412,"ĠIndexError":6413,"Abstract":6414,"ending":6415,"Ġmodified":6416,"nested":6417,"ravel":6418,"([],":6419,"iterkeys":6420,"ĠURLs":6421,"!\")<":6422,"159":6423,"span":6424,"ĠWin":6425,"choice":6426,"ye":6427,"zA":6428,"Ġfree":6429,"DG":6430,"pied":6431,"ancy":6432,"Ġ\")<":6433,"inder":6434,"Ġcs":6435,"inputs":6436,"Database":6437,"cri":6438,"trim":6439,"Ġinstaller":6440,"cores":6441,"bed":6442,"}\\":6443,"Ġscope":6444,"maps":6445,"Ġleave":6446,"Ġscan":6447,"Ġmoved":6448,"installer":6449,"nail":6450,"moving":6451,"ĠGraphQL":6452,"Backend":6453,"Ġtr":6454,"resses":6455,"Hash":6456,"Middleware":6457,"mac":6458,"concat":6459,"super":6460,"Ġrepresents":6461,"Ġbins":6462,"ĠSkip":6463,"izing":6464,"algorithm":6465,"BaseVersion":6466,"Ġvector":6467,"attempt":6468,"Ġ40":6469,"uthor":6470,"contextlib":6471,"Trace":6472,"88":6473,"iso":6474,"ĠPublic":6475,"Operation":6476,"umbnail":6477,"Ġeval":6478,"Ob":6479,"Ġ]":6480,"^^^^":6481,":',":6482,"ĠCCompiler":6483,"iph":6484,"Items":6485,"Ġwriter":6486,"Ġreally":6487,"Locator":6488,"categorical":6489,"Ġrules":6490,".'<":6491,"helper":6492,"Ġmk":6493,"adapter":6494,"ĠPass":6495,"signature":6496,"Ġapi":6497,"digit":6498,"eeded":6499,"IF":6500,"ĠWork":6501,"Ver":6502,"ĠST":6503,"magic":6504,"iversal":6505,"Ġdefining":6506,"assign":6507,"lint":6508,"ROM":6509,"Ġmac":6510,"readline":6511,"latin":6512,"Ġfactory":6513,"Ġintegr":6514,"gettext":6515,"Ġ--------------------------------":6516,"(\"-":6517,"Ġsqlalchemy":6518,"arrow":6519,"Requires":6520,"statement":6521,"roy":6522,"Ġdual":6523,"agers":6524,"Init":6525,"45678":6526,"evaluate":6527,"ĠRange":6528,"Ġupload":6529,"Ġintegers":6530,"([(":6531,"Ġ%}<":6532,"inplace":6533,"ipher":6534,"ished":6535,"Ġquot":6536,"8601":6537,"running":6538,"Ġprivate":6539,"Ġconstants":6540,"Window":6541,"middleware":6542,"Ġresolved":6543,"Ġpolynomial":6544,"ĠRequests":6545,"Buffer":6546,"Template":6547,"Failed":6548,"Normal":6549,"percent":6550,"Ġol":6551,"Ġhistory":6552,"ĠNew":6553,"Ġlate":6554,"ander":6555,"DistributionAnalysis":6556,"Ġutils":6557,"###<":6558,"Remove":6559,"ĠFigure":6560,"Ġactiv":6561,"Ġmypy":6562,"Ġconstructed":6563,"bs":6564,"ĠRect":6565,"installation":6566,"Ġ1024":6567,"ĠProxy":6568,"mainder":6569,"Ġfilters":6570,"Ġspecifying":6571,"works":6572,"Ġimmedi":6573,"Back":6574,"Ġcwd":6575,"special":6576,"Ġascii":6577,"ĠZeroOrMore":6578,"Ġamount":6579,"ĠSOCKS":6580,"\"%":6581,"enabled":6582,"REG":6583,"Ġimported":6584,"ĠDefaults":6585,"Ġplay":6586,"cognized":6587,"Mac":6588,"quent":6589,"Ġwritten":6590,"Ġfactor":6591,"PU":6592,"RGB":6593,"define":6594,"ĠUndefined":6595,"iphers":6596,"Sup":6597,"multipart":6598,"\"}<":6599,"Ġmigrations":6600,"Ġlicensed":6601,"Sign":6602,"ortran":6603,"RED":6604,"accept":6605,"Could":6606,"Ġindividual":6607,")-":6608,"Ġstmt":6609,"ĠHidden":6610,"Ġ\\\\":6611,"ranges":6612,"payload":6613,"Ġzone":6614,"ElementEnhance":6615,"bi":6616,"week":6617,"\">":6618,"macros":6619,"ĠHandle":6620,"Ġabis":6621,"runner":6622,"({'":6623,"Ġrot":6624,"ai":6625,"Ġthree":6626,"inux":6627,"ĠLoad":6628,"ftime":6629,"Ġreversed":6630,"Ġhaving":6631,"makedirs":6632,"Îµ":6633,"chunks":6634,"Ġowner":6635,"XML":6636,"Ġtk":6637,"Ġgeneric":6638,"insensitive":6639,"arm":6640,"PEC":6641,"Ġwriting":6642,"MachineState":6643,"ĠDef":6644,"LACK":6645,"regate":6646,"kze":6647,"vec":6648,"ĠLiteral":6649,"recursive":6650,"Conflict":6651,"alyz":6652,"kzeug":6653,"cpp":6654,"rng":6655,"Infinity":6656,"interface":6657,"65":6658,"Ġtaken":6659,"Ġ''')<":6660,"Ġ'#":6661,"Number":6662,"'(?":6663,"Ġreply":6664,"trc":6665,"Ġ`~":6666,"ĠMax":6667,"ĠWSGI":6668,"ĠConfiguration":6669,"uler":6670,"ird":6671,"Ġdepends":6672,"wind":6673,"xs":6674,"arted":6675,"Ġmapper":6676,"tection":6677,"locations":6678,"Ġretval":6679,"black":6680,"Ġextend":6681,"TIMEOUT":6682,"Ġcombine":6683,"REQU":6684,"401":6685,"functions":6686,"Ġsuitable":6687,"Ġcoefficients":6688,"addr":6689,"Dictionary":6690,"Ġeditable":6691,"Ġtp":6692,"Ġdev":6693,"djangoproject":6694,"Url":6695,"Ġdat":6696,"Ġruns":6697,"Ġindexer":6698,"Ġ))<":6699,"Ġresolution":6700,"ĠTeam":6701,"cremental":6702,"gi":6703,"Ġpi":6704,"itu":6705,"Ġdriver":6706,"ggest":6707,"reindex":6708,"have":6709,"Ġformatter":6710,"LAGS":6711,"periods":6712,"unnel":6713,"Ġ_('":6714,"limiter":6715,"Entry":6716,"LER":6717,"Ġpositive":6718,"Ġdiff":6719,"Ġarea":6720,"Ġqueue":6721,"descriptor":6722,"Ġtransaction":6723,"ĠStop":6724,"ĠPool":6725,"prod":6726,"ĠMARKER":6727,"svn":6728,"ĠQu":6729,"Rec":6730,"objc":6731,"iteritems":6732,"Clause":6733,"amily":6734,"area":6735,"ĠMoved":6736,"separated":6737,"Ġhandled":6738,"Ġprepared":6739,"troller":6740,"ious":6741,"Ġaccount":6742,"Ġhttplib":6743,"Ġnewline":6744,"ariable":6745,"\"^":6746,"=<":6747,"Ġpers":6748,"itecture":6749,"Ġopenpyxl":6750,"linear":6751,"locale":6752,"ĠSte":6753,"comments":6754,"LOB":6755,"Ġ=<":6756,"Ġrc":6757,"Ġenabled":6758,"Ġls":6759,"Address":6760,"blit":6761,"firm":6762,"\\.\\":6763,"ĠstopOn":6764,"profile":6765,"credentials":6766,"Ġindicates":6767,"Label":6768,"ĠShould":6769,"provides":6770,"owner":6771,"Ġprocessed":6772,"roots":6773,"ĠFormat":6774,"ĠUsed":6775,"matching":6776,"ĠOSStatus":6777,"(('":6778,"cr":6779,"dataset":6780,"ĠHt":6781,"Ġopening":6782,"ĠSQLAlchemy":6783,"visible":6784,"Ġinv":6785,"Non":6786,"Ġloss":6787,"Ġlooks":6788,"Ġbuilder":6789,"postargs":6790,"Ġgood":6791,"Ġdefinition":6792,"Ġlazy":6793,"CL":6794,"canonical":6795,"!!!!":6796,">\".":6797,"Over":6798,"ek":6799,"ĠKe":6800,"Ġhidden":6801,"splitext":6802,"79":6803,"TS":6804,"multip":6805,"legend":6806,"Ġrecent":6807,"Ġ{})<":6808,"Ġvalidation":6809,"ĠCompute":6810,"ĠInstallationError":6811,"Ġblue":6812,"PKG":6813,"]:":6814,"Ġinterpol":6815,"çļ":6816,"Ġmpl":6817,"ĠPo":6818,"pathsep":6819,"disable":6820,"Ġcoordinates":6821,"ornado":6822,"npack":6823,"ISO":6824,"pose":6825,"QUARE":6826,"gdal":6827,"çļĦ":6828,"Ġforms":6829,"weight":6830,"edges":6831,"report":6832,"ceed":6833,"ĠTLS":6834,"findall":6835,"beta":6836,"console":6837,"Def":6838,"FormattingElements":6839,"Ġcf":6840,"ĠInterval":6841,"ĠSh":6842,"âĸĪ":6843,"Ġnative":6844,"']['":6845,"ĠCommandError":6846,"locked":6847,"begin":6848,"NOWN":6849,"ience":6850,"Ġimports":6851,"redirects":6852,"litem":6853,"Ġbetter":6854,"JP":6855,"uuid":6856,"inja":6857,"override":6858,"Ġdownloaded":6859,"rate":6860,"Ġsig":6861,"Ġpathlib":6862,"Ġcaller":6863,":\",":6864,"Ġful":6865,"Ġauthentication":6866,"Ġchain":6867,"task":6868,"ĠGeneral":6869,"Ġconsistent":6870,"spection":6871,"(\">":6872,"Ġpylint":6873,"Ġsimply":6874,"sin":6875,"keyword":6876,"ĠArg":6877,"'}":6878,"ĠTag":6879,"iterator":6880,"queryset":6881,"ef":6882,"Ġwon":6883,"Ġmuch":6884,"Ġsigned":6885,"rive":6886,"conver":6887,"ĠRaise":6888,"Ġservice":6889,"BACK":6890,"master":6891,"Ġconsole":6892,"unctuation":6893,"pc":6894,"while":6895,"Ġpk":6896,"Ġangle":6897,"blocks":6898,"namic":6899,"2012":6900,"racle":6901,"Ġbackward":6902,"Ġlonger":6903,"ĠProbing":6904,"ĠProbingState":6905,"srid":6906,"{'":6907,"``.":6908,"HTTPS":6909,"Ġhandlers":6910,"Send":6911,"rg":6912,"Ġrefer":6913,"__\",":6914,"Ġdoing":6915,"ĠRun":6916,"weights":6917,"Ġwrong":6918,"ASE":6919,"sn":6920,"Ġappauthor":6921,"sudo":6922,"Ġschemes":6923,"OneOrMore":6924,"Ġnb":6925,"Represent":6926,"cepted":6927,"Ġstorage":6928,"servable":6929,"wraps":6930,"Ġms":6931,"TOCOL":6932,"Ġflush":6933,"ĠURI":6934,"125":6935,"(.*":6936,"*.<":6937,"*<":6938,"Ġ{}\".":6939,"CharSetProber":6940,"Î±":6941,"ĠMySQL":6942,"normpath":6943,"'[":6944,"Ġoptimize":6945,"Ġconverting":6946,"Ġplat":6947,"specifiers":6948,"Lock":6949,"Geometry":6950,"einsum":6951,"external":6952,"upload":6953,"Ġmacros":6954,"ĠLe":6955,"Ġhostname":6956,"VALID":6957,"spa":6958,"poses":6959,"Ġdelta":6960,"agent":6961,"Ġguess":6962,"prerelease":6963,"ĠDEBUG":6964,"__',":6965,"outer":6966,"SCRIPT":6967,"prep":6968,"Ġlocals":6969,"latest":6970,"Ġfeed":6971,"Ġlayout":6972,"levant":6973,"Ġgrouped":6974,"TEST":6975,"acket":6976,"ĠHttp":6977,")}":6978,"76":6979,"ulation":6980,"neg":6981,"Ġextracted":6982,"Ġtables":6983,"ASC":6984,"TreeBuilder":6985,"actions":6986,"ĠObject":6987,"newdoc":6988,"apipe":6989,"Does":6990,"See":6991,"stride":6992,"Ġpathname":6993,"Ġdepending":6994,"geos":6995,"unlink":6996,"Ġlang":6997,"Ġoutside":6998,"operation":6999,"hand":7000,"mant":7001,"dient":7002,"Ġinterpre":7003,"Ġexactly":7004,"Ass":7005,"dedent":7006,"{<":7007,"Ġencoder":7008,"Ġwhose":7009,"called":7010,"Ġld":7011,"dpi":7012,"iform":7013,"ParseError":7014,"Ġimplements":7015,"jace":7016,"ĠTimeout":7017,"irc":7018,"\"\".":7019,"cleanup":7020,"ĠMethod":7021,"Interface":7022,"Admin":7023,"stub":7024,"Ġhold":7025,"Ġendpoint":7026,"Ġtrim":7027,"klass":7028,"ĠDistutilsSetup":7029,"ĠDistutilsSetupError":7030,"izers":7031,"encoder":7032,"ĠBad":7033,"MT":7034,"Win":7035,"WAR":7036,"Ġmedia":7037,"mplements":7038,"selection":7039,"Ġdevice":7040,"deep":7041,"Ġpred":7042,"Ġposn":7043,"EOF":7044,"scape":7045,"Ġ(``":7046,"ared":7047,"ĠTree":7048,"quit":7049,"âĢ¢":7050,"spawn":7051,"wsgi":7052,"Ġ':":7053,"chin":7054,"Ġvs":7055,"ORY":7056,"Ġwheels":7057,"Ġdetermined":7058,"Ġimmediately":7059,"Lay":7060,"mixed":7061,"Ġcategory":7062,"ParsedVersion":7063,"ĠNumPy":7064,"tarinfo":7065,"maybe":7066,"Ġdispatch":7067,"Ġmanage":7068,"Ġlineno":7069,"darwin":7070,"Ġconversion":7071,"keywords":7072,"TimeoutError":7073,"att":7074,"Ġcopied":7075,"ĠModel":7076,"forward":7077,"copyright":7078,"Local":7079,"primary":7080,"Ġdeg":7081,"EGG":7082,"Ġconstraints":7083,"pended":7084,"Ġrunner":7085,"PARE":7086,"Installed":7087,"adow":7088,"uster":7089,"Ġseparate":7090,"ĠLocal":7091,"âĸĳâĸĳ":7092,"Ġaddition":7093,"Collection":7094,"variables":7095,"DK":7096,"Ġfilled":7097,"Ġ'\\\\":7098,"ĠImp":7099,"accum":7100,"ĠWith":7101,"BOSE":7102,"Ġqual":7103,"ĠEU":7104,"Ġrecords":7105,"ÐµÐ":7106,"Queue":7107,"SCHEME":7108,"Ġ517":7109,"NotFoundError":7110,"EXPR":7111,"Handle":7112,"satisfied":7113,"tector":7114,"Ġdiag":7115,"Ġgets":7116,"ĠSelect":7117,"Ġ23":7118,"Ġwinreg":7119,"IGNORECASE":7120,"Ġ'{}":7121,"Record":7122,"Ġpassing":7123,"Register":7124,"dr":7125,"icon":7126,"ĠHash":7127,"gl":7128,"cheb":7129,"bc":7130,"ĠFilter":7131,"='',":7132,"Ġsuite":7133,"Validator":7134,"tensor":7135,"Toml":7136,"ĠPlease":7137,"ied":7138,"Ġprompt":7139,"minLen":7140,"ĠĠĠĠĠĠĠĠĠĠĠĠĠĠĠĠĠĠĠĠĠĠĠĠĠĠĠĠĠĠĠĠĠ":7141,"ĠstartTagOther":7142,"CheckList":7143,"RecCheckList":7144,"nch":7145,"unset":7146,"inv":7147,"relation":7148,"ĠGenerator":7149,"Ġmetavar":7150,"DEF":7151,"endTag":7152,"Ġreferences":7153,"nders":7154,"INPUT":7155,"VERBOSE":7156,"MethodDispatcher":7157,"Ġproperly":7158,"ĠLO":7159,"functools":7160,"METH":7161,"greater":7162,"98":7163,"2017":7164,"randint":7165,"Ġcertain":7166,"othing":7167,"Row":7168,"gc":7169,"Ġagg":7170,"ĠCur":7171,"venience":7172,"Ġselection":7173,"Ġtreat":7174,"sually":7175,"Ġok":7176,"Ġdtypes":7177,"generated":7178,"Ġ'.'<":7179,"Ġtreated":7180,"Imp":7181,"Ġhard":7182,"ĠOper":7183,"ParseElementEnhance":7184,"iff":7185,"nx":7186,"nu":7187,"Ġurls":7188,"LOG":7189,"ĠFoundation":7190,"Help":7191,"sections":7192,"Operator":7193,"Ġ256":7194,"hello":7195,"glibc":7196,"osite":7197,"ĠEnt":7198,"ĠHe":7199,"StringIO":7200,"Ġordering":7201,"CACHE":7202,"median":7203,"chinery":7204,"NTI":7205,"ama":7206,"css":7207,"Ġ{{":7208,"ĠER":7209,"units":7210,"herm":7211,")'<":7212,"ĉĉĉĉ":7213,"HANDLER":7214,"WH":7215,"lan":7216,"tw":7217,"Ġface":7218,"Ġoverwrite":7219,"Ġprofile":7220,"Ġexport":7221,"}'.":7222,"Ġ\">":7223,"Ġ([":7224,"ORTED":7225,"users":7226,"Ġscal":7227,"Ġart":7228,"duction":7229,"Ġwhole":7230,"Ġear":7231,"Level":7232,"Library":7233,"infer":7234,"vector":7235,"pathname":7236,"Ġpositional":7237,"private":7238,"CORD":7239,"Ġints":7240,"Ġsavelist":7241,"inger":7242,"logical":7243,"LINE":7244,"Ġsa":7245,"lend":7246,"SSLSet":7247,"what":7248,"ratio":7249,"CCompiler":7250,"Walker":7251,"ĠSDK":7252,"Ġoverlap":7253,"2018":7254,"Ġposixpath":7255,"serted":7256,"CookieJar":7257,"SUPP":7258,"paredRequest":7259,"Marker":7260,"###":7261,"Ġ``.":7262,"Log":7263,"Ind":7264,"digits":7265,"/.":7266,"but":7267,"quee":7268,"Ġdeleted":7269,"direction":7270,"Ġseq":7271,"Ġresulting":7272,"`,<":7273,"ĠSystem":7274,"plain":7275,"stit":7276,"EXT":7277,"70":7278,"MAN":7279,"indexes":7280,"MOD":7281,"ĠQuery":7282,"ilers":7283,"Ġuuid":7284,"imports":7285,"splitlines":7286,"ĠMSVC":7287,"limits":7288,"Ġissues":7289,"Use":7290,"posed":7291,"Ġnamespaces":7292,"valuator":7293,"('<":7294,"Ġcurr":7295,"ferences":7296,"connections":7297,"BL":7298,"cm":7299,"ewidth":7300,"Ġappear":7301,"SPEC":7302,"gwin":7303,"asing":7304,"pred":7305,"trics":7306,"Serial":7307,"Ġproblems":7308,"Fail":7309,"Ġresolver":7310,"ims":7311,"activ":7312,"Application":7313,"Ġfresh":7314,"Ġadvance":7315,"Ġnetwork":7316,"excel":7317,"Ġoverridden":7318,"Ġ--------------------------------------------------------------------":7319,"MONTH":7320,"El":7321,"[_":7322,"Ġ\"(":7323,"policy":7324,"PS":7325,"oriz":7326,"always":7327,"OrderedDict":7328,"Ġwraps":7329,"Ġabstract":7330,"ĠArgument":7331,"sage":7332,"Ġrespect":7333,"Ġsequences":7334,"Ġ[['":7335,"kwds":7336,"Ġunits":7337,"atio":7338,"typ":7339,"vOptions":7340,"Ġgettext":7341,"normcase":7342,"Temp":7343,"ExecError":7344,"ĠHiddenText":7345,"Ġ''.":7346,"ĠEX":7347,"Close":7348,"kb":7349,"0001":7350,"ĠindentStack":7351,"Argument":7352,"BB":7353,"NG":7354,"Ġfall":7355,"equals":7356,".'":7357,"CMD":7358,"Hook":7359,"Ġretrie":7360,"Ġsizes":7361,"Ġdti":7362,"Ġembedded":7363,"ĠHowever":7364,"EXTENSIONS":7365,"INST":7366,"Canvas":7367,"Ġ'â":7368,"ĠAc":7369,"Ġserializer":7370,"ongo":7371,"HTTPError":7372,"temporary":7373,"xFF":7374,"alf":7375,"offsets":7376,"dimensional":7377,"ogram":7378,"ĠAssertionError":7379,"Ġtail":7380,"constraints":7381,"ĠFe":7382,"Ġbug":7383,"Ġchoices":7384,"alyzer":7385,"too":7386,"IST":7387,"Ġgeom":7388,">``":7389,"selector":7390,"erm":7391,"Ġcare":7392,"ĠHead":7393,"Ġmaxloc":7394,"slash":7395,"42":7396,"Ġarbitrary":7397,"validators":7398,"cheduler":7399,"Ġoffsets":7400,"Ġolder":7401,"Ġcreates":7402,"IGHT":7403,"ĠTempDirectory":7404,"Ġprev":7405,"fixed":7406,"reflection":7407,"Ġmapped":7408,"expanduser":7409,"tls":7410,")/":7411,"nod":7412,"tt":7413,"tab":7414,"Ġpayload":7415,"CER":7416,"Ġreserved":7417,"Ġbroadcast":7418,"Ġmembers":7419,"astern":7420,"ĠSession":7421,"ĠComment":7422,"ĠEOF":7423,"PAREN":7424,"ives":7425,"LazyModule":7426,"Max":7427,"Ġinstalling":7428,"PIL":7429,"Agg":7430,"DATETIME":7431,"mult":7432,"created":7433,"Ġtzinfo":7434,"qdm":7435,"members":7436,"Ġskipped":7437,"fast":7438,"ldflags":7439,"Ġtell":7440,"comm":7441,"akref":7442,"Ġsentence":7443,"confidence":7444,"ASCII":7445,"ufunc":7446,"mem":7447,"Ġ*,":7448,"440":7449,"ppend":7450,"Ġ512":7451,"Ġgeometry":7452,"ĠMAX":7453,"Bytes":7454,"fw":7455,"Ġmut":7456,"SITE":7457,"Ġfloating":7458,"Ġ2013":7459,"Entity":7460,"Ġast":7461,"Ġeps":7462,"prob":7463,"ĠOP":7464,"Ġchecked":7465,"ĠERROR":7466,"ggs":7467,"Ġtransp":7468,"Ġ'|":7469,"Ġhappen":7470,"Ġcanvas":7471,"distance":7472,"Ġ\"\")<":7473,"Make":7474,"dx":7475,"2312":7476,"flatten":7477,"Ġmouse":7478,"Ġ(?":7479,"ĠCase":7480,"############":7481,"Forward":7482,"ADATA":7483,"Pl":7484,"prompt":7485,"Ġtranslate":7486,"Ġpositions":7487,"hint":7488,"uname":7489,"ONG":7490,"Ġapplic":7491,"ĠvalidateTrace":7492,"erred":7493,"....":7494,"ĠRevOptions":7495,"inBody":7496,"stdin":7497,"tmpdir":7498,"difference":7499,"Ġ')<":7500,"ĠTable":7501,"Internal":7502,"ased":7503,"Django":7504,"guess":7505,"Ġthreshold":7506,"gnoring":7507,"Ġ'.'":7508,"pid":7509,"ĠPAT":7510,"lier":7511,"Ġreleased":7512,"PACK":7513,"Ġcompressed":7514,"*(":7515,"xa":7516,"Ġfur":7517,"Ġconsider":7518,"Ġfl":7519,"ĠFirst":7520,"Ġannot":7521,"'\"<":7522,"Ġ'',":7523,"upgrade":7524,"Ġ199":7525,"Ġsentinel":7526,"HEADER":7527,">#-----------------------------------------------------------------------------<":7528,"ĠNegative":7529,"ĠDistributed":7530,"LY":7531,"RST":7532,"ivative":7533,"ticks":7534,"readonly":7535,"Ġsprite":7536,"Ġroutine":7537,"Ġterminal":7538,"relative":7539,"Ġ``(":7540,"Ġ440":7541,"subtype":7542,"askedArray":7543,"Ġpreviously":7544,"ĠendTagOther":7545,"pixels":7546,"$')<":7547,"Ġtoks":7548,"trained":7549,"vcvarsall":7550,"compression":7551,"errno":7552,"Ġvert":7553,"views":7554,")')<":7555,")],<":7556,"mid":7557,"ĠFROM":7558,"Constraint":7559,"compatibility":7560,"arent":7561,"dom":7562,"():":7563,"Ġsummary":7564,"Multiple":7565,"Ġdefines":7566,"Ġdataset":7567,"FIELD":7568,"Raw":7569,"ZipFile":7570,"repository":7571,"Ġrepo":7572,"itemsize":7573,"95":7574,"Min":7575,"UNKNOWN":7576,"GHT":7577,"micro":7578,"resample":7579,"subplot":7580,"inline":7581,"leaveWhitespace":7582,"adjust":7583,"setattr":7584,"Skip":7585,"SNI":7586,"builtin":7587,"checkRecursion":7588,"tokenMap":7589,"mayIndexError":7590,"records":7591,"ATC":7592,"Ġ18":7593,"contiguous":7594,"Ġcore":7595,"tention":7596,"Ġinternally":7597,"Ġut":7598,"Ġcontrib":7599,"ĠRequires":7600,"AttributeError":7601,"DD":7602,"}'<":7603,"Ġfonts":7604,"pypa":7605,"Ġkinds":7606,"\"',":7607,"Ġpin":7608,"))[":7609,"ĠĠĠĠĠĠĠĠĠĠĠĠĠĠĠĠĠĠĠĠĠĠĠĠĠĠĠĠĠĠĠĠĠĠĠĠ":7610,"ĠDistutilsExecError":7611,"Ġauthor":7612,"={}":7613,"Ġpprint":7614,"export":7615,"existing":7616,"ĠMat":7617,"Ġbuiltin":7618,"Ġindexes":7619,"unquote":7620,"uman":7621,"Ġargparse":7622,"ĠCookieJar":7623,"Ut":7624,"JE":7625,"band":7626,"ium":7627,"rea":7628,"unix":7629,"Change":7630,"Bit":7631,"ĠAnd":7632,"ĠLinux":7633,"Ġconfigured":7634,"ĠStep":7635,"PEP":7636,"Ġtrying":7637,"]['":7638,"åı":7639,"lify":7640,"specified":7641,"webpage":7642,"auss":7643,"Ġtab":7644,"InScope":7645,"Ġable":7646,"ParseResults":7647,"MLE":7648,"LED":7649,"Categorical":7650,"UI":7651,"ĠLibrary":7652,"Ġpercent":7653,"aliases":7654,"('.')<":7655,"JIS":7656,"iation":7657,"upy":7658,"Ġ-<":7659,"dists":7660,"calcul":7661,"isolated":7662,"KeyError":7663,"Mon":7664,"migrations":7665,"ritable":7666,"tel":7667,"pretty":7668,"``:":7669,"bases":7670,"big":7671,"Ġ:<":7672,"Ġpie":7673,"Ġnltk":7674,"2021":7675,"96":7676,"Ã©":7677,"interactive":7678,"Update":7679,"AG":7680,"BER":7681,"Ne":7682,"Ġ*_":7683,"appa":7684,"trict":7685,"anging":7686,"Ġbuiltins":7687,"requested":7688,"dof":7689,"ordering":7690,"adapters":7691,"Ġdep":7692,"START":7693,"Figure":7694,"StringClass":7695,"Datetime":7696,"Ġdummy":7697,"chmod":7698,"Ġcols":7699,"Ġjar":7700,"streamline":7701,"literalStringClass":7702,"ĠColor":7703,"clusive":7704,"phanums":7705,"EM":7706,"Ġbrowser":7707,"ĠAL":7708,"Ġleg":7709,"Ġweek":7710,"templates":7711,"clared":7712,"security":7713,"Ġcatch":7714,"Ġsq":7715,"Ġ*=":7716,"nsi":7717,"Ġmedi":7718,"Distutils":7719,"'{":7720,"Ïģ":7721,"omic":7722,"0123":7723,"Ġbytearray":7724,"NOT":7725,"NamedType":7726,"Ġidentity":7727,"mor":7728,"))))<":7729,"Soup":7730,"Ġtools":7731,"Ġpotent":7732,"OPEN":7733,")+":7734,"yy":7735,"STRING":7736,"Ġremainder":7737,"Fetch":7738,"sheet":7739,"Ġlon":7740,"variant":7741,"exact":7742,"ĠWH":7743,"2014":7744,"Ġmetaclass":7745,"Ġthing":7746,"Ġ22":7747,"targets":7748,"Ġglibc":7749,"Ġblank":7750,"Ġedges":7751,"abet":7752,"ffine":7753,"antile":7754,"skipWhitespace":7755,"DR":7756,"SV":7757,"rase":7758,"Ġ\":":7759,"getvalue":7760,"Ġextended":7761,"precision":7762,"tup":7763,"ĠISO":7764,"Called":7765,"Ġtrun":7766,"asn":7767,"machinery":7768,"Ġorient":7769,"lipse":7770,"ĠValidationError":7771,"Ġfolder":7772,"Ġbig":7773,"compressed":7774,"Ġinf":7775,"Success":7776,"bat":7777,"ĠInst":7778,"Ġfollows":7779,"blue":7780,"atever":7781,"Ġask":7782,"virt":7783,">\",":7784,"gzip":7785,"Construct":7786,"Ġpol":7787,"Ġtmpdir":7788,"upyter":7789,"EC":7790,"`:":7791,"Ġps":7792,"Ġbecome":7793,"ocab":7794,"delitem":7795,"chedule":7796,"Ġmaps":7797,"Ġtokenlist":7798,"NAMES":7799,"Iteration":7800,"`_":7801,"pm":7802,"Ġdelay":7803,"ĠVCS":7804,"ĠtokenTypes":7805,"caseTokens":7806,"StyleComment":7807,"XDG":7808,"walk":7809,"Ġcookiejar":7810,"Ġmp":7811,"roperly":7812,"nchron":7813,"]\\":7814,"whl":7815,"Eastern":7816,"aware":7817,"elementInScope":7818,"intainer":7819,"Basic":7820,"Ġrelevant":7821,"vices":7822,"Ġ{!":7823,"callbacks":7824,"101":7825,"New":7826,"One":7827,"pyproject":7828,"oauth":7829,"strftime":7830,"transaction":7831,"zipfile":7832,"Ġbounding":7833,"Ġscore":7834,"tarfile":7835,"Sc":7836,"lab":7837,"isable":7838,"ĠDownload":7839,"Ġreader":7840,"MIN":7841,"mar":7842,"Ġinline":7843,"ĠGDAL":7844,"ĠNOTE":7845,"ĠUTC":7846,"numbers":7847,"Ġoperators":7848,"_%":7849,"Ġaffect":7850,"RESH":7851,"stems":7852,"Ġkeywords":7853,"Ġbeginning":7854,"UUID":7855,"ĠsubRecCheckList":7856,"14159":7857,"Nodes":7858,"Ġcr":7859,"AllMatches":7860,"udo":7861,"searchString":7862,"Ġdesc":7863,"startTag":7864,"scribe":7865,"COMP":7866,"gate":7867,"Ġhour":7868,"ĠPIL":7869,"Ġenco":7870,"Ġinvoked":7871,"holder":7872,"Ġide":7873,"Ġpure":7874,"ĠStore":7875,"istics":7876,"Ġmaking":7877,"ULE":7878,"ĠLookup":7879,"Ġpub":7880,"Ġtoml":7881,"ĠClass":7882,"blank":7883,"JECT":7884,"clib":7885,"Ġfit":7886,"()`":7887,"Ġprops":7888,"logy":7889,"Ori":7890,"Pri":7891,"]\"<":7892,"plt":7893,"ĠSU":7894,"Ġpredicate":7895,"ev":7896,"Character":7897,"ĠStream":7898,"multiarray":7899,"Ġspaces":7900,"dependent":7901,"Ġfilepath":7902,"ifies":7903,"Ġkeepdims":7904,"ĠSyntaxWarning":7905,"Fil":7906,"ssue":7907,"Ġstderr":7908,"Iterator":7909,"tracker":7910,">:":7911,"prefs":7912,"Ġending":7913,"Ġseparated":7914,"jacent":7915,"Yield":7916,"oto":7917,"Comple":7918,"ĠResource":7919,"VALUE":7920,"Box":7921,"around":7922,"imate":7923,"Ġparses":7924,"supports":7925,"000000":7926,">`_":7927,"Ġoccurred":7928,"ĠOverride":7929,"Sdk":7930,"([])<":7931,"Ġuniv":7932,"Ġunquote":7933,"ĠSELECT":7934,"}.<":7935,"cesses":7936,"ĠABC":7937,"orizont":7938,"Ġthough":7939,"ermin":7940,"dified":7941,"Ġprecedence":7942,"tokenizer":7943,"ĠstartTagHandler":7944,"ĠendTagHandler":7945,"both":7946,"esc":7947,"DER":7948,"Release":7949,"ĠBack":7950,"HTTPAdapter":7951,".+?":7952,"ĠSocket":7953,"Widgets":7954,"Ġdeclar":7955,"managed":7956,"Access":7957,"Ġcriterion":7958,"iver":7959,"strategy":7960,"ĠTyp":7961,"Ġstrategy":7962,"Ġ80":7963,"sqlite":7964,"HTMLE":7965,"Next":7966,"Ġcomm":7967,"ounter":7968,"ĠNaT":7969,"INDO":7970,"optim":7971,"Ġvirtualenv":7972,"orator":7973,"une":7974,"noun":7975,"Ġbehaviour":7976,"yanked":7977,"analyzer":7978,"colle":7979,"ĠAllow":7980,"rolling":7981,"Ġcomes":7982,"74":7983,"attrgetter":7984,"ĠForward":7985,"rank":7986,"monotonic":7987,"machine":7988,"ĠFloat":7989,"ĠInfo":7990,"frameset":7991,"ĠPeriodIndex":7992,"queeze":7993,"FFIX":7994,"cd":7995,"Ġtargets":7996,"={'":7997,"polynomial":7998,"()).":7999,"Ġcoerce":8000,"Ġutility":8001,"HEEL":8002,"Schema":8003,"attrib":8004,"12345678":8005,"Password":8006,"Ġeas":8007,"Ġdeal":8008,"ĠOAuth":8009,"ĠNameError":8010,"Socket":8011,"Ġbackends":8012,"tile":8013,"ĠLegacy":8014,"checks":8015,"ĠZIP":8016,"overlap":8017,"gui":8018,"Ġexternal":8019,"ĠFun":8020,"Ġdescribed":8021,"wiki":8022,"Ġroll":8023,"character":8024,"Ġoccurs":8025,"cket":8026,"FileError":8027,"={\"":8028,"WRITE":8029,"translation":8030,"ĠĠĠĠĠĠĠĠĠĠĠĠĠĠĠĠĠĠĠĠĠĠĠĠĠĠĠĠĠĠĠĠĠĠĠĠĠ":8031,"Thread":8032,"Network":8033,"RIGHT":8034,"Ġmarkup":8035,"Ġqs":8036,"ĠVector":8037,"MAP":8038,"Ġinvoke":8039,"ĠCOM":8040,"operations":8041,"PM":8042,"green":8043,"rected":8044,"Ġ((\"":8045,"Ġcommit":8046,"amer":8047,"vendored":8048,"Ġexecuted":8049,"rout":8050,"STAT":8051,"phabet":8052,"~~~~~~~~~~~~~~~~":8053,"[(":8054,"ĠCre":8055,"SELECT":8056,"Ġtrigger":8057,"Ġevaluate":8058,"foot":8059,"POST":8060,"sented":8061,"Ġbackground":8062,"Extractor":8063,"Ġquotes":8064,"mgr":8065,"inct":8066,"ana":8067,"Ġaren":8068,"mtime":8069,"Ġind":8070,"ĠPlatform":8071,"caption":8072,"Args":8073,"Ġtogether":8074,"Ġselected":8075,"Ġtypically":8076,"eof":8077,"needed":8078,"Ġpointer":8079,"Ġusually":8080,"Ġyi":8081,"ientific":8082,"Ð°Ð":8083,"Future":8084,"seudo":8085,"patched":8086,"ban":8087,"power":8088,"Ġstarts":8089,"ĠCallback":8090,"Poly":8091,"Ġwindows":8092,"Ġ2020":8093,"GRO":8094,"tact":8095,"'):":8096,"mc":8097,"Ġmigration":8098,"strs":8099,"isnan":8100,"Ġprerelease":8101,"ĠBu":8102,"convertTo":8103,"HTMLTags":8104,"\"\"<":8105,"constant":8106,"click":8107,"bg":8108,"usic":8109,"Ġencodings":8110,"obs":8111,"]\",":8112,"ĠBL":8113,"2016":8114,"Ġsuccessfully":8115,"Ġinherited":8116,"props":8117,"Ġupgrade":8118,"verbosity":8119,"pointer":8120,"Ġ'+":8121,"Ġgetting":8122,"states":8123,"Ġ{}'.":8124,"ball":8125,"Ġconv":8126,"Ġvisible":8127,"Ġlowercase":8128,"transpose":8129,"broadcast":8130,"em":8131,"isolation":8132,"ĠTake":8133,"Ġ@@":8134,"rcParams":8135,"Ġexamples":8136,"Ġcycle":8137,"moized":8138,"'))":8139,"fed":8140,"kt":8141,"Ġdecoding":8142,"validation":8143,"LETE":8144,"csrf":8145,"ATED":8146,"Struct":8147,"SUFFIX":8148,"Ġ28":8149,"Ġarchitecture":8150,"Parent":8151,"Ġfully":8152,"NULL":8153,"ĠSUC":8154,"EST":8155,"nat":8156,"urro":8157,"Ġstatements":8158,"Ġnotebook":8159,"Ġwildcards":8160,"remaining":8161,"terest":8162,"Ġseek":8163,"voke":8164,"closure":8165,"ĠSUCCESS":8166,":].":8167,"fillna":8168,"ĠMeta":8169,"libException":8170,"ĠNon":8171,"Web":8172,"mixer":8173,"soletes":8174,"getstate":8175,"ĠLog":8176,"CKR":8177,"Fragment":8178,"UTC":8179,"Ġsleep":8180,"Ġev":8181,"ĠVS":8182,"Deprecated":8183,"saved":8184,"Ġfailure":8185,"needs":8186,"Ġimplementations":8187,"Ġseparators":8188,"ĠNormalized":8189,"Obj":8190,"PER":8191,"oot":8192,"38":8193,"Ġenough":8194,"bins":8195,"Ġconflicts":8196,"Post":8197,"infos":8198,"ĠĠĠĠĠĠĠĠĠĠĠĠĠĠĠĠĠĠĠĠĠĠĠĠĠĠĠĠĠĠĠĠĠĠĠĠĠĠ":8199,"RAY":8200,"BIN":8201,"ABEL":8202,"media":8203,"Ġchr":8204,"ĠWrap":8205,"Ġlinear":8206,"Ġregard":8207,"Ġinherit":8208,"Stop":8209,"delimitedList":8210,"ĠCertificate":8211,"ĠThey":8212,"ĠStart":8213,"})>\".":8214,"ij":8215,"Ġelf":8216,"([('":8217,"itertools":8218,"Namespace":8219,"grad":8220,"TERN":8221,"Ġgoing":8222,"duplicates":8223,"Ġspeed":8224,"inator":8225,"validator":8226,"shot":8227,"cmdoptions":8228,"Ġtraining":8229,"iful":8230,"MET":8231,"Ġiteration":8232,"ĠGeneric":8233,"autiful":8234,"anchor":8235,"ĠMust":8236,"Ġkeyring":8237,"insertion":8238,"Ġaccepted":8239,"Ġskipna":8240,"512":8241,"Microsoft":8242,"Ġansw":8243,"Ġshare":8244,"Ġdm":8245,"loor":8246,"(\"[":8247,"ĠĠĠĠĠĠĠĠĠĠĠĠĠĠĠĠĠĠĠĠĠĠĠĠĠĠĠĠĠĠĠĠĠĠĠĠĠĠĠĠ":8248,"Ġprovid":8249,"Files":8250,"HOME":8251,"ĠTraceback":8252,".])<":8253,"Za":8254,"matchLen":8255,"LIB":8256,"OLD":8257,"Mat":8258,"rep":8259,"rospection":8260,"Simple":8261,"Ġ400":8262,"Binary":8263,"sequent":8264,"ALPHA":8265,"#-----------------------------------------------------------------------------<":8266,")}<":8267,"CP":8268,"Ġphase":8269,"itervalues":8270,"Ġ\"!":8271,"parallel":8272,"Ġperformance":8273,"cription":8274,"semb":8275,"lias":8276,"feed":8277,"MAGE":8278,"Ġissubclass":8279,"ĠFrozen":8280,"collector":8281,"ingerprint":8282,"Mis":8283,"')])<":8284,"1416":8285,"SHA":8286,"Ġescaped":8287,"mime":8288,"ĠControl":8289,"encodings":8290,"METADATA":8291,"BLOCK":8292,"Main":8293,"Ġrank":8294,"Too":8295,"transforms":8296,"channels":8297,"easy":8298,"ĠMovedAttribute":8299,"Ġwhatever":8300,"ĠSearch":8301,"written":8302,"Ġod":8303,"ĠIs":8304,"ĠAss":8305,"Ġprior":8306,"ĠPYTHON":8307,"kl":8308,"enable":8309,"fixer":8310,"clusion":8311,"Ġassignment":8312,"Ġflatten":8313,"Foreign":8314,"Lib":8315,"elif":8316,"ctive":8317,"))?":8318,"dense":8319,"widgets":8320,"Plugin":8321,"mouse":8322,"Ġweight":8323,"grees":8324,"pub":8325,"ral":8326,"deps":8327,"---------<":8328,"Ġrfc":8329,"ĠVer":8330,"Ġspecifies":8331,"push":8332,"Î½":8333,"()}<":8334,"pyplot":8335,"pages":8336,"HASH":8337,"456789":8338,"Note":8339,"Ġke":8340,"ithme":8341,"Ġabc":8342,"must":8343,"ĠConstruct":8344,"markup":8345,"Ġpriority":8346,"imag":8347,"tl":8348,"elcome":8349,"namespaces":8350,"protoc":8351,">'<":8352,"Rel":8353,"Ġsalt":8354,"getcwd":8355,"ĠNet":8356,"hashcmp":8357,"Ġfollowed":8358,"Ġstaticmethod":8359,")._":8360,">*":8361,"qr":8362,"detect":8363,"buffered":8364,"ERE":8365,"tract":8366,"Ġiteritems":8367,":],":8368,"ireq":8369,"rece":8370,"tell":8371,"2001":8372,"SOUR":8373,"Ġ\"\"\")<":8374,"disc":8375,"setstate":8376,"mpling":8377,"\"')<":8378,"signal":8379,"Ġwintypes":8380,"lst":8381,"Redirect":8382,"tre":8383,"agate":8384,"creasing":8385,"ĠYield":8386,"ureTransport":8387,"arest":8388,"Ġnormally":8389,"GBA":8390,"RPC":8391,"tgt":8392,"')[":8393,"2022":8394,"ationCandidate":8395,"ĠDistutilsPlatformError":8396,"Ġboot":8397,"illa":8398,"edBy":8399,"\")]<":8400,"Caseless":8401,"BIT":8402,"\",\"":8403,"Ġ2000":8404,"codecs":8405,"caller":8406,"xf":8407,"Ġuri":8408,"Ġfast":8409,"ĠOGR":8410,"Ġacross":8411,"Ġsystems":8412,"ĠWeb":8413,"CTYPE":8414,"boundary":8415,"cnt":8416,"KEYS":8417,"Container":8418,"selected":8419,"ĠSpat":8420,"Ġgreen":8421,"Ġproto":8422,"ĠInvalidSpecifier":8423,"Ġcasting":8424,"ĠTransform":8425,"PTR":8426,"]|":8427,"resolver":8428,"wheels":8429,"ching":8430,"ileError":8431,"ĠPri":8432,"SES":8433,"Search":8434,"Ġmerged":8435,"dp":8436,"__:<":8437,"ĠGenerate":8438,"Ġinitialized":8439,"utdown":8440,"Ġreadable":8441,"DateTime":8442,"Ġremoving":8443,"ptime":8444,"mention":8445,"ency":8446,"ĠBoolean":8447,"Ġpossibly":8448,"2020":8449,"share":8450,"Async":8451,"branch":8452,"ipv":8453,"001":8454,"initialized":8455,"cases":8456,"pin":8457,"'][":8458,"ender":8459,"Period":8460,"Ġadds":8461,"doctype":8462,"=\\":8463,"fat":8464,"Ġdefaultdict":8465,"Ġformatting":8466,"rules":8467,"ithmetic":8468,"](":8469,"pax":8470,"Ġcounts":8471,"nodot":8472,"collections":8473,"Ġanswer":8474,"Auto":8475,"cal":8476,"absolute":8477,"GLOB":8478,"strap":8479,"Ġrecom":8480,"ĠSparse":8481,"ĠUsing":8482,"steps":8483,"igrate":8484,"ĠTarInfo":8485,"}')<":8486,"Ġscientific":8487,"Ġsuggest":8488,"CKET":8489,"Ġtransl":8490,"itude":8491,"Draw":8492,"Ġhap":8493,"Ġvoid":8494,"SEPAR":8495,"SIX":8496,"realpath":8497,"(\"{":8498,"checkpoint":8499,"aking":8500,"Ġspecification":8501,"Using":8502,"UNC":8503,"Req":8504,"ĠDO":8505,"feat":8506,"Ġserialized":8507,"Ġstrg":8508,"ĠEd":8509,"postgres":8510,"onential":8511,"Ġhigher":8512,"break":8513,"lue":8514,"Ġdigits":8515,"Ġdes":8516,"THRESH":8517,"oom":8518,"atin":8519,"deprecation":8520,"Ġcounter":8521,"TENT":8522,"secret":8523,"localize":8524,"Ġindicating":8525,"SEPARATOR":8526,"Mark":8527,"Ġplayer":8528,"Ġparallel":8529,"Unable":8530,"BytesIO":8531,"Ġcomponents":8532,"car":8533,"Î¼":8534,"expect":8535,"ĠExpected":8536,"DESCRIPT":8537,"structures":8538,"Ġconflicting":8539,"\"\")<":8540,"Ġba":8541,"idl":8542,"contin":8543,"Reference":8544,"ĠMarker":8545,"Ġpretty":8546,"lencode":8547,"ROOT":8548,"coords":8549,"Ġtelethon":8550,"fallback":8551,"urlencode":8552,"ĠUN":8553,"=''):<":8554,"CERT":8555,"Ġrenamed":8556,"Ġcsv":8557,"Insert":8558,"Cho":8559,"chunked":8560,"ĠCH":8561,"}:":8562,"Ġsever":8563,"pawn":8564,"WHITE":8565,"GTH":8566,"sec":8567,"ibling":8568,"Exist":8569,"ĠEntry":8570,"EV":8571,"iate":8572,"interpol":8573,"SSLError":8574,"Ñĥ":8575,"__):<":8576,"ĠTests":8577,"orizontal":8578,"Ġ26":8579,"Ġbases":8580,"ritical":8581,"ĠThat":8582,"Ġfraction":8583,"ĠDocument":8584,"2015":8585,"lished":8586,"fonts":8587,"Ġcross":8588,"ĠSign":8589,"ĠFrom":8590,"Ġgui":8591,"acing":8592,"REQ":8593,"Ġtranslation":8594,"Ġclo":8595,"ĠMutableMapping":8596,"copg":8597,"ĠTyped":8598,"cycle":8599,"univ":8600,"Ġproduce":8601,"endQuoteChar":8602,"avig":8603,"Ġ2005":8604,"accumNames":8605,"xe":8606,"Ġ\"#":8607,"Ġlag":8608,"creen":8609,"Ġconditions":8610,"åĪ":8611,"ĠÏĦÎ":8612,"Ġcoordinate":8613,"Pip":8614,"Ġ'.'.":8615,"GEOS":8616,"Ġconnected":8617,"Ġregardless":8618,"criteria":8619,"Ġtries":8620,"ĠStat":8621,"swig":8622,"socks":8623,"ĠPackageFinder":8624,"Ġsli":8625,"preargs":8626,"Ġzf":8627,"CTW":8628,"Ġcreation":8629,"plus":8630,"Ġrec":8631,"roke":8632,"dummy":8633,"Î¯":8634,"Ġinverse":8635,"Ġ\"==":8636,"Ġconfi":8637,"ĠClear":8638,"presented":8639,"amd":8640,">################################################################":8641,"Gra":8642,"details":8643,"oscript":8644,"virtualenv":8645,"Ġpower":8646,"utors":8647,"TEMP":8648,"REQUI":8649,"BY":8650,"havior":8651,"Ġhref":8652,"stdlib":8653,"Cell":8654,"DING":8655,"LM":8656,"MI":8657,"unsafe":8658,"ĠMark":8659,"AF":8660,"fraction":8661,"least":8662,"Ġintended":8663,"that":8664,"player":8665,"Ġinitialization":8666,"stick":8667,"fA":8668,"pow":8669,"Ġtw":8670,"ising":8671,"321":8672,"NotExist":8673,"Ġcalculate":8674,"ĠStopIteration":8675,"Failure":8676,"Norm":8677,"ĠMatch":8678,"[::":8679,"Ġ321":8680,"frozen":8681,"Ġrgb":8682,"filled":8683,"Order":8684,"Some":8685,"Ġrepeat":8686,"Ġlisted":8687,"Ġzlib":8688,"Ġdeps":8689,"Ġ\"\",":8690,"Ġsorting":8691,"Ġdpi":8692,"1024":8693,"qs":8694,"arator":8695,"concatenate":8696,">{":8697,"Î·":8698,"hest":8699,"unded":8700,"Ġconf":8701,"ĠSu":8702,"SIG":8703,"Ġviews":8704,"$',":8705,"Ġplease":8706,"Ġchoice":8707,"duplicate":8708,"Ġsm":8709,"Ġpreserved":8710,"scipy":8711,"Ġoutfile":8712,"Ġmock":8713,"NAError":8714,"Ġtodo":8715,"ppc":8716,"Single":8717,"seline":8718,"fifo":8719,"ĠAfter":8720,"compute":8721,"Ġdates":8722,"CFArray":8723,"Ġ'?":8724,"Ġgives":8725,"Ġfurther":8726,">',":8727,"Ġtask":8728,"Ġreduce":8729,"Ġsteps":8730,"Generator":8731,"arc":8732,"Insensitive":8733,"layers":8734,"Ġsense":8735,"Ġduplicate":8736,")',":8737,"verts":8738,"=\"%":8739,"Ġends":8740,"pairs":8741,"ĠoneOf":8742,"Ġchardet":8743,"Ġappname":8744,"Ġconcat":8745,"Ġ',',":8746,"finished":8747,"Ġcpu":8748,"DoesNotExist":8749,"gamma":8750,"ĠPRO":8751,"ĠBasic":8752,"Escape":8753,"Ġ[(\"":8754,"'])":8755,"ĠZipFile":8756,"Ġcleanup":8757,"DESCRIPTOR":8758,"ji":8759,"Ġthus":8760,"Ġmaintain":8761,"jf":8762,"radius":8763,"Generate":8764,"Ġpurposes":8765,"Ġsatis":8766,"ĠprocessCharacters":8767,"RCALPHA":8768,"ipedia":8769,"ï¼Į":8770,"Ġrepresented":8771,"Ġmult":8772,"Ġaccessed":8773,"calls":8774,"=[[":8775,"ITH":8776,"Ġcomma":8777,"Ġhyp":8778,"produces":8779,"Ġ...]<":8780,"Ġndim":8781,"REEN":8782,":(%":8783,"ĠIssue":8784,"DecodeError":8785,"ĠselfTag":8786,"kwarg":8787,"UNI":8788,"Ġarchives":8789,"Description":8790,"PositionToken":8791,"DebugAction":8792,"Ġguar":8793,"97":8794,"KT":8795,"tunnel":8796,"Ġband":8797,"pyc":8798,"Ġ302":8799,"perm":8800,"'(":8801,"atty":8802,"decompress":8803,"Ġbroken":8804,"ĠFF":8805,"Ġ'/',":8806,"rmtree":8807,"Ġinterest":8808,"ĠSurface":8809,"ĠSimilar":8810,"ByteCharSetProber":8811,"notebook":8812,"/{":8813,"delay":8814,"Details":8815,"helpers":8816,"ĠDoes":8817,"Ġoverrides":8818,"acle":8819,"lsb":8820,"amera":8821,"acity":8822,"Ġextraction":8823,"BUIL":8824,"Configured":8825,"Ġhappens":8826,"52":8827,"circle":8828,"Ġassigned":8829,"ĠSince":8830,"Ġdelimiter":8831,"ĠEngine":8832,"roperlyConfigured":8833,"resize":8834,"NTIFI":8835,"intp":8836,"Ġredirects":8837,"ĠNULL":8838,"')),<":8839,"HEL":8840,"Ġignoring":8841,"Ġincompatible":8842,"Ġframework":8843,"pture":8844,"Ġunexpected":8845,"filenames":8846,"cdata":8847,"unbound":8848,"Ġrm":8849,"kinds":8850,"SY":8851,"Ġfew":8852,"Ġgzip":8853,"ĠHAS":8854,"vertices":8855,"ĠEND":8856,"ĠWrite":8857,"hexdigest":8858,"Part":8859,"defs":8860,"__\":":8861,"Ġrespon":8862,"scriptors":8863,"chan":8864,"Boolean":8865,"hyper":8866,"ĠPKG":8867,"Ġ</":8868,"ĠServer":8869,":,":8870,"ctors":8871,"__[":8872,"Ġ21":8873,"Ġuninstall":8874,"Ġshift":8875,"TRY":8876,"charsetprober":8877,"expires":8878,"fk":8879,"tn":8880,"Ġmd":8881,"Ġunpacked":8882,"Common":8883,"sysconfig":8884,"Ġtemplates":8885,"Ġfnmatch":8886,"ĠLook":8887,"Ġlooking":8888,"Ġlb":8889,"ĠPipSession":8890,"nounce":8891,"57":8892,"structured":8893,"Ġvalidator":8894,"Ġselector":8895,"kivy":8896,"ond":8897,"Ġaccur":8898,"Ġrendered":8899,"0123456789":8900,"Ġparents":8901,"ĠImageFile":8902,"THRESHOLD":8903,"Ġtensor":8904,"500":8905,"Implements":8906,"Ġdll":8907,"Ġenter":8908,"ollowedBy":8909,"angles":8910,"ĠKeep":8911,"GH":8912,"heb":8913,"geometry":8914,"Ġstuff":8915,"dated":8916,"Ġsetsurface":8917,"loading":8918,"Ġdocs":8919,"ĠProvider":8920,"AM":8921,"MIT":8922,"Ġfinish":8923,"ĠSplit":8924,"mro":8925,"tmpl":8926,"wt":8927,"ĠmacOS":8928,"67":8929,"roid":8930,"Ġ``<":8931,"docstring":8932,"GL":8933,"Out":8934,"xc":8935,"extent":8936,"Exit":8937,"erc":8938,"NTIFIER":8939,"|\\":8940,"Ġ99":8941,"Ġinteractive":8942,"PROTOCOL":8943,"Ġsilent":8944,"lour":8945,"ĠRemoved":8946,"Ġroaming":8947,"Generated":8948,"Ġcut":8949,"herme":8950,"ĠResolution":8951,"Ġsamples":8952,"ÏĢ":8953,"ĠcharEncoding":8954,"mended":8955,"Ġmaybe":8956,"Ġskipping":8957,"warns":8958,"TAB":8959,"sf":8960,"built":8961,"cade":8962,"Ġsuc":8963,"processStartTag":8964,"ĠprocessEOF":8965,"avg":8966,"Ġcheb":8967,"ĠImproperlyConfigured":8968,"Enter":8969,"Ġsubset":8970,"posn":8971,"ĠState":8972,"Ġroutines":8973,"47":8974,"SK":8975,"{\"":8976,"}\"":8977,"inspect":8978,"ĠOracle":8979,"escaped":8980,"Ġub":8981,"curdir":8982,"Authorization":8983,"Down":8984,"ante":8985,"Ġpermission":8986,"Ġsaf":8987,"Ġsubpath":8988,"SetConsole":8989,"ĠmaxException":8990,"ĠDecimal":8991,"ii":8992,"Ġidentify":8993,"ĠCharacter":8994,"nsity":8995,"Ġxp":8996,"Ġcompletion":8997,"Ġradius":8998,"tracking":8999,"ĠAttributes":9000,"ĠUnsupportedWheel":9001,"Ġcapture":9002,"Ġmimetypes":9003,"pressed":9004,"ulated":9005,"Ġimportant":9006,"timer":9007,"Ġtornado":9008,"converter":9009,"Ġherme":9010,"Ġ--------------------------------------------------------------------<":9011,"Ġaudio":9012,"ĠTarget":9013,"Ġexe":9014,"ĠAN":9015,"Ġadapt":9016,"hesis":9017,"Axis":9018,"ialog":9019,"Ġinterpolation":9020,"ĠCurrent":9021,"()]":9022,">#:":9023,"Ġouter":9024,"RES":9025,"Ġlogin":9026,"tenv":9027,"switch":9028,"aml":9029,"ĠLib":9030,"ĠDistlibException":9031,"Many":9032,"thers":9033,"Ġunsetsurface":9034,"TZ":9035,"iline":9036,"filepath":9037,"ĠInfinity":9038,"Ġ500":9039,"ĠUseful":9040,"////////////////////////////////":9041,"xd":9042,"Ġassumed":9043,"elded":9044,"ĠMigration":9045,"COUN":9046,"catch":9047,"Program":9048,"ĠDictionary":9049,"PreparedRequest":9050,"ImportError":9051,"/',":9052,"Ġfla":9053,"ssh":9054,"minute":9055,"ĠcurCol":9056,"eye":9057,"rocess":9058,"Ġ'\"":9059,"untered":9060,"ĠendQuoteChar":9061,"))]<":9062,"/')<":9063,"bre":9064,"jpeg":9065,"riend":9066,"Ġpygments":9067,"Ġupd":9068,"Ġtargetpath":9069,"Location":9070,"Regexp":9071,"\"}":9072,"KEN":9073,"ger":9074,"Ġfh":9075,"asis":9076,"consume":9077,"country":9078,"swap":9079,"terminal":9080,"UCJP":9081,"Scheme":9082,"ĠAUTH":9083,"more":9084,"PORT":9085,"Ġetree":9086,"coffset":9087,"service":9088,"LASS":9089,"configs":9090,"IMAGE":9091,"æķ":9092,"cover":9093,"skipIf":9094,"ĠZip":9095,"ĠAdded":9096,"Ġpadded":9097,"lace":9098,"Loss":9099,"shake":9100,"GLOBAL":9101,"Ġdx":9102,"ĠPoly":9103,"acc":9104,"Ġpolicy":9105,"EncodeError":9106,"-#":9107,"srs":9108,"ĠAS":9109,"ggle":9110,"{}'.":9111,"Ġhit":9112,"('#":9113,"Accept":9114,"INDOWS":9115,"vander":9116,"repo":9117,"icket":9118,"coming":9119,"Ġseveral":9120,"crt":9121,"erkzeug":9122,"Ġundefined":9123,"ĠGET":9124,"Ġimplementing":9125,"ĠStudio":9126,"downloaded":9127,"java":9128,"ä»":9129,"alive":9130,"Ġexcluded":9131,"ĠAut":9132,"urlparse":9133,"Ġweakref":9134,"ĠRegistry":9135,"ĠpublicId":9136,"+-]":9137,"strptime":9138,"pending":9139,"Ġ\\*":9140,"DOWN":9141,"saveAs":9142,"MultiIndex":9143,"Ġencountered":9144,"bf":9145,"nl":9146,"anit":9147,"ĠAnsi":9148,"addParseAction":9149,"MAG":9150,"destroy":9151,"saveAsList":9152,"HOST":9153,"SCHEMES":9154,"92":9155,"ividual":9156,"Ġblack":9157,"ATCH":9158,"replacement":9159,"404":9160,"Before":9161,"Ignore":9162,"]',":9163,"ceeded":9164,"Ġbs":9165,"tolist":9166,"InfoDistribution":9167,"Ġ2012":9168,"Moved":9169,"Ġprefer":9170,"Ġstates":9171,"LOAD":9172,"Ġliterals":9173,"('\\\\":9174,"__(**":9175,"outube":9176,"ĠMetadata":9177,"Ġchannels":9178,"cuda":9179,"ENV":9180,"intersection":9181,"nonce":9182,"During":9183,"Now":9184,"tions":9185,"Ġhi":9186,"Ġnat":9187,"pytorch":9188,"pends":9189,"matched":9190,"ARCH":9191,"background":9192,"InstallDir":9193,"ĠSSLError":9194,"ĠPOST":9195,"iet":9196,"Ġsolution":9197,"erson":9198,"ĠVariable":9199,"oose":9200,"activeFormattingElements":9201,"audio":9202,"ierarch":9203,"Ġsrid":9204,"spinner":9205,"Methods":9206,"midi":9207,"54":9208,"Ġ'$":9209,"Ġ\"$":9210,"Ġbeta":9211,"ĠOutput":9212,"Ġ42":9213,"Cookie":9214,"updated":9215,"iving":9216,"ĠCoding":9217,"entities":9218,"Parses":9219,"SSLv":9220,"Ġrelation":9221,"Ġpatt":9222,"Ġdefinitions":9223,"ĠExtract":9224,"xlim":9225,"Identity":9226,"hosts":9227,"Ġpages":9228,"Custom":9229,"cancel":9230,"assertFalse":9231,"Importer":9232,"ĠBeautiful":9233,"Title":9234,"pools":9235,"inations":9236,"Ġnor":9237,"ĠStr":9238,"Ġmeth":9239,"lon":9240,"qt":9241,"Ġdomains":9242,")})<":9243,"Cls":9244,"Zip":9245,"kit":9246,"')))<":9247,"appauthor":9248,"]``":9249,"margin":9250,"('--":9251,"ĠMIME":9252,"ĠProtocol":9253,"InsensitiveDict":9254,"(\"__":9255,"mmars":9256,"mbiguous":9257,"Caller":9258,"KB":9259,"Ġelem":9260,"StateMachine":9261,".],<":9262,"Rule":9263,"mer":9264,"codename":9265,"HTTPConnection":9266,"good":9267,"deepcopy":9268,"Opt":9269,"Ġsheet":9270,"__\"<":9271,">@_":9272,"],[":9273,"Ġincorrect":9274,"REDIRECT":9275,"Ġperm":9276,"working":9277,"Ġscalars":9278,"/'":9279,"033":9280,"tod":9281,"ĠIS":9282,"cluding":9283,"Ġentities":9284,"ĠHTTPError":9285,"sqlalchemy":9286,"ĠFigureCanvas":9287,"Ġpytz":9288,"Ġyields":9289,"Timedelta":9290,"Ġplural":9291,"ĠquoteChar":9292,"DuringTry":9293,"NaN":9294,"Ġsolve":9295,"getopt":9296,"tour":9297,"...\"<":9298,"Ġclick":9299,"ĠHttpResponse":9300,"squeeze":9301,"recognized":9302,"Ġdistrib":9303,"Ġresponses":9304,"Ġmasks":9305,"Ġrepeated":9306,"MODULE":9307,"tot":9308,"Ġnodelist":9309,"2008":9310,"trusted":9311,"HELP":9312,"ccompiler":9313,"ÏĤ":9314,"Ġbel":9315,"ĠCode":9316,"ĠBlock":9317,"angular":9318,"=[('":9319,"ĠCodingStateMachine":9320,"orth":9321,"ĠAxes":9322,"ĠTypeVar":9323,"Ġ2008":9324,"fspath":9325,"HTMLElement":9326,"Ġothers":9327,"buff":9328,"execution":9329,"Given":9330,"Ġesc":9331,"Ġunsigned":9332,"Ġdisallow":9333,"_'":9334,"quiet":9335,"ĠCompileError":9336,">\")<":9337,"inate":9338,"atex":9339,"prepared":9340,"outine":9341,"Ġwhite":9342,"bypass":9343,"ĠHTTPResponse":9344,"Ġtzname":9345,"KEYWORD":9346,"Ġyielded":9347,"FOR":9348,"Sy":9349,"href":9350,"Ġfatal":9351,"\"]))<":9352,"oseconds":9353,"RetryError":9354,"ĠNAME":9355,"'d":9356,"unpatched":9357,"Ġufunc":9358,"pretrained":9359,"ĠNull":9360,"ront":9361,"Ġzmq":9362,"olders":9363,"Security":9364,"Ġswitch":9365,"since":9366,"Ġincomplete":9367,"Ġmaxsize":9368,"Algorithm":9369,"ĠPOSIX":9370,"Assoc":9371,"bold":9372,"permissions":9373,"ĠMap":9374,"oreset":9375,"Ġnumer":9376,"ploy":9377,"BaseException":9378,"svg":9379,"enums":9380,"Else":9381,"GIS":9382,"directive":9383,"Ġconvenience":9384,"lyph":9385,"subclasses":9386,"interp":9387,"struction":9388,"Ġconfidence":9389,"Include":9390,"ĠWorld":9391,"Ġkivy":9392,"TypeRef":9393,"Ġverbosity":9394,"HookCaller":9395,"'''<":9396,"Supported":9397,"Ġsubject":9398,"Ġpermissions":9399,"platbase":9400,"Ġhighest":9401,")(\"":9402,"urse":9403,"ypes":9404,"TypeID":9405,"Ġ'-'":9406,"METHOD":9407,"Ġsandbox":9408,"Ġdeprecation":9409,"Ġireq":9410,"Ġinc":9411,"caled":9412,"LIN":9413,"sect":9414,"endpoint":9415,"Ġslash":9416,"Ġtlist":9417,"Ġimmutable":9418,"pie":9419,"Ġperformed":9420,"CharField":9421,"DOCU":9422,"threads":9423,"Vector":9424,"AIL":9425,"increment":9426,"ulk":9427,"arger":9428,"ĠNegativeInfinity":9429,"Ġwx":9430,"builders":9431,"Ġmanually":9432,"ĠerrSSL":9433,"sentence":9434,"ĠQtWidgets":9435,"xff":9436,"Ġspawn":9437,"ĠAND":9438,"\").<":9439,"Ġconfigparser":9440,"Ġlikely":9441,"PythonVersion":9442,"legate":9443,"hev":9444,"artist":9445,"soli":9446,"AssertionError":9447,"859":9448,"Ġlsb":9449,"NET":9450,"Ġtmpl":9451,"anded":9452,"Ġ\"\"\"\\<":9453,"ĠImplementation":9454,"prefer":9455,"trailing":9456,"menu":9457,"ĠTypical":9458,"failed":9459,"Ġrename":9460,"definit":9461,"Ġunsupported":9462,"ĠBool":9463,"Ġcaching":9464,"Individual":9465,"QT":9466,"()._":9467,"ĠLay":9468,"Ġappended":9469,"TK":9470,"edu":9471,"etime":9472,"2010":9473,"Ġlexer":9474,"SSLContextRef":9475,"uer":9476,"Represents":9477,"Ġ?":9478,"rices":9479,"ĠLIGHT":9480,"uses":9481,"titles":9482,"Ġmultipath":9483,"criterion":9484,"uninstall":9485,"({<":9486,"fication":9487,"'m":9488,"fh":9489,"ĠAuth":9490,"Ġcomputed":9491,"ĠAttempt":9492,"Ġticks":9493,"Decimal":9494,"Ġrecommended":9495,"CMS":9496,"cas":9497,"stale":9498,"uniform":9499,"configure":9500,"Resolver":9501,"ĠAppEngine":9502,"ĠSpatial":9503,"BRA":9504,"FLAGS":9505,"hg":9506,"lifetime":9507,"ichr":9508,"Sends":9509,"[<":9510,"unted":9511,"Ġdegrees":9512,"linker":9513,"Ġaddresses":9514,"packageName":9515,"ĠBuildEnvironment":9516,"zmq":9517,"Save":9518,"bla":9519,"reinitialize":9520,"Ġunders":9521,"ĠWill":9522,"ĠLocation":9523,"conflicts":9524,"rx":9525,"Ġmid":9526,"Ġmiddle":9527,"Ġderived":9528,"ermite":9529,"Ġproviding":9530,"æķ°":9531,"Toks":9532,"fileno":9533,"codec":9534,"ĠBOM":9535,"ĠcheckRecursion":9536,"notChars":9537,"00000000":9538,"quoteChar":9539,"hexnums":9540,"Verify":9541,"Ġpending":9542,"ipython":9543,"Ġitervalues":9544,"mediapipe":9545,"erminal":9546,"400":9547,"LONG":9548,"Ġbranch":9549,"__()":9550,"Ġcollide":9551,"Aut":9552,"LATE":9553,"__'":9554,"0101":9555,"Extract":9556,">`.<":9557,"BLACK":9558,"Ġmtime":9559,"')):<":9560,"PYING":9561,"MENTS":9562,"Ġgrammars":9563,"ĠCaseInsensitiveDict":9564,"small":9565,"19937":9566,"SOURCE":9567,"ĠAUTHORS":9568,"jpg":9569,"Ġcolorama":9570,"=\"\",":9571,"PLA":9572,"]')<":9573,"cb":9574,"large":9575,"question":9576,"ĠGB":9577,"Ġnetrc":9578,"Ġids":9579,"GA":9580,"Please":9581,"Ġvmax":9582,"pypy":9583,"Ġmsgpack":9584,"ELF":9585,"ĠSecureTransport":9586,"Ġå":9587,"Ġ[\"--":9588,"cells":9589,"urrogate":9590,"yield":9591,"alone":9592,"Ġhad":9593,"Ġstand":9594,"etched":9595,"ĠUnlike":9596,"Ġconverter":9597,")**":9598,"Ġì":9599,"intern":9600,"ĠDeprecated":9601,"hours":9602,"(':')":9603,"________________":9604,"Ġlongest":9605,"EAD":9606,"ahead":9607,"deleted":9608,"unused":9609,"ĠInclude":9610,"Interval":9611,"Fatal":9612,"cov":9613,"Delete":9614,"Ġtrace":9615,"Ġroots":9616,"going":9617,"Orig":9618,"]'":9619,"Ġmacro":9620,"Channel":9621,"3333":9622,"mantic":9623,"clock":9624,"Ġhashed":9625,"numer":9626,"ĠChange":9627,"alignment":9628,"384":9629,"Dialog":9630,"Ġsk":9631,"romise":9632,"ĠWarning":9633,"Ġrelationship":9634,"ĠBecause":9635,"Ġguarante":9636,"ietf":9637,"Lines":9638,"sdk":9639,"Ġborder":9640,"Ġlegend":9641,"ĠMin":9642,"maximum":9643,"ElementTree":9644,"ĠInitial":9645,"Fill":9646,"Store":9647,"Ġsv":9648,"',)<":9649,"Ġarc":9650,"Ġ300":9651,"Ġ2021":9652,"58":9653,"dispose":9654,"Ġherm":9655,")[-":9656,"pts":9657,"ALLOW":9658,"ĠConnect":9659,"Ġdigit":9660,"yshev":9661,"comma":9662,"parents":9663,"HTTPResponse":9664,"failure":9665,"Bot":9666,"mount":9667,"sizes":9668,"ĠOK":9669,"consistent":9670,"Ġestab":9671,"morph":9672,"=(),":9673,"argmax":9674,"Ġcodename":9675,"floating":9676,"Ġvcvarsall":9677,"ĠFrozenSet":9678,");<":9679,"[...":9680,"cdf":9681,"social":9682,"percentile":9683,"ĠâĢ¢":9684,"Ġsn":9685,"Undefined":9686,"APPDATA":9687,"postgresql":9688,"Ġtok":9689,"])))<":9690,"Ġidna":9691,"CODING":9692,"ĠignoreEndTag":9693,"ICAL":9694,"rollback":9695,"ĠThread":9696,"Root":9697,">/":9698,"SR":9699,"Work":9700,"iro":9701,"tlist":9702,"Ġ\"~":9703,"ANGE":9704,"Ġframes":9705,"ĠCI":9706,"Ġdevelopment":9707,"Comparison":9708,"Ġreferenced":9709,"ĠREAD":9710,"ĠNeed":9711,"Ġfixture":9712,"air":9713,"pies":9714,"icted":9715,"Ġalphanums":9716,"ĠlistAllMatches":9717,"REF":9718,"forwards":9719,"Ġlogical":9720,"Creates":9721,"ORDER":9722,"Ġthrown":9723,"plugins":9724,"]},":9725,"gmail":9726,"Ġcred":9727,"cker":9728,"Profile":9729,"phrase":9730,"Numeric":9731,"samples":9732,"HTMLElements":9733,"Ġremain":9734,"Ġinserted":9735,"ens":9736,"preprocess":9737,"ĠMD":9738,"xyz":9739,"wininst":9740,"Ġplain":9741,"ĠCaseless":9742,"Ġ`~.":9743,"lected":9744,"Ġfd":9745,"route":9746,"Ġwish":9747,"toks":9748,"ðŁĮ":9749,"Bound":9750,"Screen":9751,"prefixes":9752,"NODE":9753,"ĠElementTree":9754,"It":9755,"Tri":9756,"Ġbi":9757,"classifiers":9758,"ety":9759,"Ġiterkeys":9760,"plural":9761,"224":9762,"iment":9763,"Ġie":9764,"unic":9765,"Ġcopying":9766,"skipna":9767,"otedString":9768,"manylinux":9769,"converters":9770,"anes":9771,"ĠPr":9772,"TreeWalker":9773,"BOM":9774,"Ġstripped":9775,"ĠTarFile":9776,"ĠPATH":9777,"IndividualSpecifier":9778,"cid":9779,"Reporter":9780,"anything":9781,"dropna":9782,"SyntaxError":9783,"Ġ({":9784,"thumbnail":9785,"ĠOne":9786,"ĠExec":9787,"ĠCertificateError":9788,"chn":9789,"Ġsess":9790,"preparer":9791,"namedtuple":9792,"WARNING":9793,"Ġgeneration":9794,">[":9795,"Ġindexing":9796,"connected":9797,"ores":9798,"chart":9799,"objs":9800,"such":9801,"ymous":9802,"Ġetag":9803,"Ġtol":9804,"ĠScript":9805,"ĠCalled":9806,"ĠdelimitedList":9807,"ĠDraw":9808,"Ġcaseless":9809,"ĠretToks":9810,"finish":9811,"ĠStrict":9812,"Ġunlike":9813,"ĠHashes":9814,"Ġcontextmanager":9815,"henticate":9816,"references":9817,"decorator":9818,"Shell":9819,"lb":9820,"mas":9821,"Ġfaster":9822,"announce":9823,"Ġsquare":9824,"Ġ\"[":9825,"ĠInd":9826,"ively":9827,"Ġuserbot":9828,"certificate":9829,"Ġcaptured":9830,"ĠCOPYING":9831,"Ġcfg":9832,"386":9833,"åĲ":9834,"Ġinfinite":9835,"Ġcost":9836,"Ġexpires":9837,"sk":9838,"here":9839,"blas":9840,"imshow":9841,",-":9842,"flip":9843,"Ġintro":9844,"ARRAY":9845,"byteorder":9846,"combine":9847,"949":9848,"Last":9849,"{{":9850,"uristic":9851,"Ġwind":9852,"male":9853,"ĠFix":9854,"Ġmemo":9855,"sessions":9856,"Ġvirtual":9857,"+'":9858,"43":9859,"\\'":9860,"verted":9861,"Resolution":9862,"Current":9863,"crypt":9864,"ĠFuture":9865,"appro":9866,"ĠON":9867,"ĠMatches":9868,"ĠProcess":9869,"Ġdrawn":9870,"ĠSUPP":9871,"LABEL":9872,"_=":9873,"oracle":9874,"Ġrepl":9875,"Ġalla":9876,"Ġ36":9877,"formatted":9878,"ĠDefine":9879,"Pack":9880,"ares":9881,"ditional":9882,"Ġlimits":9883,"Ġrestore":9884,"Ġforeign":9885,"ĠSave":9886,"argsort":9887,"ĠDistutilsFileError":9888,"uffle":9889,"Ġlatest":9890,"REGEX":9891,"GROUP":9892,".',<":9893,"127":9894,"Ġdiagonal":9895,"chanis":9896,"SQUARE":9897,"pem":9898,"Ġ'[":9899,"Ġtoler":9900,"ĠTri":9901,"Ġdoctype":9902,"RENT":9903,"ĠUnicodeEncodeError":9904,"Ġbitmap":9905,"ĠMethods":9906,"Ġidea":9907,"migrate":9908,"ĠPep":9909,"HEADERS":9910,"è¯":9911,"reet":9912,"tagStr":9913,"})\"<":9914,"speed":9915,"MAGIC":9916,"Ġpu":9917,"Ġ##":9918,"conj":9919,"Ġden":9920,"methodcaller":9921,"examples":9922,"Usage":9923,"~<":9924,"\"\"\")<":9925,"Ġstarted":9926,"ĠLabel":9927,"Ġpypi":9928,"ĠContain":9929,"Registry":9930,"gid":9931,"Ġpipe":9932,"chive":9933,"Ġunchanged":9934,"Ġbackoff":9935,"Active":9936,"Calcul":9937,"ln":9938,"ĠMan":9939,"Ġpermitted":9940,"abcdef":9941,"Subclass":9942,"Ġbg":9943,"ĠOb":9944,"Ġexpects":9945,"transport":9946,"ners":9947,"ummary":9948,"ĠMon":9949,"extraction":9950,"Ġtempdir":9951,"Ġutilities":9952,"Ġcallbacks":9953,"Ġtkinter":9954,"star":9955,"Ġslow":9956,"outfile":9957,"Parameter":9958,"ĠExp":9959,"})\".":9960,"Ġallauth":9961,"âľ":9962,"Ġ----------------":9963,"Ġ:]<":9964,"SERT":9965,">=":9966,"eep":9967,"Ġopened":9968,"frac":9969,"ric":9970,"Ġatt":9971,"\"][\"":9972,"Day":9973,"could":9974,"Ġgame":9975,"Ġnewlines":9976,"SIDL":9977,"ĠDistutilsError":9978,"poll":9979,"Cor":9980,"olume":9981,"ĠFramework":9982,"ĠWHERE":9983,"inTable":9984,"Ġsf":9985,"Ġmobj":9986,"Ġmicro":9987,"preview":9988,"Ġ[]).":9989,"Ġcombined":9990,"FILENAME":9991,"+-]?\\":9992,"ĠToml":9993,"ĠsetUp":9994,"cmdclass":9995,"ĠAdditional":9996,"descr":9997,"ordinal":9998,"flowError":9999,"uncher":10000,"Ġdegree":10001,"EAR":10002,"IMP":10003,"information":10004,"ĠMachine":10005,"ĠWAR":10006,"Ġunicodedata":10007,"OID":10008,"ossible":10009,"__))<":10010,"Ġhistogram":10011,"Layout":10012,"hyp":10013,"osed":10014,"ĠĠĠĠĠĠĠĠĠĠĠĠĠĠĠĠĠĠĠĠĠĠĠĠĠĠĠĠĠĠĠĠĠĠĠĠĠĠĠĠĠĠ":10015,"Ġrx":10016,"Ġprog":10017,"Ġ34":10018,"Ġxm":10019,"parsedVersion":10020,"Ġstdlib":10021,"PROJECT":10022,"300":10023,">[^":10024,"dependency":10025,"Ġahead":10026,"precate":10027,"MessageType":10028,"VARS":10029,"management":10030,"BINARY":10031,"ĠPos":10032,"Ġrg":10033,"amb":10034,"protocols":10035,"Suppress":10036,"Show":10037,"dtemp":10038,"__('":10039,"Ġbyref":10040,"``,<":10041,"Ġlarger":10042,"ConnectionError":10043,"Ġletters":10044,"ãģĦ":10045,"Month":10046,"ylim":10047,"Ġ=>":10048,"metrics":10049,"quantile":10050,"ĠAsync":10051,"Checks":10052,"Ġsecret":10053,"Ġlocated":10054,"Ġsprites":10055,"ĠSecurityConst":10056,"ĠIDNAError":10057,"FRA":10058,"eager":10059,"Ġtimer":10060,"aring":10061,"Ġfra":10062,"Ġmu":10063,"ĠFlask":10064,"ĠBinary":10065,"ANCE":10066,"naive":10067,"IR":10068,"Ġnl":10069,"spaces":10070,"errstate":10071,"Ġchoose":10072,"Serialisable":10073,"Ġorientation":10074,"jac":10075,"px":10076,"Ïħ":10077,"ues":10078,"provid":10079,"readable":10080,"Ġderivative":10081,"annotation":10082,"ech":10083,"geo":10084,"Ġisna":10085,"conversion":10086,"decorators":10087,"COUNT":10088,"TRA":10089,"XY":10090,"dual":10091,"Ñĭ":10092,"isdigit":10093,"avor":10094,"Ġcountry":10095,"lendar":10096,"Ġcontributors":10097,"nothing":10098,"Ġinfer":10099,"ection":10100,"ĠMissing":10101,"ĠUnpack":10102,"workers":10103,"ALIAS":10104,"salt":10105,"Ġdn":10106,"isatty":10107,"PATTERN":10108,")(*":10109,"tition":10110,"wg":10111,"Ġeffective":10112,"ilation":10113,"userbase":10114,"latex":10115,"wikipedia":10116,"SdkDir":10117,"Pe":10118,"Vis":10119,"linewidth":10120,"\"][":10121,"dicts":10122,"Ġjob":10123,"MovedItems":10124,"CES":10125,"drive":10126,"given":10127,"reversed":10128,"stand":10129,"Ġpast":10130,"Ġalg":10131,"ĠRPM":10132,"Ġargtypes":10133,"****************":10134,"OAuth":10135,"about":10136,"Ġthumbnail":10137,"ĠHermite":10138,"minimum":10139,"ĠEncoding":10140,"DOCUMENT":10141,"\"/":10142,"ects":10143,"confirm":10144,"functional":10145,"Ġdidn":10146,"CLS":10147,"Unpack":10148,"descriptors":10149,"Ġshouldn":10150,"+<":10151,"8859":10152,"ingular":10153,"Ġsections":10154,"dential":10155,"DEX":10156,"2007":10157,"Ġshortcut":10158,"nchronous":10159,"rypted":10160,"ĠOut":10161,"SECU":10162,"letter":10163,"Egg":10164,"Ġaverage":10165,"lips":10166,"Ġdeep":10167,"omial":10168,"foreign":10169,"Ġtagname":10170,"1111":10171,"'})<":10172,"Xml":10173,"etag":10174,"yes":10175,"selves":10176,"Ġemit":10177,"abilities":10178,"ĠClient":10179,"ĠMIT":10180,"INAL":10181,"PIP":10182,"IOError":10183,"ĠAlways":10184,"Ġstructures":10185,"ĠHeader":10186,"EU":10187,"Ġbasis":10188,"apane":10189,"Ġsender":10190,"Ġbuff":10191,"Filename":10192,"Ġboxes":10193,"Ġ508":10194,"apanese":10195,"*')<":10196,"YY":10197,"Ñı":10198,"12345":10199,"Ġoptimization":10200,"68":10201,"bian":10202,"Ġds":10203,"Ġmar":10204,"weet":10205,"modify":10206,"Ġreceive":10207,"ĠTimedeltaIndex":10208,"ÏĥÏĦÎ":10209,"cluster":10210,"pyver":10211,"callDuringTry":10212,"MatchFirst":10213,")\"),<":10214,"hind":10215,"tbody":10216,"Ġreported":10217,"Ġcid":10218,"ĠSH":10219,"ĠUS":10220,"answer":10221,"positive":10222,"ĠLookupError":10223,">')<":10224,"controller":10225,"ĠAuthor":10226,"Ġtimed":10227,"\")])<":10228,"zipimporter":10229,"theta":10230,"ĠsystemId":10231,"ĠGenerated":10232,"Ġdynamic":10233,"activate":10234,"Ġapplicable":10235,",'":10236,"URI":10237,"dn":10238,"oh":10239,"Ġpush":10240,"coef":10241,"ĠSingle":10242,"Conv":10243,"**<":10244,"Ġ\"\"),<":10245,"Ġidentifiers":10246,"positions":10247,"Ġconsist":10248,"Ġmsvc":10249,"69":10250,"Has":10251,"ropy":10252,"Recursive":10253,"apted":10254,"ĠWINDOWS":10255,"Ġadjacent":10256,"boot":10257,"\")),<":10258,"censes":10259,"RequestException":10260,"untimeWarning":10261,"ĠLike":10262,"strides":10263,"Choice":10264,"Ġrmtree":10265,"/'<":10266,"901":10267,"Mutable":10268,"evaluator":10269,"Ġforcing":10270,"ĠCy":10271,"Ġdeque":10272,"ĠUnknown":10273,"Events":10274,"ĠHere":10275,"Ġ\\*\\*":10276,"=(\"":10277,"PYPY":10278,"æľ":10279,"Ġcriteria":10280,"Ġmechanis":10281,"TIONAL":10282,"Ġrendering":10283,"aussian":10284,"Ġtolerance":10285,"Ġicon":10286,"\",)<":10287,"ĠEl":10288,"ĠHEAD":10289,"Ġlight":10290,"mkpath":10291,"rotli":10292,"ĠValidate":10293,"Ġmodifying":10294,"multiply":10295,"Ġthink":10296,"Ġ|<":10297,"{}\".":10298,"versal":10299,".],":10300,"writable":10301,"Ġ('.":10302,"limiters":10303,"Ġaccessing":10304,"ĠCallbackContext":10305,"Ð»":10306,"Ġgl":10307,"overflow":10308,"greSQL":10309,"LENGTH":10310,"integr":10311,"Ġtqdm":10312,"predicate":10313,"']))<":10314,"Ġcodec":10315,"Ġminutes":10316,"NotIn":10317,"Ġapprox":10318,"Ġkwds":10319,"Ġdotted":10320,"Ġeigen":10321,"HKEY":10322,"}}<":10323,"Ġfft":10324,"ula":10325,"RECORD":10326,"letters":10327,"ProxyManager":10328,"ĠHTTPSConnection":10329,"packet":10330,"Ġfut":10331,"enium":10332,"Ġapproach":10333,"COLOR":10334,"Ġcauses":10335,"Print":10336,"]]]<":10337,"Ġ\"}\"<":10338,"ĠTools":10339,"setFilter":10340,"ĠIgnore":10341,"tached":10342,"Ġonto":10343,"Ġaccessible":10344,"EEK":10345,"ĠMaxRetryError":10346,"ĠEUCKR":10347,"}({":10348,"umask":10349,"Ġxs":10350,"Ġplus":10351,"Ġappears":10352,"checked":10353,"Ġurlfetch":10354,"refcount":10355,"Ġvendored":10356,"ulp":10357,"Ġmanip":10358,"LOCAL":10359,"Ġ'*'":10360,".*?":10361,"Generic":10362,"databases":10363,"bet":10364,"macos":10365,"proj":10366,"MEM":10367,"Requests":10368,"NUT":10369,"ĠTool":10370,"([\\":10371,"Ġloads":10372,"Ġvcruntime":10373,"globs":10374,"Ġurlopen":10375,"through":10376,"('')<":10377,"Ġdetection":10378,"general":10379,"Ġready":10380,"ADDR":10381,"Spatial":10382,"attname":10383,"RGBA":10384,"åħ":10385,"Ġ'âĸ":10386,"Ġunion":10387,"Agent":10388,"fut":10389,"ern":10390,"lobj":10391,"Ġ\\\"":10392,"Ġraster":10393,"Clip":10394,"elem":10395,"xaxis":10396,"mesh":10397,"ĠCustom":10398,"ĠBLACK":10399,"stitution":10400,"cost":10401,"ĠSQUARE":10402,"isect":10403,"php":10404,"EXEC":10405,"recv":10406,"stu":10407,"Ġops":10408,"licenses":10409,"Sets":10410,"Ġ63":10411,"PIPE":10412,"CFString":10413,"CFRelease":10414,"Ġ\"{\"":10415,".\",":10416,"Kernel":10417,"bn":10418,"Ġupon":10419,"Ġprefixes":10420,"wrappers":10421,"ĠInstance":10422,"Ġpseudo":10423,"dic":10424,"Ġbypass":10425,"hood":10426,"ĠUP":10427,"Parameters":10428,"Decl":10429,"Ġfloats":10430,"Decorator":10431,"cmap":10432,"floor":10433,"will":10434,"ĠSource":10435,"localhost":10436,"savefig":10437,"indentation":10438,"GraphQL":10439,"ĠMachineState":10440,"æĸ":10441,"Ġagent":10442,"Ġrecognized":10443,"Ġfine":10444,"maintainer":10445,"gsize":10446,"ĠRel":10447,"backward":10448,"Short":10449,"?\"\"\"<":10450,"Tensor":10451,"don":10452,"ĠCPython":10453,"Ġ09":10454,"ĠPage":10455,"acted":10456,"ĠWinter":10457,"Enabled":10458,"xxx":10459,"Initialize":10460,"ierarchy":10461,"dataframe":10462,"zipinfo":10463,"gorithms":10464,"NUMBER":10465,"reload":10466,"sprites":10467,"arsh":10468,"Ġdicts":10469,"Ġ...,":10470,"ĠChecks":10471,"CONTENT":10472,"Ġmeaning":10473,"ProtocolMessageType":10474,"kj":10475,"Ġ[_":10476,"Replace":10477,"Ġsear":10478,"ĠRGB":10479,"Ġmarks":10480,"URE":10481,"Ġinject":10482,"unpacked":10483,"pology":10484,"ĠUninstall":10485,"corpus":10486,"Statement":10487,"ĠRegister":10488,"rgba":10489,"ĠBut":10490,"PACE":10491,"Ġdescribe":10492,"morphic":10493,"Ġ())<":10494,"ulates":10495,"=\")":10496,"OpenSSL":10497,"Ġdelimiters":10498,"outcome":10499,"apple":10500,"Ġconditional":10501,"clusions":10502,"ĠBeautifulSoup":10503,"After":10504,"]}":10505,"ili":10506,"xp":10507,"Ġsatisfied":10508,"importlib":10509,"notes":10510,"Predicate":10511,"ITS":10512,"PASS":10513,"Ġrouter":10514,"cloud":10515,"Ġbootloader":10516,"eta":10517,"Ġmiddleware":10518,"\")):<":10519,"completion":10520,"OptionParser":10521,"Ġevaluation":10522,"*\\":10523,"Append":10524,"DC":10525,"Ġcar":10526,"NotAny":10527,"lexer":10528,"sequences":10529,"PackageFinder":10530,"Ġinstantiated":10531,"anitize":10532,":'":10533,"pipe":10534,"Ġdoctest":10535,"Ġ\".\"":10536,"ĠPoint":10537,"BACKEND":10538,"providers":10539,");":10540,".\".":10541,"ternative":10542,"ĠtokenMap":10543,"Ġparsers":10544,"TokenConverter":10545,"Ġbodychars":10546,"Ġreleases":10547,"CharsOrig":10548,"resultsName":10549,"ĠDiscontent":10550,"IntegerField":10551,"Ġphases":10552,"ĠthrowException":10553,"Ġfontsize":10554,"+\"":10555,"LANG":10556,"vocab":10557,"inted":10558,"Ġeq":10559,"Ġ\"\\\\":10560,"verting":10561,"ffff":10562,"usersite":10563,"supplied":10564,"ĠInvalidVersion":10565,"ĠInternal":10566,"riding":10567,"Ġstub":10568,"ĠSetup":10569,"MY":10570,"]]:<":10571,"ingu":10572,"paramref":10573,"ĠRLock":10574,"gramm":10575,"TRAN":10576,"ĠPYTHONPATH":10577,"=\"\"":10578,"Ġcm":10579,"Ġddof":10580,"LEFT":10581,"corr":10582,"explicit":10583,"ĠHTMLParser":10584,"è¿":10585,"itter":10586,"ĠCalcul":10587,"ĠCategoricalIndex":10588,"WSGI":10589,"Ġreceived":10590,"GeneratedProtocolMessageType":10591,"Ġwalk":10592,"otion":10593,"haust":10594,"fixers":10595,"manent":10596,"when":10597,"lapsed":10598,"vailable":10599,"chdir":10600,"Ġ_(\"":10601,"\"]]<":10602,"\"^\\":10603,"ĠTakes":10604,"xz":10605,"isabs":10606,"ĠStyle":10607,"Ġ``__":10608,"Ġchunksize":10609,"Ġgoes":10610,"Ġprotocols":10611,"BUT":10612,"Pointer":10613,"]'<":10614,"Ġer":10615,"ĠMaskedArray":10616,"Ġwindll":10617,"`)":10618,"Ġbz":10619,"vered":10620,"verything":10621,"Ġthreads":10622,"Ġactivate":10623,"whatwg":10624,"Gui":10625,"Legacy":10626,"sender":10627,"Ġ'',<":10628,"illi":10629,"lapping":10630,"ĠAR":10631,"Ġstreamline":10632,"ĠProvides":10633,"ometric":10634,"Ġ90":10635,"asyncio":10636,"HeaderDict":10637,"Ġalternate":10638,"annotations":10639,"INSTALL":10640,"ĠREADME":10641,"/(":10642,"UES":10643,"]?":10644,"though":10645,"ĠThen":10646,"Ġbuilds":10647,"Ġduplicates":10648,"ĠFunction":10649,"+(":10650,"Wait":10651,"blob":10652,"ÏĮ":10653,"Ġrea":10654,"classed":10655,"tokenQueue":10656,"compiled":10657,"winreg":10658,"[^>":10659,"Children":10660,"Ġredact":10661,"ĠOperator":10662,"+',":10663,"()])<":10664,"FFFE":10665,"suffixes":10666,"Ġsimplify":10667,"Ġattempting":10668,"ĠInfoExtractor":10669,"AMP":10670,"Ġdp":10671,"__'):<":10672,"Ġvary":10673,"bugs":10674,"uber":10675,"transformString":10676,"CURRENT":10677,"framesetOK":10678,"ĠMatchFirst":10679,"anythingElse":10680,"Public":10681,"Ġnice":10682,"Ġhack":10683,"ĠLanguage":10684,"ĠEnable":10685,"Operations":10686,"Ġmonkey":10687,"REMENT":10688,"ĠNumeric":10689,"sibling":10690,"Ġpt":10691,"Ġchunked":10692,"Ġglobally":10693,"AUTH":10694,"ru":10695,"ç»":10696,"fies":10697,"Ġasarray":10698,"Ġimporting":10699,"prune":10700,"linkname":10701,"subset":10702,"Ġspatial":10703,"icks":10704,"ObjectType":10705,"rotate":10706,"72":10707,"81":10708,"family":10709,"gu":10710,"orient":10711,"Ġwidgets":10712,"âĸĪâĸĪ":10713,"Temporary":10714,"Big":10715,"UST":10716,"à¸":10717,"libname":10718,"ardown":10719,"Std":10720,"ĠExpression":10721,"subject":10722,"ANT":10723,"httplib":10724,"ĠJust":10725,"Ma":10726,"Migration":10727,"ĠCPU":10728,"Ġdetected":10729,"reement":10730,"Ġsqlparse":10731,"ĠEUCTW":10732,"'%":10733,"ðĿ":10734,"ĠPNG":10735,"ffected":10736,"Framework":10737,"dti":10738,"ighb":10739,"ĠEntryPoint":10740,"arity":10741,"liant":10742,"Ġmem":10743,"ocation":10744,"colgroup":10745,"distinct":10746,"Ġdiscard":10747,"ashComment":10748,"Normalized":10749,"Ġearlier":10750,"Scalar":10751,"lain":10752,"xtures":10753,"ĠDirect":10754,"RAW":10755,"Ġdrawing":10756,"!!!!!!!!":10757,"Foo":10758,"Ġomitted":10759,"Ġhide":10760,"ĠPack":10761,"])[":10762,"CSIDL":10763,"eff":10764,"opens":10765,"readthe":10766,"ãģĤ":10767,"readthedocs":10768,"bzip":10769,"hide":10770,"zilla":10771,"inject":10772,"ĠSIG":10773,"izable":10774,"aper":10775,"Properties":10776,"Ġmatrices":10777,"polygon":10778,"Kit":10779,"WHEEL":10780,"Ġtidx":10781,"tet":10782,"Ġresname":10783,"dbapi":10784,"Ġsatisfy":10785,"Bin":10786,"MATCH":10787,"ashed":10788,"mkdir":10789,"GGA":10790,"aneous":10791,"declare":10792,"TRIBUT":10793,"Ġdistributing":10794,"thead":10795,"Ġincrement":10796,"ĠClean":10797,"subdirectory":10798,"suming":10799,"BAPI":10800,"TOKEN":10801,"ategies":10802,"Ġrectangle":10803,"ĠCFString":10804,"RecordPath":10805,"NUTYPE":10806,"Ġsingular":10807,"(\"--":10808,"Errors":10809,"urlfetch":10810,"Ġurljoin":10811,"errupt":10812,"InstallationCandidate":10813,"ĠSupports":10814,"ĠCONTRIBUT":10815,"Ġdivmod":10816,"ĠStruct":10817,"BRACKET":10818,"abis":10819,"Ġ27":10820,"dirty":10821,"Ġalphabet":10822,"etc":10823,"ĠOp":10824,"playlist":10825,"Callback":10826,"Ġmonotonic":10827,"ĠSpecial":10828,"uerre":10829,"ĠStrictVersion":10830,"ĠCONTRIBUTORS":10831,":\")<":10832,"fortran":10833,"Ġfed":10834,"ĠDes":10835,"ĠReferences":10836,"Ġ``\"":10837,"Ġpartition":10838,"removed":10839,"ĠGeo":10840,"EVENT":10841,"=()):<":10842,"Ġ'(":10843,"ely":10844,"()),":10845,"ĠReplace":10846,"until":10847,"ĠSSLContext":10848,"legal":10849,"TLSv":10850,"INGS":10851,"Ġquad":10852,"Ġreplaces":10853,"Ġobserver":10854,"SUB":10855,"Contains":10856,"FLO":10857,"critical":10858,"ĠSend":10859,"Ġrand":10860,"Ġ['-":10861,"Ġprobability":10862,"Ġamong":10863,"='<":10864,"Closing":10865,"]\"":10866,"Ġ[],<":10867,"ENCODING":10868,"FIRST":10869,"(?!":10870,"Ġlookups":10871,"Ġdbapi":10872,"ĠÏĦÎ¿":10873,"$\")<":10874,"Ġmention":10875,"Ġnewly":10876,"FileHeader":10877,"boxes":10878,"CFData":10879,"ĠIntervalIndex":10880,"ELFFileHeader":10881,"ELE":10882,"WEEK":10883,"Ġ`{":10884,"ĠEL":10885,"ĠSetting":10886,"================================================================":10887,"weekday":10888,"MutableMapping":10889,"_\"":10890,"Ġtaking":10891,"Ġwor":10892,"Ġhuman":10893,"Ġvmin":10894,"Chunk":10895,"Ġfinding":10896,"Ġregion":10897,"Doctype":10898,"uz":10899,"Ġfavor":10900,"Ġarange":10901,"Ġ{})":10902,"Ġgreet":10903,"ĠWhat":10904,"arter":10905,"Ġcorner":10906,"FAl":10907,"comes":10908,">'''<":10909,"rocessing":10910,"socialaccount":10911,"*'<":10912,"CEP":10913,"UAGE":10914,"equivalent":10915,"Ġhalf":10916,"nshi":10917,"Ġapplies":10918,"searchsorted":10919,"ĠInvalidRequirement":10920,"WhitespaceChars":10921,"ĠquotedString":10922,"Ġfore":10923,"unsupported":10924,"Ġ`_":10925,"Ġseed":10926,"Ġtechn":10927,"UnparsedVersion":10928,"Ġ127":10929,"obsoletes":10930,"ĠRemovedIn":10931,"FatalException":10932,"ky":10933,"ĠSys":10934,"ista":10935,"Ġproper":10936,"ĠEasy":10937,"Ġtokenizer":10938,"Ġ'/')<":10939,"interpolate":10940,"51":10941,"rd":10942,"ised":10943,"Connect":10944,"dented":10945,"20130101":10946,"werkzeug":10947,"calculator":10948,"Full":10949,"reinstall":10950,"Ġrecogn":10951,"kew":10952,"\")[":10953,"Ġiterate":10954,"Ġoptionally":10955,"Ġavoids":10956,"ãģĨ":10957,"aggregate":10958,"bzr":10959,"ĠSUPPORTED":10960,"BZ":10961,"ciphers":10962,"urator":10963,"ĠFortran":10964,"periment":10965,"Ġgetter":10966,"ĠNested":10967,"applic":10968,"Ġ('-":10969,"Ġnonce":10970,"DIT":10971,"Ġfractions":10972,"FUNC":10973,"sandbox":10974,"repl":10975,"Ġ[]:<":10976,"permission":10977,"ConfigParser":10978,"SUPPORTED":10979,"Ġpotential":10980,"Doc":10981,"Random":10982,"calc":10983,"npy":10984,"Ġsound":10985,"fier":10986,"isna":10987,"innerHTML":10988,"Ġattempts":10989,"ĠAccept":10990,">]":10991,"Ġscl":10992,"ĠIncremental":10993,"Ġautos":10994,"Ġfixer":10995,"Ġalignment":10996,"DT":10997,"effect":10998,"Ġlinker":10999,"('',":11000,"Ġdensity":11001,"ĠOptions":11002,"scatter":11003,"bert":11004,"LOP":11005,"RequestHandler":11006,"Ġauthors":11007,"ĠFILE":11008,"Bad":11009,"depends":11010,"Ġcir":11011,"getenv":11012,"cks":11013,"trunc":11014,"directories":11015,"AV":11016,"Cancel":11017,"OGR":11018,"Ġretain":11019,"ittle":11020,"ĠDATE":11021,"ĠDNS":11022,">>>>":11023,"Ġ['/":11024,"bytecode":11025,"Policy":11026,"InputStream":11027,"Editor":11028,">,":11029,"Math":11030,"Ġvendor":11031,"Ġtabs":11032,"Ġcbook":11033,"Ġeggs":11034,"listen":11035,"ULTI":11036,"Ġjoined":11037,"Split":11038,"Ġsymmetric":11039,"dition":11040,"mongo":11041,"atype":11042,"quares":11043,"Ġlst":11044,"Ġdiscord":11045,"Ġdirective":11046,"ĠSettings":11047,"Ġdisplayed":11048,"âĶģ":11049,"writing":11050,"Ġeasier":11051,"IVE":11052,"Site":11053,"anted":11054,"unget":11055,"charref":11056,"shadow":11057,"sites":11058,"convertToFloat":11059,"za":11060,"arDown":11061,"Ġreduced":11062,"Ġ_<":11063,"allfiles":11064,"netes":11065,"Ġshadow":11066,"autocommit":11067,"ĠFileNotFoundError":11068,"Ġreporter":11069,"TEMPLATE":11070,"ĠANSI":11071,"ubernetes":11072,"_)":11073,"Ġsol":11074,"Ġ(`":11075,"ĠTABLE":11076,"Ġ:,":11077,"Ġfilemode":11078,"Ġproduced":11079,"Ġunichr":11080,"Ġconverts":11081,"Display":11082,"ĠCharSet":11083,"Account":11084,"atexit":11085,"FAllocator":11086,">(":11087,"edi":11088,"Ġsdk":11089,"Ġinferred":11090,"Ġ\"\"\").":11091,"divide":11092,"ĠEquivalent":11093,"compilers":11094,"ansi":11095,"Chart":11096,"Ġconfigure":11097,"aker":11098,"COOK":11099,"exponential":11100,"Ġnaive":11101,"fl":11102,"Ġclock":11103,"Ġratio":11104,"Ġ``_":11105,"ĠGoogle":11106,"ONLY":11107,"Example":11108,"Ġcapital":11109,")()<":11110,"nans":11111,"Ġgamma":11112,"Ġinstalls":11113,"ĠnamespaceHTMLElements":11114,"childNodes":11115,"Ġgradient":11116,"DLL":11117,"ĠArguments":11118,"ĠBLUE":11119,"ctionaries":11120,"Ġbundle":11121,"Ġcalendar":11122,"Dialect":11123,"grammar":11124,"Ġlinux":11125,"RCCommand":11126,"eled":11127,"peer":11128,"Ġuid":11129,"ĠLim":11130,"AAA":11131,"63":11132,"OFF":11133,"çĶ":11134,"Ġimpl":11135,"Ġptr":11136,"Ġconvent":11137,"Ġstrs":11138,"ĠPermission":11139,"hebyshev":11140,"rad":11141,"Ġ'&":11142,"quot":11143,"destination":11144,"Ġswap":11145,"Codec":11146,"LU":11147,"Ġredu":11148,"Ġ###":11149,"ĠFAIL":11150,"oking":11151,"Ġ/=":11152,"lookups":11153,"ALLOWED":11154,">----------------":11155,"average":11156,"sound":11157,"directed":11158,"vie":11159,"Ġunused":11160,"does":11161,"(\"\".":11162,">##":11163,"Kind":11164,"Variable":11165,"pull":11166,"ĠRecord":11167,"Ġsupply":11168,"ĠRaw":11169,"lapse":11170,"POSI":11171,"ITEM":11172,"=('":11173,"Ġequ":11174,"quad":11175,"Ġhyper":11176,"ĠSJIS":11177,"ĠCmd":11178,"()\")<":11179,"ĠEUCJP":11180,"mapped":11181,"Ġdispatcher":11182,"Ġ\"'%":11183,"Override":11184,"Filled":11185,"cython":11186,"ipt":11187,"inference":11188,"leting":11189,"arb":11190,"Ġproduces":11191,"=='":11192,"Ġnums":11193,"backwards":11194,"ĠModified":11195,"ĠPoolManager":11196,"ior":11197,"square":11198,"yaml":11199,"Ġgnu":11200,"basestring":11201,"withAttribute":11202,"Chat":11203,"CHUNK":11204,"ĠmakeHTMLTags":11205,"ATCATC":11206,"aj":11207,"nderer":11208,"tfoot":11209,"seen":11210,"covery":11211,"DIS":11212,"ĠProject":11213,"simplefilter":11214,"ĠPipError":11215,"Ġquick":11216,"`).<":11217,"music":11218,"Ġfour":11219,"ĠParsed":11220,"Matcher":11221,"samefile":11222,"components":11223,"][\"":11224,"fns":11225,"watch":11226,"Ġcopies":11227,"ERO":11228,"moduleOr":11229,"ĠRECORD":11230,"Features":11231,"ĠYields":11232,"moduleOrReq":11233,"_):<":11234,"bio":11235,"delim":11236,"ĠĠĠĠĠĠĠĠĠĠĠĠĠĠĠĠĠĠĠĠĠĠĠĠĠĠĠĠĠĠĠĠĠĠĠĠĠĠĠĠĠ":11237,"Ġaddr":11238,"filterwarnings":11239,"Geo":11240,"blah":11241,"Peer":11242,"Ðº":11243,"Ġambiguous":11244,"preserve":11245,"locn":11246,"lasses":11247,"lick":11248,"Ġthird":11249,"ĠEgg":11250,"Ġ['.":11251,"Ġ&=":11252,"ĠBaseDatabase":11253,"2005":11254,"Preserve":11255,"Ġ2018":11256,"Allow":11257,"cumsum":11258,"opensource":11259,"fa":11260,"rvs":11261,"live":11262,"Ġcompilers":11263,"Ġlowest":11264,"Service":11265,"await":11266,"wx":11267,"yaxis":11268,"ips":11269,"tokenize":11270,"Ġ{},":11271,"ãģĪ":11272,"Ġpiece":11273,"avigation":11274,"'\")<":11275,"CUL":11276,"Safe":11277,"VS":11278,"Ġtt":11279,"declared":11280,"isin":11281,"ĠDBAPI":11282,"rontend":11283,"Ġranges":11284,"Ġinfos":11285,"231":11286,"GetTypeID":11287,"cygwin":11288,"nm":11289,"Ġ\"+":11290,"idna":11291,"ĠSafe":11292,"bucket":11293,"backports":11294,"price":11295,"Ġsegments":11296,"Selector":11297,"RuntimeError":11298,"YEAR":11299,"echo":11300,"xlabel":11301,"Ġage":11302,"undef":11303,"ĠBY":11304,"raphe":11305,"Keychain":11306,"[^\\":11307,"]+)\\":11308,"toolbar":11309,"SecTrustResult":11310,"ircular":11311,"FutureWarning":11312,"((<":11313,"/*":11314,"started":11315,"Ġ[#":11316,"(\"*":11317,"ĠRPC":11318,"connectionpool":11319,"...\")<":11320,"ĠProtocolError":11321,"BLE":11322,"ei":11323,"orarily":11324,"Ġbisect":11325,"Ġmargin":11326,"ĠTicket":11327,"Ġcourse":11328,"999":11329,"wintypes":11330,"Ġ'/'<":11331,"relpath":11332,"relationship":11333,"ĠCurrently":11334,"Ġstandalone":11335,":.":11336,"[[\"":11337,"remap":11338,"Ġever":11339,"strg":11340,"ĠmatchString":11341,"ople":11342,"SETT":11343,"ĠstartTagTable":11344,"Ġevaluated":11345,"Double":11346,"QA":11347,"frequency":11348,"spatial":11349,"Ġcells":11350,"DistutilsError":11351,">.<":11352,"LG":11353,"glish":11354,"Ġfrag":11355,"Ġfamily":11356,"]+',":11357,"ĠRequirements":11358,"bootstrap":11359,"CTION":11360,"IFE":11361,"ood":11362,"Ġ'@":11363,"Ġxrange":11364,"sycopg":11365,"bindings":11366,"BLOCKSIZE":11367,"Ph":11368,"mu":11369,"Ġtxt":11370,"ĠCMD":11371,"))):<":11372,"Ġ2011":11373,"disabled":11374,"------------------------------------------------------------------------------<":11375,"Ġpkgs":11376,"reserved":11377,"Ġblit":11378,"ĠIdent":11379,"ĠCounter":11380,"Ġlogs":11381,"ONT":11382,"ĠPerform":11383,"Linear":11384,"Long":11385,"fancy":11386,"once":11387,"ĠNORM":11388,"Ġmappings":11389,"Ġfspath":11390,"IFEST":11391,"PH":11392,"^{":11393,"jinja":11394,"}-":11395,"Ġtouch":11396,"idual":11397,"ĠFail":11398,"Ġattach":11399,"argmin":11400,"Ġiterations":11401,"Ġgenerates":11402,"roundtrip":11403,"PPER":11404,"serializers":11405,"ProgressBar":11406,"FD":11407,"Target":11408,"solve":11409,"}/":11410,"cross":11411,"ValidationError":11412,"ĠLinear":11413,"Ġsmaller":11414,"Ġmediapipe":11415,"Ġft":11416,"Ġaspect":11417,"Ġ234":11418,"2019":11419,"styles":11420,"Ġrefresh":11421,"FromTable":11422,"gztar":11423,"cuit":11424,"ĠPostgreSQL":11425,"ĠSparseArray":11426,"*:":11427,"LL":11428,"Ġlxml":11429,"locate":11430,"Ġpyasn":11431,"Ġneg":11432,"Ġshlex":11433,"Gets":11434,"Ġmultipart":11435,"CATION":11436,"RAT":11437,"Ġir":11438,"Ġreuse":11439,"moji":11440,"ĠRandom":11441,"Ġgenerating":11442,">\\<":11443,"Ġbuttons":11444,"DIRECTORY":11445,"bra":11446,"romote":11447,"ĠPet":11448,"ĠVista":11449,"minutes":11450,"Ġdisk":11451,"processing":11452,"nodelist":11453,"bitmap":11454,"Ġhowever":11455,"RCLE":11456,"Ġdescribing":11457,"(':')<":11458,"Initial":11459,"witch":11460,"inite":11461,"Ġcancel":11462,"linked":11463,"ĠLazy":11464,"grouper":11465,"Archive":11466,"Ġlinked":11467,"ĠTextIO":11468,"ĠThus":11469,"quotedString":11470,"typical":11471,"Video":11472,"externally":11473,"Ġcalculated":11474,"ĠQuotedString":11475,"ĠNormalizedName":11476,"lu":11477,"Ġwalker":11478,"upcaseTokens":11479,"Ġextent":11480,"maker":11481,"ĠSy":11482,"pyp":11483,"provided":11484,"Ġmeant":11485,"ĠBLOCK":11486,"TextIO":11487,"ĠpostParse":11488,"Ġreasons":11489,"ĠORM":11490,"MultipleMatch":11491,"CaselessKeyword":11492,"BYTE":11493,"ĠCho":11494,"002":11495,"Ġproduction":11496,"Ġexplan":11497,"topleft":11498,"ĠAddress":11499,"mediate":11500,"ĠSkipTo":11501,"raphene":11502,"Used":11503,"browser":11504,"eg":11505,"ĠTIME":11506,"ĠSRCALPHA":11507,"tobytes":11508,"estyle":11509,"ĠassertSurface":11510,"Exp":11511,"curse":11512,"ickness":11513,"Colgroup":11514,"mypy":11515,"XXX":11516,"ĠspaceCharacters":11517,"Ġkwarg":11518,"Ġmemoryview":11519,"Ġapplying":11520,"Ġmimetype":11521,"ĠassertSurfaceFilled":11522,"GAC":11523,"ÑĮ":11524,"uter":11525,"ysical":11526,"])]<":11527,"piv":11528,"dbg":11529,"Ġ\".\".":11530,"variance":11531,"192":11532,"Ġquoting":11533,"GACY":11534,"'\\\\":11535,"Ġ(),":11536,"-----------<":11537,"Ġdevelop":11538,"Spinner":11539,"bidden":11540,"capi":11541,"rink":11542,"ĠAvoid":11543,"ĠNB":11544,"Ġwhy":11545,"\"])":11546,"Ġsync":11547,"Ġinterp":11548,"Ġsubclassing":11549,"embedding":11550,"Tk":11551,"las":11552,"oll":11553,"----------<":11554,"Ġdemo":11555,"stead":11556,"cats":11557,"ĠSupport":11558,"Ġsay":11559,"Ġwide":11560,"ansion":11561,"Ġreads":11562,"âĶĢ":11563,"ĠSystemExit":11564,"\"[":11565,".',":11566,"invert":11567,"alance":11568,"Ġcent":11569,"ĠEM":11570,"joins":11571,"ĠVAR":11572,"ificant":11573,"Ġraising":11574,"Ġearly":11575,"pypirc":11576,"BSD":11577,"memoized":11578,"ĠAppend":11579,"Ġ35":11580,"``)":11581,"Ġkeyfile":11582,"ĠComple":11583,"ĠUniversal":11584,"Ġexecuting":11585,"Ġlayers":11586,"lru":11587,"ĠFormatControl":11588,">.+?":11589,"Fx":11590,"PR":11591,"etags":11592,"asfreq":11593,"Ġascending":11594,"prefetch":11595,"ibilities":11596,"['_":11597,"Ġdistingu":11598,"Collect":11599,"tzname":11600,"Ġdecide":11601,"Don":11602,"lgdal":11603,"wkt":11604,"Ġcle":11605,"Ġnargs":11606,"ĠAAA":11607,"Inline":11608,"regular":11609,"netrc":11610,"Ġ2017":11611,"diagonal":11612,"Ġretrieve":11613,"SECURE":11614,"lipsis":11615,"KR":11616,"å¤":11617,"inates":11618,"(\"~":11619,"ĠLA":11620,"Direct":11621,"Ġnecessarily":11622,"warded":11623,"RATIO":11624,"93":11625,"gm":11626,"Ġpth":11627,"ges":11628,"lihood":11629,"ĠSR":11630,"ĠFollowedBy":11631,"Ġ33":11632,"Ġcollis":11633,"Ġobjs":11634,"Ġunpacker":11635,"Ġfreshness":11636,"Ġtrunc":11637,"BRE":11638,"cryptography":11639,"Ġys":11640,"ĠLatin":11641,"Incremental":11642,"within":11643,"refresh":11644,"=[],<":11645,"Ġstructured":11646,"symmetric":11647,"LookupError":11648,"^^^^^^^^":11649,"already":11650,"}</":11651,"ĠOrder":11652,"Ġlinewidth":11653,"Ġpackrat":11654,"mv":11655,"Ġtilt":11656,"Ġasn":11657,"Ġcomptype":11658,"Ġgenerally":11659,"creation":11660,"Ġidentical":11661,"Ġalphas":11662,"InstalledDistribution":11663,"Ġquestion":11664,"Ġaway":11665,"ĠPatch":11666,"scroll":11667,"============":11668,"populate":11669,"TRAS":11670,"Robot":11671,"Ġtrusted":11672,"GNU":11673,"TYP":11674,"cx":11675,"asure":11676,"aspect":11677,"ĠSV":11678,"precedence":11679,"Ġtransition":11680,"nomials":11681,"'},":11682,".)":11683,"ãĥ":11684,"quotes":11685,"osition":11686,"relate":11687,"documentation":11688,"BasicAuth":11689,"WA":11690,"olding":11691,"Ġsubsequent":11692,"ENER":11693,"Classifier":11694,"When":11695,"License":11696,"BUILD":11697,"ĠUPDATE":11698,"Ġdrive":11699,"Ġmetrics":11700,"ifted":11701,"ragged":11702,"Ġpolygon":11703,"Ġcorresponds":11704,"Ġdifferences":11705,"Ġvertices":11706,"definition":11707,"Ġreached":11708,"è®":11709,"Ġcha":11710,"odate":11711,"etter":11712,"Information":11713,"Ġoutfiles":11714,"DELETE":11715,"nearest":11716,"Ġtransformation":11717,"blem":11718,"6666":11719,"gramming":11720,"MaskedArray":11721,"fold":11722,"åĬ":11723,"Ġreject":11724,"Ġfake":11725,"outdated":11726,"against":11727,"ĠInstead":11728,"Prefix":11729,"divmod":11730,"Ġplaces":11731,"Specify":11732,"('-',":11733,"Ġ(?:":11734,"mut":11735,"orten":11736,"Ġci":11737,"Ġass":11738,"idle":11739,"}.{":11740,"Signature":11741,"Ġdeclaration":11742,"ĠRemovedInDjango":11743,"53":11744,"Ġ#################################":11745,"Ġdialog":11746,"atory":11747,"ĠBar":11748,"ĠGL":11749,"chardet":11750,"COMMENT":11751,"TU":11752,"xA":11753,"atleast":11754,"Ġdictionaries":11755,"Ġarrow":11756,"filtered":11757,"returning":11758,"Ġsearched":11759,"Host":11760,"MULTI":11761,"Side":11762,"inher":11763,"Ġensures":11764,"Ġcov":11765,"('\"":11766,"['__":11767,"NameList":11768,"opener":11769,"skipif":11770,"Ġtreebuilder":11771,"CallBack":11772,"Attr":11773,"Ġsafely":11774,"ĠContainer":11775,"Tr":11776,"Ġreraise":11777,"urlpatterns":11778,"argspec":11779,"ĠHas":11780,"Ġanywhere":11781,"theme":11782,"Checker":11783,"Ġ^<":11784,"IPython":11785,"MM":11786,"hashed":11787,"Ġhasher":11788,"ĠSets":11789,"IDENTIFIER":11790,"ĠOverrides":11791,"\"[\\":11792,"raries":11793,"determine":11794,"getframe":11795,"topt":11796,"agraph":11797,"Ġenforce":11798,"ĠInline":11799,"Ġusable":11800,"webdriver":11801,"(',')<":11802,"=':":11803,">.":11804,"LPAREN":11805,"ylabel":11806,"á´":11807,"Ġtested":11808,"Ġsecurity":11809,"Ġprepend":11810,"Ġattrib":11811,"pares":11812,"starting":11813,"strained":11814,"Ġbacktracking":11815,"compatibilities":11816,"Ġzipimport":11817,"Ġsending":11818,"âĶĥ":11819,"83":11820,"Tabs":11821,"fingerprint":11822,"Ġfar":11823,"isode":11824,"Ġvi":11825,"Ġlead":11826,"angulation":11827,"SSLGet":11828,"(\".\"):<":11829,"aligned":11830,"declar":11831,"xfail":11832,"Ġcx":11833,"Ġfreque":11834,"ĠWerkzeug":11835,"RIBU":11836,"Ġupdates":11837,"CFDictionary":11838,"Ġbelong":11839,".'),<":11840,"fake":11841,"rsplit":11842,"similar":11843,"rable":11844,"Ġ120":11845,"Ġkeyboard":11846,"ĠBig":11847,"ĠLicensed":11848,"PEG":11849,"ĠinsertBefore":11850,"Ġpropagate":11851,"Getopt":11852,"Ġholds":11853,"Ġpotentially":11854,"SKIP":11855,"COOKIE":11856,"aal":11857,"unary":11858,"fromkeys":11859,"Ġsubscri":11860,"padding":11861,"Feed":11862,"fr":11863,"ĠFill":11864,"ĠEnum":11865,"vertical":11866,"prefixlen":11867,"stribute":11868,"ĠNormalize":11869,"encoderinfo":11870,"Ġtruncate":11871,"!--":11872,"Implementation":11873,"haps":11874,"scores":11875,"Ġpow":11876,"ĠClose":11877,"Ġxx":11878,"ANUM":11879,"ĠTestCase":11880,"EXTRAS":11881,"Ġsites":11882,"OpenKey":11883,"Ġtracker":11884,"ĠBuffer":11885,"ĠAssume":11886,"}]":11887,"Îº":11888,"ĠLast":11889,"traction":11890,"VersionError":11891,"velope":11892,"ĠÐ¿":11893,".\\":11894,"ZIP":11895,"ĠAlias":11896,"hop":11897,"Ġmakefile":11898,"Ġmodes":11899,"Ġtransformed":11900,"failures":11901,"componentType":11902,"Ġassumes":11903,"Ġsilently":11904,"between":11905,"Ġtdi":11906,"Ġcircle":11907,"Ġschedule":11908,"Ġassuming":11909,"ĠAuto":11910,"ATTR":11911,"AsStr":11912,"Ġturns":11913,"Observable":11914,"ĠConfigurationError":11915,"]]))<":11916,"land":11917,"Ġmixer":11918,"ĠMore":11919,"trast":11920,"Ġ'').":11921,"ĠconvertTo":11922,"anyarray":11923,"ITY":11924,"systemId":11925,"publicId":11926,"rackets":11927,"OB":11928,"ios":11929,"|%":11930,"ĠSame":11931,"Ġ39":11932,"ĠEnd":11933,"ĠEvent":11934,"ggers":11935,"Ġlittle":11936,"TILS":11937,"MAIL":11938,"OPENSSL":11939,":]:<":11940,"Op":11941,"Patch":11942,"ZeroOrMore":11943,"seg":11944,"stacked":11945,"rome":11946,"Ġscheduler":11947,"DEC":11948,"789":11949,"Ġlinalg":11950,"Ġkept":11951,")`":11952,"IResource":11953,"extended":11954,"ErrorStop":11955,"ĠFont":11956,"wordChars":11957,"Ġnewself":11958,"Ġsyn":11959,"Ġcollected":11960,"Ġbytecode":11961,"Ġ)?<":11962,"ĠStandard":11963,"Ġconstructing":11964,"567812345678":11965,"Ġentirely":11966,"ĠexprsFound":11967,"'-":11968,"}(":11969,"}',":11970,"detail":11971,"Ġsaving":11972,"foc":11973,"Ġleaf":11974,"mock":11975,"possibly":11976,"mpler":11977,"posable":11978,"newline":11979,"Ġtransfer":11980,"skipping":11981,"Upper":11982,"ABCMeta":11983,">`_.<":11984,"Ġtranslated":11985,"riendly":11986,"each":11987,"house":11988,"intent":11989,"Indent":11990,"postrelease":11991,"White":11992,"polymorphic":11993,"ĠExtractor":11994,"WARE":11995,"_\\.":11996,"surrogate":11997,"fromroots":11998,"------------------------------------------------":11999,"processEndTag":12000,"alpn":12001,"Ġmodification":12002,"Ġspell":12003,"Ġrepetition":12004,"Ġartist":12005,">).":12006,"sence":12007,"leaf":12008,"Ġrely":12009,"Ġdeclared":12010,"Ġanimation":12011,"ĠMixin":12012,"ĠstringEnd":12013,"ĠstringStart":12014,"ĠPathMetadata":12015,"ĠDisplay":12016,"ĠSerial":12017,"Role":12018,"Ġcertificates":12019,")\",<":12020,"ĠChebyshev":12021,"ĠnewParent":12022,"Ġargv":12023,"tenance":12024,"istration":12025,"ImagePlugin":12026,"Ġcombination":12027,"ĠÎ±":12028,"serialization":12029,"Ġmultiprocessing":12030,"Ġstrides":12031,"Ġhours":12032,"Ġflake":12033,"GIN":12034,"]/":12035,"_*":12036,"silent":12037,"lined":12038,"Ġprep":12039,"byref":12040,"ĠDistutilsArg":12041,"+)\\":12042,"Ġdeclare":12043,"LANGUAGE":12044,"ĠDistutilsArgError":12045,"hints":12046,"delimited":12047,"Ġrep":12048,"Ġpsycopg":12049,"Ġsoc":12050,"ellow":12051,"ĠShow":12052,"ĠĠĠĠĠĠĠĠĠĠĠĠĠĠĠĠĠĠĠĠĠĠĠĠĠĠĠĠĠĠĠĠĠĠĠĠĠĠĠĠĠĠĠĠ":12053,"Ġellipse":12054,"ĠUSER":12055,"STATE":12056,"SSAGE":12057,"processSpaceCharacters":12058,"DOUT":12059,"originalPhase":12060,"datas":12061,"Ġmkpath":12062,"Ġpsutil":12063,"Ġslices":12064,"LINK":12065,"Ġdistinguish":12066,"800":12067,"CN":12068,"getE":12069,"ĠCar":12070,"ĠPhase":12071,"Ġmafi":12072,"csidl":12073,"shapes":12074,"Ġcorpus":12075,"coroutine":12076,"Ġtrip":12077,"threading":12078,"Ġinterfaces":12079,"Users":12080,"Http":12081,"Ġquite":12082,"Pipe":12083,"hard":12084,"Ġintent":12085,"Ġindependent":12086,"Ġmix":12087,"ĠAttribute":12088,"training":12089,"priority":12090,"ĠResult":12091,"Ġtreew":12092,"cpython":12093,"instr":12094,"ĠCSV":12095,"Ġdelim":12096,"Ġdesign":12097,"formfield":12098,"Integr":12099,"Ġsubdir":12100,"Ġrights":12101,"Ġindentation":12102,"Ġequality":12103,")',<":12104,"aco":12105,"migration":12106,"Ġsim":12107,"ceil":12108,"lapack":12109,"ĠRequirementSet":12110,"Ġdropped":12111,"MANIFEST":12112,"PLACE":12113,"Calculator":12114,"gcc":12115,"mpeg":12116,"urable":12117,"Ġ(*":12118,"()',":12119,"appendChild":12120,"checking":12121,"Ġdiscar":12122,"Ġopener":12123,"InstallationError":12124,"PoolError":12125,"Ġtrees":12126,"GAAT":12127,"Dump":12128,"æĺ":12129,"dictionary":12130,"ĠSci":12131,"ĠOpt":12132,"matmul":12133,"ĠParsedVersion":12134,"Domain":12135,"DISTRIBU":12136,"Ġsymlinks":12137,"Ġintegration":12138,"Ġsqlite":12139,"Den":12140,"Power":12141,"rupt":12142,"Ġatexit":12143,"Ġreach":12144,"Ġmysql":12145,"Ġiso":12146,"Ġuint":12147,"ĠCA":12148,"Ġatomic":12149,"STO":12150,"Ġanyway":12151,"ĠJava":12152,"10000":12153,"clipboard":12154,"ĠExtensionArray":12155,"ĠInitialize":12156,"Ġpieces":12157,"ĠExtractorError":12158,"Drop":12159,"unparse":12160,"ĠUses":12161,"ĠVAL":12162,"Ġlocate":12163,"Ġsubok":12164,"Tokenizer":12165,"Ġtried":12166,"SDK":12167,"Toolbar":12168,"Ġinterpreted":12169,"escChar":12170,"optimizer":12171,"ATCATCGAAT":12172,"ATCATCGAATGGA":12173,"Ab":12174,"dash":12175,"ĠRelease":12176,"MAC":12177,"Ġnditer":12178,"Ġbuffering":12179,"lexible":12180,"Ġ254":12181,"Ġsymlink":12182,"buttons":12183,"CountEqual":12184,"Ġ------------------------------------------------------------------<":12185,"Ġoptimizer":12186,"REQUIREMENT":12187,"PASSWORD":12188,"'\",":12189,"ope":12190,"rub":12191,"slow":12192,"ä½":12193,"Ġconsumed":12194,"ĠDST":12195,"Ġmaster":12196,"Ġmatcher":12197,"Ġcounting":12198,"ĠSQLite":12199,"ControlAdapter":12200,"ĠDisable":12201,"SETTINGS":12202,"pivot":12203,"/?":12204,"Cmd":12205,"MQ":12206,"]}<":12207,"ons":12208,"Ġ''))<":12209,"Ġrpm":12210,"Invoke":12211,"Ġpredi":12212,"Ġsubcommand":12213,"\")).":12214,"TextFor":12215,"Ġaligned":12216,"adb":12217,"Detector":12218,"Ġauthority":12219,"FILES":12220,"Ġapplications":12221,"}`":12222,"Ġffi":12223,"Ġpdf":12224,"Ġodd":12225,"concrete":12226,"Ġresample":12227,"preferred":12228,"Ġtokenize":12229,"\")))<":12230,"Ġintersection":12231,"BOOL":12232,"Ġoriginally":12233,"ĠPrint":12234,"Fi":12235,"_[":12236,"`.\"\"\"<":12237,"wkb":12238,"Ġ#----------------------------------------------------------------":12239,"Ġcontiguous":12240,"yscale":12241,"Condition":12242,"abcde":12243,"2009":12244,"Ġmentioned":12245,".]])<":12246,"Cipher":12247,"half":12248,"tight":12249,"Ġdr":12250,"ĠpackageName":12251,"Ġoperate":12252,"UTO":12253,"ĠHTTPHeaderDict":12254,"Ġlanguages":12255,"Modified":12256,"Ġoccurrence":12257,"assignment":12258,"213":12259,"__')<":12260,"Ġnotice":12261,"produ":12262,"ĠUsage":12263,"Ġsubtype":12264,"Ġdocstrings":12265,"Ġwasn":12266,"ĠOptionParser":12267,"SpecifierSet":12268,"CRET":12269,"ObjC":12270,"macosx":12271,"DISTRIBUTION":12272,"Ġrefe":12273,"Ġnest":12274,"Ġ'..":12275,"ĠPut":12276,"scal":12277,"ĠDependency":12278,"Ġhosts":12279,"Prepare":12280,"AppAuthor":12281,"Ġcombinations":12282,"Ġgotten":12283,"Ġbindings":12284,"Ġrollback":12285,"arbage":12286,"Oracle":12287,"Ġ\"@":12288,"Ġexposed":12289,"sph":12290,"mooth":12291,"ĠNUM":12292,"Ġscrap":12293,"Ġcacheable":12294,"Ġmismatch":12295,"Ġretrieved":12296,"Ġupdating":12297,"CULATOR":12298,"?:":12299,"xor":12300,"å®":12301,"Ġincre":12302,"outfiles":12303,"[\"_":12304,"facecolor":12305,"overload":12306,"variate":12307,"Ġobserv":12308,"Anchor":12309,"MANY":12310,"*\"":12311,"Area":12312,"Ġreli":12313,"Ġpjoin":12314,"nth":12315,"Ġoften":12316,"macro":12317,"Storage":12318,"shutdown":12319,"HTTPConnectionPool":12320,"TYPICAL":12321,"IABLE":12322,"\\\"":12323,"Ġtheta":12324,"adding":12325,"icious":12326,"registered":12327,"Ġexpanded":12328,"Ġsometimes":12329,"completed":12330,"ÐµÑĢ":12331,"ĠReadTimeoutError":12332,"cussion":12333,"MySQL":12334,"Ġattack":12335,"Ġ}}":12336,"team":12337,"laps":12338,"Setting":12339,"Settings":12340,"ĠSetuptools":12341,"ELLOW":12342,"('.')":12343,"Ġacceptable":12344,"Ġrotation":12345,"âĸĳâĸĳâĸĳâĸĳ":12346,"ĠVerify":12347,"Grammar":12348,"gge":12349,"ins":12350,"Ġss":12351,"Ġaccum":12352,"Ġcaches":12353,"Ġtemporarily":12354,"+)?":12355,"Ġfragments":12356,"Ġcoords":12357,"converted":12358,"HTTPSConnection":12359,"applicable":12360,"NONE":12361,"restore":12362,"anity":12363,"unless":12364,"ĠRequired":12365,"characters":12366,"schemes":12367,"executables":12368,"ticker":12369,"Ġplaylist":12370,"Ġinterpret":12371,"MID":12372,"deconstruct":12373,"ley":12374,"utcoffset":12375,"enu":12376,"Ġalter":12377,"llab":12378,"Ġ49":12379,"Ġspan":12380,"Ġdropna":12381,"cmpkey":12382,"hainMap":12383,"Ġmultiply":12384,"overrides":12385,".::<":12386,"Sys":12387,"gain":12388,"sible":12389,"Ġdeferred":12390,"Ġrate":12391,"amin":12392,"Ġproc":12393,"Ġmaker":12394,"DETE":12395,"Ġlogged":12396,"printables":12397,"Ġexecutor":12398,"Ġunpacking":12399,"DIRS":12400,"ÐµÐ¼":12401,")(\\":12402,"ming":12403,"deploy":12404,"anon":12405,"queries":12406,"paration":12407,"fileobject":12408,"Ġchart":12409,"ĠInsert":12410,"netmask":12411,"Ġsitedirs":12412,"completeRead":12413,"Ġselenium":12414,"Width":12415,"][-":12416,"xi":12417,"xFFFF":12418,"__``":12419,"els":12420,"ĠEN":12421,"ĠMask":12422,"Ġkeychain":12423,"Ġpyopenssl":12424,"Ġheading":12425,"ĠLock":12426,"IPV":12427,"ĠendTagTable":12428,"pkgs":12429,"symlinks":12430,"CallBacks":12431,",%":12432,"Sparse":12433,"dj":12434,"ging":12435,"Ġri":12436,"Ġrecv":12437,"===<":12438,"RESS":12439,"endian":12440,"Ġworkaround":12441,"Ġtimeouts":12442,"ASK":12443,"Assign":12444,"ĠAuthentication":12445,"CULATOROPTIONS":12446,"700":12447,"Alias":12448,"city":12449,"reconstruct":12450,"stroke":12451,"ĠSection":12452,"ĠMerge":12453,"Ġfinds":12454,"rtol":12455,"Ġspecifically":12456,"baseline":12457,"Ġtransforms":12458,"Driver":12459,"JK":12460,"broken":12461,"Ġblend":12462,"ĠCSS":12463,"Ġlisting":12464,"Ġneither":12465,"errSSL":12466,"logo":12467,"FOUND":12468,"ĠUnicodeDecodeError":12469,"Interactive":12470,"ĠserializeElement":12471,")``.<":12472,"OUS":12473,"gif":12474,"ini":12475,"Ġrecursion":12476,"Determine":12477,"Ġdecorated":12478,"Ġsuccessful":12479,"ĠDateTime":12480,"Ġcoef":12481,"SUFFIXES":12482,"pan":12483,"atomic":12484,"__\")<":12485,"resolution":12486,"patches":12487,"Ġattempted":12488,"RegisterMessage":12489,"ĠEasyInstall":12490,"Bool":12491,"ih":12492,"Ġcnt":12493,"Ġpacket":12494,"Ġnbytes":12495,"Ġbom":12496,"Ġbehind":12497,"keychain":12498,"ĠAb":12499,"joined":12500,"PRETER":12501,"USERS":12502,"('/')<":12503,"Markup":12504,"\"``":12505,"åĽ":12506,"Ġnv":12507,"verified":12508,"Ġdeconstruct":12509,"),]<":12510,"ryption":12511,"ĠRemote":12512,"ĠNS":12513,"Ġpreference":12514,"licies":12515,"Ġ\"<%":12516,"Ġtraditional":12517,"Ġ'_')<":12518,"ĠPROTOCOL":12519,"Ġarcname":12520,"approx":12521,"$<":12522,">`<":12523,"Must":12524,"dT":12525,"inches":12526,"Ġrewind":12527,"__)":12528,"rain":12529,"Ġcounted":12530,"Ġdesigned":12531,"amt":12532,"Ġmet":12533,"packrat":12534,"Ġverification":12535,"~~~~~~~~~~~~":12536,"Ġplaceholder":12537,"Ġtracking":12538,"CLAS":12539,"today":12540,"62":12541,"=(<":12542,"PD":12543,"Pattern":12544,"cred":12545,"middle":12546,"sb":12547,"reject":12548,"develop":12549,"illow":12550,"three":12551,"ĠtagStr":12552,"ESC":12553,"ĠNOQA":12554,"ĠcharsAsStr":12555,"Ġabspath":12556,"ĠPyPIRCCommand":12557,"Ġconstruction":12558,"Ġtelegram":12559,"Structure":12560,"SESSION":12561,"Cmp":12562,"vmin":12563,">>>":12564,"Ġvalidators":12565,"passwd":12566,"ĠJython":12567,"Ġvectors":12568,"VCInstallDir":12569,"BC":12570,"Ġchanging":12571,"hasattr":12572,"Ġ2010":12573,"SERVER":12574,"ProcessError":12575,"ĠRangeIndex":12576,"SIGN":12577,"ggered":12578,"Cert":12579,"äº":12580,"Ġpasses":12581,"Ġconj":12582,"ĠFree":12583,"ĠAxis":12584,"Ġyanked":12585,"Ġjac":12586,"ĠConverting":12587,"Ġspinner":12588,"Ġportion":12589,"Interrupt":12590,"ĠDataLoss":12591,"solid":12592,"Hashes":12593,"inHead":12594,"stor":12595,"Ġecho":12596,"sslobj":12597,"elap":12598,"Ġunescape":12599,"spaceCharacters":12600,"rcdata":12601,"ĠprocessSpaceCharacters":12602,"Ġpolynomials":12603,"ĠGEOSGeometry":12604,"ActiveFormattingElements":12605,"ĠDataLossWarning":12606,"]_":12607,"ndo":12608,"Ġshown":12609,"Ġ2006":12610,"!\".":12611,"Email":12612,"sses":12613,"Ġamp":12614,"Ġdash":12615,"Ġconfirm":12616,"Ġgt":12617,"Ġjo":12618,"behavior":12619,"Distributions":12620,"LIMIT":12621,"Ġdatabases":12622,"ĠApply":12623,"Support":12624,"Evaluator":12625,"Hi":12626,"Pixel":12627,"World":12628,"\\']":12629,"mitive":12630,"Ñĩ":12631,"logs":12632,"ram":12633,"ĠEpoch":12634,"ĠWRITE":12635,"Ġsignificant":12636,"(?:[^":12637,"elapsed":12638,"].<":12639,"è¡":12640,"processed":12641,"gnor":12642,"........":12643,"Sandbox":12644,"immutable":12645,"along":12646,"--------<":12647,"ĠIde":12648,"together":12649,"ĠNT":12650,"Keyboard":12651,"rva":12652,"crypto":12653,"Ġmarked":12654,"Ġbold":12655,"Ġisdir":12656,"Ġdependent":12657,"Ġstores":12658,"ALLED":12659,"news":12660,"Fields":12661,"Ġwrapping":12662,"('.',":12663,"Ġcustomize":12664,"Perform":12665,"Ġobtained":12666,"Ġinterested":12667,"TemporaryFile":12668,"*=\\":12669,"GDAL":12670,"hdf":12671,"ongs":12672,"Ġec":12673,"raft":12674,"Ġ301":12675,"Ġcluster":12676,"Ġpreprocess":12677,"actor":12678,"Ġobs":12679,"Ġ':'":12680,"./":12681,"rod":12682,"Ġproj":12683,"ĠReset":12684,"Ġxf":12685,"ĠBASE":12686,"Ġappdirs":12687,"aks":12688,"Ġ2001":12689,"POOL":12690,"Ġipaddress":12691,"ForeignKey":12692,"Ġalgos":12693,"WID":12694,"ktop":12695,"æł":12696,"Ġinfix":12697,"othesis":12698,"Ġrllab":12699,"Ġsens":12700,"tryParse":12701,"ĠTreeWalker":12702,"ĠPrivate":12703,"ĠCalculate":12704,"CalculatorOptions":12705,"sli":12706,"iness":12707,"Ġtransport":12708,"asString":12709,"artic":12710,"Export":12711,"Ġaxs":12712,"Parsing":12713,"Ġcurve":12714,"ENTRY":12715,"Ġ'<%":12716,"ĠAlready":12717,"MOVE":12718,"Ġcompletely":12719,"Ġdots":12720,"blacklist":12721,"ĠDownloadProgress":12722,"Filters":12723,"Ġtwice":12724,"*(\\":12725,"BUND":12726,"EMP":12727,"Let":12728,"ade":12729,"defer":12730,"Ġinference":12731,"Ġbb":12732,"Ġways":12733,"Ġanaly":12734,"Ġanalog":12735,"ERY":12736,"possible":12737,"parseAction":12738,"ĠRatio":12739,"Ġender":12740,"]))":12741,"maging":12742,"Ġeditables":12743,"Software":12744,"Ġ\"))<":12745,"stricted":12746,"ĠForeign":12747,"ĠButton":12748,"ĠGNUTYPE":12749,"Ġnose":12750,"keepdims":12751,"tarball":12752,"cellaneous":12753,"Ġdescending":12754,"Sl":12755,"zoom":12756,"Ġflow":12757,"Ġ'>":12758,"ortho":12759,"ĠIDE":12760,"ĠDummy":12761,"Ġunspecified":12762,"mbcs":12763,"Provide":12764,"tablename":12765,"visual":12766,"(%(":12767,"assertRaisesRegex":12768,"Geom":12769,"HANDLE":12770,"ĠMAXSIZE":12771,",),<":12772,"pkey":12773,"trigger":12774,"\":\"":12775,"ARD":12776,"))*":12777,"ABI":12778,"ĠoriginalTextFor":12779,"Ġsessions":12780,"Ġswig":12781,"levation":12782,"CI":12783,"Tz":12784,"uck":12785,"Ġsin":12786,"ĠEvaluate":12787,"ĠVari":12788,"CHAT":12789,"Ġtherefore":12790,"Ġshapes":12791,"PyPI":12792,"ĠIPV":12793,"Ġdistros":12794,"Ġuppercase":12795,"Execute":12796,"ABCDEF":12797,"windll":12798,"`:<":12799,"Ðķ":12800,"Ġindented":12801,"Ġ[*":12802,"valued":12803,"mbo":12804,"subscribe":12805,"longdouble":12806,"phanumeric":12807,"NECT":12808,"NormalizedName":12809,"CM":12810,"Spe":12811,"Ġrid":12812,"arith":12813,"Ġreinit":12814,"Ġdom":12815,"Ġ\"&":12816,"imated":12817,"Ġprinted":12818,"Ġjnp":12819,"suggest":12820,"finditer":12821,"[^>]+":12822,"'(\\":12823,"Face":12824,"hot":12825,"iinfo":12826,"job":12827,"trun":12828,"Ġ:]":12829,"protected":12830,"ARM":12831,"Component":12832,"ÐµÐ½":12833,"Utilities":12834,"Private":12835,"horizontal":12836,"Ġgs":12837,"letes":12838,"unsigned":12839,"Ġjs":12840,"Ġoperand":12841,"Ġverifies":12842,"executor":12843,"Ġ'{{":12844,"ĠFeed":12845,"ĠCharSetProber":12846,"Ġexplanation":12847,"Embed":12848,"Ġurlencode":12849,"reed":12850,"Ġndi":12851,"deferred":12852,"ĠDB":12853,"ĠUCS":12854,"REL":12855,"Ġworkers":12856,"ĠPyPy":12857,"ĠVersionConflict":12858,"Ġqt":12859,"OSError":12860,"ĠstartTagHtml":12861,"NoValue":12862,"ĠTextFile":12863,"msvccompiler":12864,"editables":12865,"Ġsigma":12866,":')<":12867,"tarea":12868,"Ġattached":12869,"striction":12870,"Ġpointing":12871,"convolve":12872,"Ġmanagement":12873,"Ġtransparent":12874,"?://":12875,"FS":12876,"OO":12877,"oked":12878,"yo":12879,"Ġsemant":12880,"Ġhasn":12881,"Ġsupporting":12882,"Ġboard":12883,"\\.?":12884,"ĠPrepare":12885,"trieve":12886,"WE":12887,"stable":12888,"ĠIMP":12889,"curr":12890,"NamedTypes":12891,"61":12892,"geometric":12893,"preference":12894,"bufsize":12895,"('/')":12896,"ARCHIVE":12897,"[~":12898,"reraise":12899,"Ġflip":12900,"ĠBaseException":12901,"ĠAdmin":12902,"STATUS":12903,"Ġ\"`":12904,"Ġ\"|":12905,"Ġ[%":12906,"Ġcolour":12907,"ĠConstraint":12908,"suc":12909,"matcher":12910,"Separ":12911,"Mapper":12912,"ĠCFIndex":12913,"fftn":12914,"RangeField":12915,"ĠQtCore":12916,"Impossible":12917,"[...]":12918,"!\"<":12919,"Bbox":12920,"ddof":12921,"fwd":12922,"lg":12923,"yste":12924,"Ġwritable":12925,"Ġmixin":12926,"Ġchecksum":12927,"dog":12928,"Ġ\"\").":12929,"Ġerrcheck":12930,"Ġstdin":12931,"structed":12932,"ĠOverflowError":12933,"ĠNaNs":12934,"hiddenimports":12935,"OrderedSet":12936,"inp":12937,"ĠOF":12938,"ĠHost":12939,"pythonpath":12940,")))":12941,"+)*":12942,"ĠSubclasses":12943,"ĠINST":12944,"Ġflattened":12945,"Ġcircuit":12946,"aul":12947,"hits":12948,"kill":12949,"Î¸":12950,"lign":12951,"Ġ({}":12952,"Ġcos":12953,"finders":12954,"photo":12955,"EXIST":12956,"ffic":12957,"cookiejar":12958,"Ġcleaned":12959,"Edit":12960,"Ġndimage":12961,"sem":12962,"inx":12963,"(\":\",":12964,"Ġymax":12965,"filesyste":12966,"decoded":12967,"Ġfiltering":12968,"Ġsqltypes":12969,"implicit":12970,"Ð¸Ð":12971,"Ġlimited":12972,"means":12973,"hem":12974,"getfilesyste":12975,"ellipse":12976,"ĠSNI":12977,"urlsplit":12978,"Ġxmax":12979,"ĠUrl":12980,"Ġunix":12981,"RESET":12982,"Ġcompared":12983,"ContextAnalysis":12984,"ICE":12985,"âĸĦ":12986,"Ġreceiver":12987,"ĠSocketError":12988,"getfilesystemen":12989,"LD":12990,"argest":12991,"coeff":12992,"umath":12993,"notify":12994,"Ġdiscussion":12995,"reful":12996,"overwrite":12997,"multiindex":12998,"Ġ\",\".":12999,"Ġ------------------------------------------------":13000,")-(?":13001,"STATIC":13002,"ResolutionError":13003,"CLASSES":13004,"getfilesystemencoding":13005,"(\"\",":13006,"Flags":13007,"ga":13008,"lims":13009,"ĠWKT":13010,"builds":13011,"Ġbackport":13012,"ogr":13013,"Ġconverters":13014,"GroupProber":13015,"ĠLegend":13016,"ĠQuerySet":13017,"Ġ'âĹ":13018,"Ġvertical":13019,"illiseconds":13020,"GER":13021,"_(<":13022,"ben":13023,"cxx":13024,"Ġrepla":13025,"ilon":13026,"ĠTk":13027,"Ġ503":13028,"ncies":13029,"gnu":13030,"Ġboundaries":13031,"Ġreporting":13032,"Ġindicated":13033,"Ġcerts":13034,"+\\":13035,"GMENT":13036,"Take":13037,"ĠWHEEL":13038,"creating":13039,"Ġaccessor":13040,"Ġshows":13041,"Ġrefers":13042,"racket":13043,"TAG":13044,"REQUEST":13045,"UNICODE":13046,"truncate":13047,"Folder":13048,"Ste":13049,"nv":13050,"uc":13051,"included":13052,"reuse":13053,"ced":13054,"stemp":13055,"doctest":13056,"Ġsizeof":13057,"FFER":13058,"bounding":13059,"ĠNamed":13060,"Ġturned":13061,"Ġeffects":13062,"dc":13063,"rency":13064,"Ġcmap":13065,"(\"+":13066,"Ġconcatenate":13067,"Ġcurs":13068,"ĠtearDown":13069,"Ġformfield":13070,"Ġplan":13071,"HeaderError":13072,"Than":13073,"propagate":13074,"ĠFeature":13075,"ĠHeaders":13076,"XYZ":13077,"Ġsockets":13078,"Bo":13079,"Ġreload":13080,"Ġsur":13081,"asi":13082,"Ġwants":13083,"radi":13084,"Ġ\"\"\",<":13085,"consumed":13086,"ĠSc":13087,"ĠPunctuation":13088,"cay":13089,"There":13090,"allows":13091,"Ġleftmost":13092,"changelog":13093,"resolved":13094,"Ġ253":13095,"Ġimplicitly":13096,"Ġeasily":13097,"affine":13098,"hr":13099,"Ġtunnel":13100,"alphabet":13101,"ingSet":13102,"unescape":13103,"ncaps":13104,"Ġimpro":13105,"ConsoleOutput":13106,"semble":13107,"91":13108,"Ciphers":13109,"Year":13110,"tm":13111,"Ġff":13112,"Ġsun":13113,"listener":13114,"ĠRef":13115,"ĠUt":13116,"additional":13117,"never":13118,"COMMA":13119,"Ġpurpose":13120,"tist":13121,"urlap":13122,"Ġscaled":13123,"Ġbc":13124,"ĠFancy":13125,"predict":13126,"ĠMost":13127,"instances":13128,"Ġoverflow":13129,"Capture":13130,"Ġmidi":13131,"attach":13132,"Ġnaming":13133,"Ġ'**":13134,"Ġ\";":13135,"Ġum":13136,"sizeof":13137,"Ġlauncher":13138,"marks":13139,"Ġseems":13140,"Ġrawmode":13141,"WindowsSdkDir":13142,"quential":13143,"822":13144,"lings":13145,"rant":13146,"ĠLE":13147,"indexing":13148,"SecCertificate":13149,"factoring":13150,"Ġnumerical":13151,"??":13152,"Ġelapsed":13153,"ĠImaging":13154,"()\"\"\"<":13155,"Ġste":13156,"Ġymin":13157,"ĠMongo":13158,"STDOUT":13159,"insertComment":13160,"ĠStack":13161,"ĠSTART":13162,"Utility":13163,"vary":13164,"erance":13165,"Ġpid":13166,"elf":13167,"Ġhdr":13168,"assertNot":13169,"Ġunsafe":13170,"Ġcheckpoint":13171,"scriptData":13172,"ĠĠĠĠĠĠĠĠĠĠĠĠĠĠĠĠĠĠĠĠĠĠĠĠĠĠĠĠĠĠĠĠĠĠĠĠĠĠĠĠĠĠĠĠĠĠĠ":13173,"ĠinnerHTML":13174,"Ġexpired":13175,"'''":13176,"ĠBackwards":13177,"Counter":13178,"ka":13179,"rst":13180,"rogram":13181,"Ġisfile":13182,"managers":13183,"Ġeventually":13184,"nav":13185,"Ġpickled":13186,"Fore":13187,"rfind":13188,"Ġnm":13189,"Ġ####":13190,"Ġ(['":13191,"Ġfileids":13192,"ĠOf":13193,"ĠReference":13194,"Ġsuppressed":13195,"cident":13196,"DOT":13197,"QUERY":13198,"separator":13199,"âľĵ":13200,"-]+)":13201,"pfx":13202,"åŃ":13203,"Ġ29":13204,"Ġmaxlen":13205,"ĠPyQt":13206,"cleaned":13207,"allest":13208,"Ġmoves":13209,"Ġrespectively":13210,"41":13211,"rational":13212,"orious":13213,"Ġnom":13214,"Ġhello":13215,"reflect":13216,"openapi":13217,"Ġmoment":13218,"binaries":13219,"Notation":13220,"CFTypeRef":13221,"Ġnanoseconds":13222,"Ġdri":13223,"Ġhierarchy":13224,"ĠCor":13225,"Ġalgorithms":13226,"Ġsubst":13227,"Coord":13228,"masks":13229,"DOCTYPE":13230,"ĠÎ¼":13231,"ĠArrayLike":13232,"ĠSpecify":13233,"ĠShort":13234,"Ġbecomes":13235,"Escapes":13236,"zlib":13237,"Ġtile":13238,":</":13239,"Ġremo":13240,"Ġdashes":13241,"subdtype":13242,"')\")<":13243,"region":13244,"Ġ72":13245,"mismatch":13246,"Dirs":13247,"Ġconnecting":13248,"different":13249,"Ġ\">\":":13250,"TRANS":13251,"WIDTH":13252,"mbolic":13253,"idi":13254,"punctuation":13255,"__}":13256,"Ġmm":13257,"strong":13258,"ader":13259,"rectangle":13260,"Ġnonc":13261,"regexp":13262,"(\".\",":13263,"Normalize":13264,"Ġquality":13265,"microseconds":13266,"Ġhidex":13267,"CMSError":13268,"æį":13269,"abot":13270,"ĠSY":13271,"Ġscroll":13272,"Ġallowing":13273,"ĠJoin":13274,"Ġgenshi":13275,"Palette":13276,"ĠNetwork":13277,"lut":13278,"Ġ~~~~~~~~~~~~~~~~":13279,"Ġamt":13280,"radd":13281,"abling":13282,"ĠCount":13283,"ĠOur":13284,"Ġcertfile":13285,"Ġjoining":13286,"Ġxmlcharref":13287,"dynamic":13288,"ĠCIRCLE":13289,"Ignor":13290,"ears":13291,"oms":13292,"ĠKEY":13293,"reString":13294,"Ġival":13295,"asList":13296,"Ġ';":13297,"lided":13298,"Ġlot":13299,"ĠEither":13300,"parseElement":13301,"ĠParameter":13302,"LEAN":13303,"TIVE":13304,"streamlined":13305,"ĠretString":13306,"skipIgnor":13307,"PreParse":13308,"WhitespaceEscapes":13309,"Ġpropag":13310,">\"\"\"(":13311,"Feature":13312,"ĠleaveWhitespace":13313,"escQuote":13314,"BinaryIO":13315,"CaselessLiteral":13316,"ĠCaselessLiteral":13317,"StdHandle":13318,"skipIgnorables":13319,"Icon":13320,"Ġâ":13321,"Ġtls":13322,"Ġcla":13323,"iblings":13324,"distinfo":13325,"curve":13326,"ENG":13327,"Ġbytestring":13328,"ĠBLOCKSIZE":13329,"btn":13330,"alter":13331,"iding":13332,"Ġloops":13333,"formdata":13334,"Ġanalysis":13335,"Ġgd":13336,"ĠLoose":13337,"ĠBest":13338,"usable":13339,"modal":13340,"ĠVersionControl":13341,"Ġclipboard":13342,"ĠIndic":13343,"rem":13344,"ctan":13345,"Ġwatch":13346,"rape":13347,"cler":13348,"essel":13349,"Ġhorizontal":13350,"()``.<":13351,"isters":13352,"Ġprodu":13353,"ĠMany":13354,"Ġlat":13355,"Ġunbound":13356,"ĠGit":13357,"STAMP":13358,"building":13359,"Ġ\"<=\":":13360,"grams":13361,"gradient":13362,"ROP":13363,"ĠCommandArgs":13364,"ĠApplication":13365,"Ġfreeze":13366,"Obsoletes":13367,"Ġ\">=\":":13368,"ĠMatplotlib":13369,"Ġ\"!=\":":13370,"Ġtreewalker":13371,"SOR":13372,"UAL":13373,"finfo":13374,"lations":13375,"microsoft":13376,"world":13377,"xm":13378,"Ġë":13379,"chr":13380,"ises":13381,"Ġresize":13382,"Ġmoving":13383,"projects":13384,"Generates":13385,"ĠLooseVersion":13386,">..":13387,"Bind":13388,"implement":13389,"xied":13390,"Ġcipher":13391,"Ġciphers":13392,"lope":13393,"``\"\"\"<":13394,"ĠWindow":13395,"subcommands":13396,"ickle":13397,"Ġ70":13398,"gines":13399,"2002":13400,"canonicalize":13401,"1252":13402,"Ġ\"==\":":13403,"/><":13404,"rr":13405,"deprecate":13406,"role":13407,"Ġgrp":13408,"acquire":13409,"umprod":13410,"Ġcaused":13411,"555":13412,"Ġgroupby":13413,"BUFFER":13414,"autoescape":13415,"clauses":13416,"ĠABI":13417,"Ġmkdir":13418,"Corpus":13419,"(\\.":13420,"Visual":13421,"}\",":13422,"Ïĩ":13423,"atom":13424,"ĠINT":13425,"ariadb":13426,"VersionString":13427,"Ġworker":13428,"Candidates":13429,"Ġsignals":13430,"Ġgreenlet":13431,"ambiguous":13432,"#:":13433,"RAN":13434,"bid":13435,"Ġ\"(\"":13436,"ĠStrip":13437,"()'.<":13438,"Ġsubplot":13439,"ĠConv":13440,"ĠConverter":13441,"Ġoverriding":13442,"tempname":13443,"Ġattrname":13444,"ĠUnicodeError":13445,"Ġcontrols":13446,"Ġ12345678":13447,"686":13448,"DLE":13449,"UTILS":13450,"eggs":13451,"yond":13452,"Ġ):":13453,"Ġaa":13454,"Ġ'!":13455,"unstack":13456,"Ġexhaust":13457,"haz":13458,"colorkey":13459,"345":13460,"capital":13461,"73":13462,"Available":13463,"umented":13464,"ystick":13465,"Ġfront":13466,"Ġfolders":13467,"ntity":13468,"raster":13469,"Ġuname":13470,"iali":13471,"assertSelect":13472,"Ġ600":13473,"Ġwrappers":13474,"General":13475,"SUPPORT":13476,"REQUIRED":13477,"%%":13478,"PRI":13479,"lk":13480,"pres":13481,"ĠÑģ":13482,"Ġsolver":13483,"fromtxt":13484,"Ġpypy":13485,"caches":13486,"wav":13487,"])),":13488,"Prepares":13489,"Ġ'*.":13490,"ArgumentParser":13491,"ĠJavaScript":13492,"âľĵâľĵ":13493,"DWORD":13494,"History":13495,"ODS":13496,"]]])<":13497,"welcome":13498,"('*":13499,"ĠFFT":13500,"External":13501,"(((":13502,"~~~<":13503,"ĠKeyboard":13504,"Transaction":13505,"Ġpeople":13506,"abcdefgh":13507,"çĶ¨":13508,"BIG":13509,"Lim":13510,"clic":13511,"Ġtup":13512,"Ġ(.":13513,"ĠTurn":13514,"ĠIE":13515,"ĠUUID":13516,"ĠBackend":13517,"ĠParam":13518,"ToWin":13519,"Ġviewkeys":13520,"disconnect":13521,"Ġessent":13522,"cern":13523,"Updates":13524,"Ġ252":13525,"dimensions":13526,"ĠInitialise":13527,"\"(\\":13528,"Two":13529,"jobs":13530,"Ġeager":13531,"Ġwrites":13532,"()[:":13533,"Ġsetter":13534,"ĠBound":13535,"Ġadv":13536,"ĠRoot":13537,"dbl":13538,"causes":13539,"relu":13540,"Ġbufsize":13541,"Ġtriggered":13542,"Manifest":13543,"Ġobservable":13544,":`~.":13545,"Ġactivated":13546,"ĠMarkup":13547,"AAB":13548,"EMAIL":13549,"ltro":13550,"schedule":13551,"integers":13552,"Ġsized":13553,"Ġsrange":13554,"ĠEmail":13555,"iframe":13556,"distmap":13557,"VersionConflict":13558,"ParseNext":13559,"selectable":13560,"identChars":13561,"ĠAppDirs":13562,"Ġgots":13563,"(\"'%":13564,"ĠTreeBuilder":13565,"DETECT":13566,"ltroid":13567,"(\"\")<":13568,"*([":13569,"Flask":13570,"nr":13571,"noscript":13572,"reme":13573,"ilence":13574,"Ġrvalue":13575,"Ġfileno":13576,"Ġmenu":13577,"ĠMIN":13578,"plays":13579,"DEV":13580,"necess":13581,"ĠDelete":13582,"stacklevel":13583,"IPv":13584,"forcelist":13585,"PLAT":13586,"Ġpoll":13587,"Ġestablished":13588,"+(\\.\\":13589,"hazmat":13590,")[:":13591,"/\"<":13592,"Fixed":13593,"âł":13594,"åº":13595,"dialog":13596,"issubclass":13597,"Ġdetector":13598,"REPLACE":13599,"Frameworks":13600,"ĠĠĠĠĠĠĠĠĠĠĠĠĠĠĠĠĠĠĠĠĠĠĠĠĠĠĠĠĠĠĠĠĠĠĠĠĠĠĠĠĠĠĠ":13601,"FFT":13602,"hashable":13603,"autoreset":13604,"ALPH":13605,"ĠProxyScheme":13606,"DatetimeIndex":13607,"AutoField":13608,"ĠLayer":13609,"Ġbias":13610,"ired":13611,"mf":13612,"zz":13613,"ĠDDL":13614,"ĠInsecure":13615,"Ġsubplots":13616,"ĠDirectory":13617,"UNPACK":13618,"boxplot":13619,"Ġdocuments":13620,"ĠMultiByteCharSetProber":13621,"BLACKLIST":13622,"ENGINE":13623,"LC":13624,"ock":13625,"Î»":13626,"Ġmx":13627,"assoc":13628,"Ġvocab":13629,"ĠFunc":13630,"spital":13631,"Ġloaders":13632,"Quotes":13633,"ĠWARNING":13634,"ãģĪãģĪ":13635,">-<":13636,"CG":13637,"Mouse":13638,"ZONE":13639,"cipher":13640,"pag":13641,"Ġflask":13642,"itz":13643,"ascript":13644,"(';":13645,"######<":13646,"Look":13647,"Ġgrouping":13648,"nowled":13649,"urious":13650,"Left":13651,"marize":13652,"AUTO":13653,"ders":13654,"æĪ":13655,"Ġtex":13656,"Ġsrs":13657,"Ġscores":13658,"ĠBit":13659,"ATAB":13660,"\"]).":13661,"ToOne":13662,"ugate":13663,"Ġchosen":13664,"Ġvec":13665,"ĠTemporary":13666,"ĠStatic":13667,"Letters":13668,"CLASS":13669,"fg":13670,"sun":13671,"Ġutc":13672,"lood":13673,"-------<":13674,"ĠHA":13675,"Ġcomputation":13676,"MEDI":13677,"ĠCFArray":13678,"ATABASE":13679,"llegal":13680,"nos":13681,"inverse":13682,"lified":13683,"ĠChainMap":13684,"Ġprocesses":13685,"Ġhaven":13686,"Ġdatetimes":13687,"worker":13688,"ghi":13689,"Ġannotation":13690,"ĠFunctions":13691,"Matrix":13692,"passes":13693,"ãĢ":13694,"secut":13695,"selfClosing":13696,"animation":13697,"Ġincoming":13698,"Ġisolation":13699,"upted":13700,"('{":13701,"program":13702,"ĠRule":13703,"structure":13704,"Ġcolormap":13705,"ĠURLFetch":13706,"tenacity":13707,"CreateWith":13708,"xxxxxxxx":13709,"RandomState":13710,"eig":13711,"ìĿ":13712,"Ġ),":13713,"detach":13714,"chapter":13715,"choose":13716,"trl":13717,"Ġstick":13718,"viation":13719,"Ġxmin":13720,"accur":13721,"Ġobjective":13722,"inese":13723,"paste":13724,"MESSAGE":13725,"statemachine":13726,"ĠCallableOperator":13727,"mkstemp":13728,"ĠLinkError":13729,"cuts":13730,"ĠCONFIG":13731,"unsetcolor":13732,"ĠInfinityType":13733,"ĠNegativeInfinityType":13734,"ãģĦãģĦ":13735,"\"><":13736,"Sheet":13737,"Strict":13738,"wap":13739,"Ġinsecure":13740,"__.<":13741,"Ġ180":13742,"ĠFic":13743,"ĠWKB":13744,"codingstatemachine":13745,"Login":13746,"avascript":13747,"ASN":13748,"nonymous":13749,"certifi":13750,"Ġspecifications":13751,"FuncFactory":13752,"Ġquotation":13753,"ĠSignal":13754,"Flag":13755,"kubernetes":13756,"nltk":13757,"wide":13758,"ãĤ":13759,"ĠâĢ":13760,"arithmetic":13761,"Ġbus":13762,"rects":13763,"Ġbrowsers":13764,"nrows":13765,"rpartition":13766,"ught":13767,"Ġpools":13768,"namelist":13769,"olate":13770,"Ġconsume":13771,"Ġ%%":13772,"Ġlisten":13773,"ARGET":13774,"Ġjinja":13775,"ivot":13776,"RequestError":13777,"Ġstyles":13778,"MultiByteCharSetProber":13779,"Constants":13780,"Î¿Ïħ":13781,"(.*)\")<":13782,"RT":13783,"_))<":13784,"chal":13785,"Ġyy":13786,"Ġpreprocessor":13787,"SECRET":13788,"ĠForce":13789,"Ġ2009":13790,"={<":13791,"StreamHandler":13792,"ĠApple":13793,"Ġshorter":13794,"Ġcomparisons":13795,"Ġplugins":13796,"recarray":13797,"Maintenance":13798,"MaintenanceForm":13799,"AP":13800,"Blue":13801,"NN":13802,"rum":13803,"readed":13804,"vectors":13805,"setsurface":13806,"ĠFast":13807,"ĠtestSerializer":13808,"colorbar":13809,"itlets":13810,"Ġtmploc":13811,"ĠPreparedRequest":13812,"secondary":13813,"Ġtrimmed":13814,"unsetsurface":13815,"Ġmechanism":13816,"980":13817,"ained":13818,"follow":13819,"ĠFred":13820,"Ġymd":13821,"ĠEXT":13822,"ĠLag":13823,"Ġdoct":13824,"mitian":13825,"finition":13826,"ĠMaximum":13827,"Matched":13828,"ProgramFiles":13829,"FLOAT":13830,"border":13831,"fetched":13832,"gray":13833,"Ġnx":13834,"exports":13835,"Ġanon":13836,"ĠNL":13837,"DED":13838,"Ġshutdown":13839,"Ġ'.',":13840,"mods":13841,"ĠÐ²":13842,"nulls":13843,"CALCULATOROPTIONS":13844,"Ġtranspose":13845,"\"#":13846,"arding":13847,"Ġdead":13848,"singular":13849,"STY":13850,"ncing":13851,"ĠCookie":13852,"Ġ\"<\":":13853,"OrSeries":13854,"letion":13855,"ighted":13856,"Ġlookahead":13857,"Ġpreparer":13858,"ĠEXTENSION":13859,"ĠWrapper":13860,"arshal":13861,",(":13862,"Got":13863,"lxml":13864,"scheduler":13865,"aping":13866,"Ġoutgoing":13867,"loadtxt":13868,"Based":13869,"Ġminimal":13870,"ModuleType":13871,"handles":13872,"ObjectIdentifier":13873,"autos":13874,"Ġexpire":13875,"ĠDecorator":13876,"Fix":13877,"ctrl":13878,"Ġsre":13879,"Ġmim":13880,"getroot":13881,"ĠMO":13882,"ĠLet":13883,"defaultNamespace":13884,"ĠcharStack":13885,"Ġ\"<{":13886,"ParseException":13887,"ĠinfosetFilter":13888,"GetStdHandle":13889,"Ġsavepoint":13890,"ignoreEndTag":13891,"([[[":13892,"Ġobserved":13893,"SecIdentity":13894,"Ġsends":13895,"rotation":13896,"Ġcloser":13897,"ÐķÐ":13898,"assertSelects":13899,"FREQ":13900,"UCS":13901,"fget":13902,"tqdm":13903,"Ã¡":13904,"Ġfg":13905,"Ġfid":13906,"Ġlp":13907,"psy":13908,"META":13909,"LEGACY":13910,"shuffle":13911,"Ġprocessor":13912,"Ġsignatures":13913,"2006":13914,"Spline":13915,"Ġdecorate":13916,"ceeds":13917,"Ġexam":13918,"allery":13919,"~~<":13920,"Ġbreaks":13921,"Manage":13922,"Ġshowing":13923,"Headers":13924,"Ġradi":13925,"ĠSerializer":13926,"HTTPSHandler":13927,"ĠUnpacker":13928,"secutive":13929,"STYLE":13930,"LIC":13931,"dta":13932,"Ġasked":13933,"pathlib":13934,"Ġ`-":13935,"umpys":13936,"Ġcareful":13937,"324":13938,"ĠcurrentNode":13939,"Ġexpansion":13940,"\\.(\\":13941,"SecKeychain":13942,"(\"-\",":13943,"ĠPolygon":13944,"Ġunderscores":13945,")['":13946,"302":13947,"600":13948,"Frequency":13949,"]\"\"\"<":13950,"Ġslight":13951,"ots":13952,"islink":13953,"ĠScheme":13954,"via":13955,"Ġseg":13956,"Ġ303":13957,"([(\"":13958,"Ġlab":13959,"':'":13960,"grouping":13961,"Ġsucc":13962,"Ġ\"%(":13963,"WheelCache":13964,"conflicting":13965,"ĠGraphQLField":13966,"Ġconvention":13967,"RF":13968,"Ġnc":13969,"Ġ'='":13970,"setcolor":13971,"(\"#":13972,"Ġdetail":13973,"qualname":13974,"backtrack":13975,"Dependency":13976,"lowercase":13977,"Ġbackslash":13978,"popitem":13979,"foobar":13980,"Ġqueries":13981,"prime":13982,"ĠChat":13983,"Ġgeo":13984,"Ġ~/.":13985,"merged":13986,"sctype":13987,"uest":13988,"todense":13989,"Ġstrong":13990,"apshot":13991,"preload":13992,"collation":13993,"ĠUnp":13994,"located":13995,"ĠBU":13996,"Dev":13997,"transition":13998,"projection":13999,"âĢĿ":14000,"Ġautomatic":14001,"Ġserialization":14002,"ĠUnsupportedVersionError":14003,"Suite":14004,"CoreFoundation":14005,"descent":14006,"README":14007,"PYTHONPATH":14008,"CLU":14009,"Need":14010,"Mismatch":14011,"ParsingError":14012,"abcdefghij":14013,"82":14014,"WITH":14015,"sax":14016,"leading":14017,"Ġem":14018,"ndar":14019,"(\"==":14020,"Ġcoerc":14021,"Reset":14022,"ĠMain":14023,"defaultValue":14024,"returnString":14025,"monitor":14026,"Ġ'-',":14027,"Ġcorrespond":14028,"takewhile":14029,"FillConsoleOutput":14030,"*$\",":14031,".,<":14032,">~~~~~~~~~~~~~~~~":14033,"Clear":14034,"Dummy":14035,"PG":14036,"bmp":14037,"atol":14038,"---":14039,"yped":14040,"fromstring":14041,"()``,":14042,"ĠVC":14043,"ftp":14044,"Ġoverlapping":14045,"=[<":14046,"toplevel":14047,"Ġclients":14048,"Ġreflection":14049,"ATIVE":14050,"klm":14051,"---------------------------------------------------------<":14052,"(.":14053,"alphanums":14054,"Ġbba":14055,"ĠTH":14056,"ĠTEXT":14057,"Ġ[])":14058,"ĠAgg":14059,"Ġgid":14060,"spline":14061,"initCharsOrig":14062,"Ġthiscol":14063,"ĠMultiple":14064,"ĠUNI":14065,"Ġnewloc":14066,"ĠIntegr":14067,"opAssoc":14068,"TEGER":14069,"htmlEntity":14070,"ĠignoreExpr":14071,"ĠnamedItems":14072,"Ġskipresult":14073,"CharsNotIn":14074,"Ġrestype":14075,"joint":14076,"ALIZE":14077,"whiteChars":14078,"ĠPassword":14079,"DistutilsPlatformError":14080,"GrammarException":14081,"deployment":14082,"asStringList":14083,"SlashComment":14084,"Ġdoctag":14085,"htmlEntityMap":14086,"SPACE":14087,"`\"\"\"<":14088,"aver":14089,"cffi":14090,"xfe":14091,"å¼":14092,"memo":14093,"Ġopp":14094,"Ġ101":14095,"Ġcontroller":14096,"ĠSDL":14097,"Ġvstring":14098,"Ġ:])<":14099,"spacing":14100,"Ġservers":14101,"Decode":14102,"):]<":14103,"ivity":14104,"Ġquit":14105,"]+\\":14106,"Ġsearching":14107,"FormatError":14108,"coordinates":14109,"IMAL":14110,"Dest":14111,"JANG":14112,"Lower":14113,"ampling":14114,"brid":14115,"pu":14116,"street":14117,"later":14118,"basedir":14119,"DEN":14120,"newaxis":14121,"markdown":14122,"syntax":14123,"\\\\[":14124,"EXCEP":14125,"Ġbyteorder":14126,"777":14127,"Ġ'|'":14128,"Ġannotations":14129,"Ġsqrt":14130,"PipError":14131,")}\"<":14132,"71":14133,"WKT":14134,"fb":14135,"nargs":14136,"Ġai":14137,"__),":14138,"Ġstrategies":14139,"Ġ::<":14140,"pyo":14141,"Ġchmod":14142,"CHINE":14143,"ENABLE":14144,"Ġseem":14145,"Ġdirty":14146,"Ġcompleted":14147,"factories":14148,"CONST":14149,"Iterate":14150,"ĠAppConfig":14151,"ĠMove":14152,"EnvironmentName":14153,"ĠContentType":14154,"ĠLegacySpecifier":14155,"breaks":14156,"Ext":14157,"`)<":14158,"Ð´":14159,"atched":14160,"Ġfk":14161,"Ġfingerprint":14162,"Ġworld":14163,"ĠGra":14164,"Ġdistinct":14165,"itionally":14166,"nost":14167,"Ġminute":14168,"contenttypes":14169,"Ġmodifier":14170,"###############<":14171,"Ġinvokes":14172,"Ġsemantics":14173,"Closed":14174,"Pub":14175,"dns":14176,"represent":14177,"Ġcas":14178,"Ġcircular":14179,"peated":14180,"Ġdl":14181,"ĠSchema":14182,"ĠPRE":14183,"Ġstroke":14184,"Ġgarbage":14185,"Ġ45":14186,"Project":14187,"Ġpaste":14188,"ANN":14189,"lengths":14190,"Ġqr":14191,"blk":14192,"sigma":14193,"intoptions":14194,"ĠConnectionError":14195,"ĠCreated":14196,"padded":14197,"Ġasy":14198,"ĠClasses":14199,"imension":14200,"Ġstoring":14201,"amount":14202,"005":14203,"ĠNeeded":14204,"Ġ['*.":14205,"internals":14206,"Universal":14207,"transfer":14208,"MACHINE":14209,"BOT":14210,"(?:\\":14211,"ĠService":14212,"Ġsides":14213,"150":14214,"Cent":14215,"promote":14216,"Ġreused":14217,"Ġ\"?":14218,"VersionControl":14219,"âĸĵ":14220,"domains":14221,"VALUES":14222,"Ġnullable":14223,"Ġ1997":14224,"Ġcrash":14225,"JANGO":14226,")``,":14227,"Cms":14228,"EK":14229,"]'))<":14230,"writes":14231,"Ġ><":14232,"servers":14233,"(\"(\"":14234,"Ġalmost":14235,"../":14236,"SENT":14237,"Ġtexture":14238,"sumer":14239,"MultiDict":14240,"Ġmultiplication":14241,"Ġbaseline":14242,"Collector":14243,"Ġreplacing":14244,"';":14245,"Ġcb":14246,"anion":14247,"ĠFreq":14248,"ĠNorm":14249,"assertCountEqual":14250,"Ġprojection":14251,"GGER":14252,"Ġpopulated":14253,"}'\".":14254,"Ġmedian":14255,">~~~~~~~~~~~~":14256,"Lst":14257,"segments":14258,"Ġmal":14259,"('[":14260,"ĠExit":14261,"Ġsudo":14262,"ĠResolver":14263,"Ġ','<":14264,"Sprite":14265,"Credentials":14266,
[...]
